<unk>	0
<s>	0
</s>	0
▁እ	-0
▁አ	-1
▁በ	-2
፡፡	-3
▁የ	-4
..	-5
▁እን	-6
▁መ	-7
▁ከ	-8
▁ወ	-9
▁ነ	-10
ቸው	-11
▁ስ	-12
▁ለ	-13
▁ይ	-14
▁ተ	-15
▁ያ	-16
▁እንደ	-17
....	-18
ችን	-19
▁‹	-20
▁ሁ	-21
››	-22
▁‹‹	-23
▁ብ	-24
▁ም	-25
▁ሰ	-26
▁ማ	-27
ል፡፡	-28
ንም	-29
▁የሚ	-30
▁ሲ	-31
▁ት	-32
ላይ	-33
▁ነው	-34
▁ል	-35
▁ግ	-36
ዎች	-37
▁ስለ	-38
▁ላይ	-39
▁ቤ	-40
▁አን	-41
ለሁ	-42
▁ወደ	-43
▁ገ	-44
ነት	-45
▁የተ	-46
▁ባ	-47
........	-48
▁አል	-49
▁ደ	-50
ውን	-51
በት	-52
▁ኢ	-53
▁-	-54
▁ው	-55
ሆነ	-56
▁ጊ	-57
▁በመ	-58
ገር	-59
ኝ፡፡	-60
▁ግን	-61
▁ነው፡፡	-62
ም፡፡	-63
ነበ	-64
▁ሊ	-65
▁ቀ	-66
ሆን	-67
ንድ	-68
ዚህ	-69
▁ሳ	-70
▁ለመ	-71
▁ዓ	-72
▁አስ	-73
ዚያ	-74
▁እንዳ	-75
▁ቱ	-76
ን፡፡	-77
▁ጥ	-78
▁እንዲ	-79
▁እየ	-80
▁ጋ	-81
▁ሁሉ	-82
▁ሌ	-83
ለሁ፡፡	-84
▁ታ	-85
▁ጊዜ	-86
▁ድ	-87
▁ክ	-88
ትሲ	-89
ቸውን	-90
ደር	-91
ለው	-92
ችሁ	-93
▁ቢ	-94
▁አይ	-95
▁በአ	-96
▁ፈ	-97
ንዳ	-98
▁ፍ	-99
▁አለ	-100
▁ለማ	-101
ምን	-102
▁ጠ	-103
▁መን	-104
▁ዘ	-105
▁አባ	-106
ትን	-107
▁በማ	-108
▁ይህ	-109
ኋላ	-110
▁ነገር	-111
ለት	-112
በር	-113
ጣም	-114
▁|	-115
▁እና	-116
▁ጋር	-117
...	-118
ምህ	-119
ስጥ	-120
ት፡፡	-121
▁በጣም	-122
ጀመ	-123
▁ውስጥ	-124
▁በተ	-125
▁በኋላ	-126
ሪያ	-127
▁ቤት	-128
ምህር	-129
▁ሰው	-130
ሆኑ	-131
▁በእ	-132
ኩ፡፡	-133
ሰማ	-134
▁ሕ	-135
................	-136
▁ቱትሲ	-137
ዳዮ	-138
ገድ	-139
▁ኪ	-140
▁ካ	-141
▁እያ	-142
▁ዓይ	-143
▁የመ	-144
ይወ	-145
▁የማ	-146
ብሔ	-147
ሩዋ	-148
ነበረ	-149
ሩዋንዳ	-150
ያው	-151
ደረ	-152
▁አንድ	-153
ተኛ	-154
ተሰ	-155
ፊት	-156
ታችን	-157
ምህርት	-158
▁የም	-159
▁እር	-160
ቱን	-161
ናቸው	-162
▁ምን	-163
ሥራ	-164
ኪዩ	-165
ኪዩሌ	-166
▁ነበር	-167
▁1	-168
ብሔር	-169
▁እኔ	-170
ማኪዩሌ	-171
▁ራ	-172
ዋል፡፡	-173
ቶች	-174
ገባ	-175
▁የሚያ	-176
▁ቆ	-177
▁እስ	-178
▁ክፍ	-179
ንና	-180
▁እንደሚ	-181
▁ቄ	-182
▁ዛ	-183
ሁ፡፡	-184
▁ምንም	-185
ቅር	-186
ዚአ	-187
ግዚአ	-188
▁ያለ	-189
ግዚአብሔር	-190
ሁን	-191
ፈል	-192
ሄድ	-193
ቢያ	-194
▁ዳ	-195
መን	-196
ታደ	-197
▁አም	-198
ች፡፡	-199
ማሲ	-200
▁ብዙ	-201
▁ገዳዮ	-202
መስ	-203
ተው	-204
ድር	-205
ረን	-206
ዴት	-207
▁ልጆ	-208
▁የአ	-209
ሮች	-210
▁ዩ	-211
ኛል፡፡	-212
▁ሁቱ	-213
ልኝ	-214
▁ጭ	-215
ዎችን	-216
ለም	-217
▁ሰዎች	-218
▁እንድ	-219
?››	-220
ማሲን	-221
ቹን	-222
▁ቃ	-223
▁ጸ	-224
▁ከአ	-225
ላት	-226
ል፤	-227
ያን	-228
▁ሙ	-229
ዘር	-230
▁ሴ	-231
▁የእ	-232
ቴን	-233
ሉ፡፡	-234
ታት	-235
ባቸው	-236
ስተ	-237
▁እንደሆነ	-238
▁ብቻ	-239
▁ወታደ	-240
ባት	-241
ጓደ	-242
ራት	-243
▁ወንድ	-244
▁አብ	-245
▁ከተ	-246
▁እንዴት	-247
ኛው	-248
▁ላ	-249
▁ቁ	-250
▁ከመ	-251
▁የት	-252
▁...	-253
▁ኢማኪዩሌ	-254
ርሃ	-255
!››	-256
ቻችን	-257
ሰብ	-258
▁ሆ	-259
▁ከዚያ	-260
ረስ	-261
ስታ	-262
ትና	-263
ኳን	-264
▁ነገ	-265
ገና	-266
ገደ	-267
▁በሚ	-268
▁ብዬ	-269
ረው	-270
ኖር	-271
▁አው	-272
▁እየተ	-273
ለን	-274
ሰው	-275
▁ቄሱ	-276
▁አላ	-277
▁ወይ	-278
▁ሕይወ	-279
▁እነ	-280
▁ይህን	-281
▁በር	-282
ስት	-283
ቻቸው	-284
▁አድር	-285
▁ሥራ	-286
ኔታ	-287
ላቸው	-288
▁ሲያ	-289
▁ሳይ	-290
ወሰ	-291
▁ትን	-292
▁ጓደ	-293
ንተ	-294
▁ሐ	-295
▁አባቴ	-296
ታጠ	-297
ጦር	-298
▁ን	-299
▁ጎ	-300
▁እንኳን	-301
▁አሳ	-302
▁እግዚአብሔር	-303
ነው	-304
የት	-305
ጽሐ	-306
ሆንም	-307
መጣ	-308
ናት	-309
▁ጉ	-310
▁አምላ	-311
ላጆ	-312
ዬን	-313
▁ሆነ	-314
ጀመሪያ	-315
▁ትምህርት	-316
ልቅ	-317
ምሮ	-318
ቀር	-319
▁ዳማሲን	-320
ለኝ	-321
ከር	-322
▁ስላ	-323
▁ተመ	-324
▁አሁን	-325
▁ነበር፡፡	-326
ህል	-327
ርሱ	-328
ፍጨ	-329
▁ብሎ	-330
ናል፡፡	-331
▁በላይ	-332
በረ	-333
ችል	-334
ክን	-335
ጨረ	-336
ፍራ	-337
ወቅ	-338
ድረ	-339
ፍጨፋ	-340
ቀው	-341
▁ቅ	-342
ታቸው	-343
▁መል	-344
▁የነበረ	-345
ረት	-346
ገኘ	-347
▁ታሪ	-348
ኩት	-349
▁ሞ	-350
▁ዕ	-351
ጀመር	-352
▁ቤቱ	-353
▁እንደተ	-354
▁ገዳዮቹ	-355
▁መጠ	-356
▁ሁኔታ	-357
▁መንገድ	-358
ሎች	-359
ቤተሰ	-360
▁እኛ	-361
▁ከእ	-362
▁ድም	-363
▁2	-364
▁በደ	-365
▁ናቸው	-366
▁ደግ	-367
▁መጽሐ	-368
ቼን	-369
▁ባለ	-370
▁ክፍል	-371
▁እንዲያ	-372
ሁት	-373
▁በሕ	-374
ታጠቢያ	-375
▁ያህል	-376
▁ር	-377
ሩን	-378
ብኝ	-379
ራቸው	-380
▁ልብ	-381
▁አመ	-382
▁ግድ	-383
▁በፊት	-384
▁ቤተሰ	-385
▁ዝ	-386
▁ልጅ	-387
▁ስት	-388
▁አየ	-389
▁ዓይኖ	-390
ሀገ	-391
ችላ	-392
ረንሳ	-393
ቱትሲ	-394
ጨረሻ	-395
▁ስሜ	-396
▁እስኪ	-397
▁ወላጆ	-398
ሩት	-399
ዎቹ	-400
ችንን	-401
▁ሰዓ	-402
▁ቀን	-403
▁ተስ	-404
በቅ	-405
ናል	-406
ለሁ፤	-407
▁እጅ	-408
▁ሄ	-409
▁ቦ	-410
▁ጦር	-411
▁ዓይነት	-412
ስቲ	-413
ቻል	-414
ከል	-415
▁ጀ	-416
▁ምሽ	-417
▁በፍ	-418
▁ዓመ	-419
ማር	-420
ንግ	-421
ግር	-422
▁ድረስ	-423
▁ጀመር	-424
ሉት	-425
ላቻ	-426
▁ስል	-427
▁የዘር	-428
▁ሩዋንዳ	-429
▁ስለሆነ	-430
▁ጭፍጨፋ	-431
▁በም	-432
▁በቀ	-433
▁ፍጅ	-434
▁እንደማ	-435
ለይ	-436
መድ	-437
ያት	-438
ፈለ	-439
▁ጥሩ	-440
ለን፡፡	-441
▁እዚህ	-442
▁በሕይወ	-443
ሴን	-444
ቅት	-445
ቸዋ	-446
ፈራ	-447
▁በየ	-448
ለች፡፡	-449
ኩት፡፡	-450
▁ወይንም	-451
ነቱ	-452
ወጣ	-453
ድን	-454
ገን	-455
ግባ	-456
ነበር	-457
ድረግ	-458
▁ወዲ	-459
▁ያን	-460
▁በዚህ	-461
▁በዚያ	-462
ለማ	-463
ሠራ	-464
ረጃ	-465
ረጋ	-466
ሽን	-467
ናገ	-468
ውቅ	-469
ዘው	-470
ገው	-471
▁ስፍራ	-472
▁መጽሐፍ	-473
▁ቢሆንም	-474
ርግ	-475
ኞች	-476
ወሰኑ	-477
ለች	-478
መጡ	-479
ትም	-480
ከሰ	-481
ላችን	-482
▁ማን	-483
▁ሁሉም	-484
▁ወቅት	-485
▁ቱትሲዎች	-486
ልን	-487
ቀም	-488
ፈጸ	-489
ላችሁ	-490
▁ሊያ	-491
▁ሌላ	-492
▁ልጆች	-493
ካሪ	-494
ያኑ	-495
ጥር	-496
ኳቸው	-497
▁ጠየ	-498
ታል፡፡	-499
▁እንደም	-500
መለ	-501
የር	-502
▁ች	-503
▁መጥ	-504
ላም	-505
ረዳ	-506
ቤት	-507
ንስ	-508
▁መስ	-509
ቻቸውን	-510
▁መሆኑ	-511
▁ወታደሮች	-512
▁ሙሉ	-513
▁የሆነ	-514
ማማ	-515
ምር	-516
ቀት	-517
ጠብ	-518
ጣት	-519
እምሮ	-520
▁ቃል	-521
ከርካሪ	-522
▁ተስፋ	-523
ግብ	-524
▁ስን	-525
▁ማለት	-526
▁ምክን	-527
▁ትንሽ	-528
▁እንግ	-529
▁እንዳይ	-530
ክር	-531
ጠኝ	-532
▁ለአ	-533
▁ምስ	-534
▁እኮ	-535
▁የለ	-536
ል፣	-537
ማሪ	-538
ሪን	-539
ቆጠ	-540
ወስ	-541
ጅም	-542
ጊዜ	-543
▁ጨ	-544
▁ሆኖ	-545
▁ለእ	-546
▁በል	-547
▁በት	-548
▁ወን	-549
▁አይደ	-550
ወደ	-551
ዕራ	-552
▁ደብ	-553
ረኝ	-554
ባክ	-555
ታው	-556
▁ቡ	-557
▁አሉ	-558
▁አት	-559
▁ያስ	-560
▁ሲሆን	-561
▁ታሪክ	-562
▁አንዳ	-563
▁እናቴ	-564
▁የማይ	-565
▁ከዚያም	-566
ገኝ	-567
▁ኖ	-568
▁ወዳ	-569
ም፤	-570
ችው	-571
▁ሃ	-572
▁ሥ	-573
▁ተሸ	-574
▁ገባ	-575
ታቸውን	-576
▁እንጂ	-577
ኢማኪዩሌ	-578
▁ወንድሜ	-579
ኖች	-580
▁(	-581
▁ረ	-582
▁ሁለ	-583
▁አካ	-584
▁እጅግ	-585
▁ይመስ	-586
▁እነዚህ	-587
በሩ	-588
ጀራ	-589
▁ፊ	-590
ሪንዚ	-591
ናገር	-592
▁ልቤ	-593
▁ሰማ	-594
▁አያ	-595
▁አዲ	-596
▁ምዕራ	-597
▁አስከ	-598
▁ሙሪንዚ	-599
▁አምላክ	-600
▁በሩዋንዳ	-601
ሉን	-602
ሥት	-603
ተዋ	-604
ገኙ	-605
▁ጽ	-606
▁ከሚ	-607
▁ውጪ	-608
▁ዘንድ	-609
▁የምት	-610
▁በእርግ	-611
ቀመ	-612
ከተ	-613
ያኒ	-614
▁አማ	-615
▁እርስ	-616
▁ደግሞ	-617
ቸዋል፡፡	-618
ህን	-619
ልክ	-620
ነግ	-621
ኞቹ	-622
ገግ	-623
ጠይ	-624
ጨነ	-625
ቪያኒ	-626
ገዳዮ	-627
▁ሲል	-628
▁ስም	-629
▁ቄስ	-630
▁ምዕራፍ	-631
▁እንዳለ	-632
በል	-633
ተን	-634
ችኋ	-635
ዘብ	-636
ያውኑ	-637
ደርግ	-638
▁በጥ	-639
▁ተደ	-640
▁የሰ	-641
▁ጓደኛ	-642
▁ሁቱዎች	-643
▁ወዲያውኑ	-644
ለያ	-645
ላው	-646
ሎይ	-647
ምዌ	-648
ርድ	-649
ቄሱ	-650
ታወ	-651
ኝታ	-652
ፈው	-653
ሎይዜ	-654
▁ብለው	-655
▁የነበ	-656
▁ፍቅር	-657
ሊዝ	-658
ደው	-659
ጋት	-660
▁ኃ	-661
ካከል	-662
▁የወ	-663
▁አደረ	-664
▁የምን	-665
▁ያለው	-666
▁ድምፅ	-667
▁ወላጆቼ	-668
▁ወታደሮ	-669
▁እንደገና	-670
ሙሉ	-671
ብን	-672
▁ጣ	-673
ራችን	-674
ሳቸው	-675
በትን	-676
▁አጥ	-677
▁እው	-678
▁ከማ	-679
ርሃምዌ	-680
▁ሰዓት	-681
▁በአንድ	-682
ራዊ	-683
ውቃ	-684
▁ኮ	-685
ገደሉ	-686
▁ሴት	-687
ላል፡፡	-688
▁ለምን	-689
▁ራሴን	-690
▁ስለሚ	-691
▁መካከል	-692
▁የቤተሰ	-693
▁በሕይወት	-694
ሰቃ	-695
ተር	-696
ነሳ	-697
ንቀ	-698
ን፣	-699
ግጠ	-700
▁ሽ	-701
ሊዝኛ	-702
▁በግ	-703
▁ከፍ	-704
▁ድር	-705
▁ድን	-706
ሁት፡፡	-707
ንም፡፡	-708
ፈረንሳ	-709
▁ሰላም	-710
▁እዚያ	-711
▁ደረጃ	-712
ያለሁ፡፡	-713
▁የሚቆጠ	-714
ንተርሃምዌ	-715
▁ናቸው፡፡	-716
ሄዱ	-717
መው	-718
ሞት	-719
ኛል	-720
ዳይ	-721
ሀገር	-722
ልጊዜ	-723
▁ሐሳ	-724
▁ብቸ	-725
▁ተሰ	-726
▁አፍ	-727
▁በሙሉ	-728
▁እባክ	-729
▁ሁልጊዜ	-730
▁ሕይወት	-731
▁ገዳዮች	-732
▁ቱትሲዎችን	-733
ለፍ	-734
ሉም	-735
ሞላ	-736
ያስ	-737
ዶች	-738
ጋሊ	-739
ጠራ	-740
ፋት	-741
▁መግ	-742
▁በቤ	-743
▁ቦታ	-744
▁አሁ	-745
▁አደ	-746
▁ዕድ	-747
▁ማንም	-748
▁ሴቶች	-749
▁አመሰ	-750
▁አንደ	-751
▁ፈገግ	-752
▁ሁሉንም	-753
▁መሆኑን	-754
▁ምክንያት	-755
ለሽ	-756
ቀስ	-757
ግኘ	-758
ጠው	-759
ኋቸው	-760
▁አቀ	-761
▁ወረ	-762
▁መንግ	-763
▁ምግብ	-764
▁አውቃ	-765
ሳይ	-766
ቂት	-767
በው	-768
ወራ	-769
ዋና	-770
ገል	-771
ገኛ	-772
▁ሚ	-773
▁ኤ	-774
ሏቸው	-775
ሦስት	-776
ሰማኝ	-777
▁ሌሊ	-778
▁መለ	-779
▁መሰ	-780
▁ያል	-781
▁ቢሆን	-782
▁አስተ	-783
▁ገጀራ	-784
▁ማድረግ	-785
▁መታጠቢያ	-786
▁የተወሰኑ	-787
▁ጀመር፡፡	-788
ላል	-789
ሬድ	-790
ሱን	-791
ኅና	-792
ንን	-793
ንፈ	-794
ወድ	-795
ዘጋ	-796
ጥታ	-797
ከሰተ	-798
ፈልጋ	-799
▁ተነ	-800
▁እጆ	-801
▁ያሉ	-802
▁ፊት	-803
ላችንም	-804
▁አንዱ	-805
▁ዓለም	-806
▁ግድያ	-807
ለህ	-808
ምት	-809
ርስ	-810
ስብ	-811
ሻለ	-812
ባቴ	-813
ንብ	-814
ግሁ	-815
ጠል	-816
ጸል	-817
▁ቋ	-818
ሳችን	-819
▁ሌሎ	-820
▁ከሁ	-821
▁ዘው	-822
▁ስለተ	-823
▁ቪያኒ	-824
▁እስከ	-825
▁በማለት	-826
ረፍ	-827
ሩአ	-828
ቂያ	-829
ብር	-830
ነቴ	-831
ነገ	-832
ክል	-833
ዲያ	-834
ደበቅ	-835
▁ሀገ	-836
▁መጣ	-837
▁በሰ	-838
▁ኃይ	-839
▁እም	-840
▁የኔ	-841
ታችንን	-842
ናቸውም	-843
ዳማሲን	-844
▁ሁለት	-845
▁ከዚህ	-846
▁ይችላ	-847
▁የሚቆጠሩ	-848
▁የሩዋንዳ	-849
▁የትምህርት	-850
ሩም	-851
ርሲ	-852
ቀኝ	-853
ቆም	-854
ኒቨ	-855
ገቡ	-856
▁ፖ	-857
ሬድዮ	-858
ርሲቲ	-859
▁አግ	-860
▁የራ	-861
▁መንገ	-862
▁ችግር	-863
▁አዲስ	-864
ኒቨርሲቲ	-865
▁እንዲያው	-866
19	-867
ሬን	-868
ቂቃ	-869
ታይ	-870
ኦገ	-871
ይማ	-872
▁መቁ	-873
▁አቅ	-874
▁የቀ	-875
▁ጸሎ	-876
ነበረው	-877
እምሮዬ	-878
ኦገስቲ	-879
▁ሌሎች	-880
▁አልተ	-881
▁እርግጠ	-882
▁እንዳል	-883
▁ፈረንሳ	-884
ላለ	-885
ሳት	-886
በብ	-887
ቱም	-888
ንደ	-889
ኝን	-890
አይ	-891
ወር	-892
ዳን	-893
ጠር	-894
ጠቀ	-895
ጠና	-896
▁ሸ	-897
ሩአግ	-898
ፈልግ	-899
▁በራ	-900
▁ፈል	-901
▁መንፈ	-902
▁ቀናት	-903
▁ይሰማ	-904
▁ጓደኞ	-905
▁ጥላቻ	-906
▁አባላት	-907
▁የነበረው	-908
▁የመጀመሪያ	-909
ልም	-910
ልቁ	-911
ም፣	-912
ረቤ	-913
ኑን	-914
ዋን	-915
የው	-916
ዳቤ	-917
ጠየ	-918
▁ሂ	-919
▁ዜ	-920
▁ዶ	-921
ደርስ	-922
▁በሁ	-923
▁በረ	-924
▁ብር	-925
▁የሁ	-926
▁የጥ	-927
ቻችንን	-928
ገዳዮቹ	-929
▁መሆን	-930
▁ምሽት	-931
▁ተመል	-932
▁ትልቅ	-933
▁አንቺ	-934
▁እርሱ	-935
▁ዓመት	-936
▁አሎይዜ	-937
▁አምላኬ	-938
▁እባክህ	-939
▁እርግጠኛ	-940
ሪቱ	-941
ርዝ	-942
ሰን	-943
ባረ	-944
ባቢ	-945
ቤን	-946
ተና	-947
ቻለ	-948
ከት	-949
ኩ፤	-950
ደል	-951
ጋሚ	-952
ግን	-953
መንጃ	-954
ሰቃቂ	-955
ስተኛ	-956
▁በዓ	-957
▁ባይ	-958
▁ውድ	-959
▁ገብ	-960
ብኝ፡፡	-961
▁ሀገር	-962
▁አባባ	-963
▁እንባ	-964
▁እኛን	-965
▁ኪጋሊ	-966
▁ስለዚህ	-967
▁በመሆኑ	-968
▁ስለነበር	-969
▁ተሸከርካሪ	-970
00	-971
ት፣	-972
ኝና	-973
ወዳ	-974
ዝብ	-975
ዩን	-976
ይታ	-977
▁ህ	-978
ተኞች	-979
▁ራሳ	-980
▁ሲሉ	-981
▁አድ	-982
▁ዘመ	-983
▁የበ	-984
ችኝ፡፡	-985
▁ነው፤	-986
▁ደቂቃ	-987
▁አሁንም	-988
▁ኦገስቲ	-989
▁ዓመታት	-990
ልፍ	-991
መሰ	-992
ሞቼ	-993
ባር	-994
ቦች	-995
ከላ	-996
ዎን	-997
ዮሃ	-998
ጠለ	-999
ጹም	-1000
ሣሪያ	-1001
ቶችን	-1002
ውያኑ	-1003
ውያን	-1004
ደርጉ	-1005
ደርጋ	-1006
▁ማስ	-1007
▁እህ	-1008
▁ይሆ	-1009
ልኝ፡፡	-1010
ኩም፡፡	-1011
ዮሃንስ	-1012
▁ሐሳብ	-1013
▁መጠን	-1014
▁ስሜት	-1015
▁አልፎ	-1016
▁አብዛ	-1017
▁ፍጅት	-1018
▁ነገሮች	-1019
▁አድርጌ	-1020
▁ደብዳቤ	-1021
▁በእርግጥ	-1022
ረጥ	-1023
ታዊ	-1024
ንቋ	-1025
ገዛ	-1026
ግና	-1027
▁ጌ	-1028
ለውን	-1029
ኅረት	-1030
ነትና	-1031
ንዳን	-1032
▁በሌ	-1033
▁ተራ	-1034
▁ተን	-1035
▁ወሬ	-1036
▁ወጥ	-1037
▁ቃላት	-1038
▁የተረ	-1039
▁ጀምሮ	-1040
ተዋል፡፡	-1041
▁መጨረሻ	-1042
▁የቱትሲ	-1043
▁አልነበረ	-1044
ሞች	-1045
ብዙ	-1046
ትር	-1047
ቼም	-1048
ናግ	-1049
ንካ	-1050
ንዴ	-1051
ዕሰ	-1052
ዝና	-1053
ይን	-1054
ደብ	-1055
ዲህ	-1056
ገረ	-1057
መለስ	-1058
ረቤቶ	-1059
ርሃን	-1060
ወንድ	-1061
ዎቹን	-1062
ዎችና	-1063
ፈልጉ	-1064
▁ሄደ	-1065
▁ልት	-1066
▁ልዩ	-1067
▁በነ	-1068
▁ትዕ	-1069
▁ከሰ	-1070
▁ከነ	-1071
▁ደር	-1072
▁ፖል	-1073
ሯል፡፡	-1074
ናልባት	-1075
▁መኝታ	-1076
▁ቁጥር	-1077
▁በስተ	-1078
▁አሰብ	-1079
▁ይሆን	-1080
▁ፍጅቱ	-1081
ዋለሁ፡፡	-1082
▁አልቻል	-1083
▁አሰቃቂ	-1084
▁እንድን	-1085
▁ጠመንጃ	-1086
▁መጀመሪያ	-1087
▁ስለሆነም	-1088
▁ወታደሮቹ	-1089
▁በመታጠቢያ	-1090
ሜን	-1091
ረብ	-1092
ሶች	-1093
ቆጣ	-1094
በላ	-1095
በቃ	-1096
ባል	-1097
ኖሩ	-1098
ኩና	-1099
ዋል	-1100
ዢን	-1101
ያዙ	-1102
ገት	-1103
ጠን	-1104
▁ጮ	-1105
ኛል፤	-1106
ግኘት	-1107
ጡ፡፡	-1108
▁ለተ	-1109
▁ልን	-1110
▁ሐይ	-1111
▁በበ	-1112
▁ቤቴ	-1113
▁ተቀ	-1114
▁ስለማ	-1115
▁በእጅ	-1116
▁ቤቱን	-1117
▁አገኘ	-1118
▁ይዘው	-1119
▁ይገባ	-1120
▁መሣሪያ	-1121
▁ጦርነቱ	-1122
▁እንደማይ	-1123
▁በትምህርት	-1124
ሁና	-1125
ሆና	-1126
ሊባ	-1127
ነቀ	-1128
ንጆ	-1129
ከፍ	-1130
ክት	-1131
ዋት	-1132
ደበ	-1133
ገብ	-1134
ጊዛ	-1135
ጋሪ	-1136
ፈን	-1137
ስታው	-1138
ያቸው	-1139
ያንስ	-1140
ይማብ	-1141
ገድሉ	-1142
ጨማሪ	-1143
ጽያኑ	-1144
▁ለሚ	-1145
▁ኖሮ	-1146
▁የል	-1147
▁የቆ	-1148
▁ያሳ	-1149
▁ግቢ	-1150
ሃለሁ፤	-1151
ሊባጊዛ	-1152
▁ሌሊት	-1153
▁በዘር	-1154
▁ነበረ	-1155
▁ነገረ	-1156
▁የሚል	-1157
▁የሰው	-1158
▁ቤተሰብ	-1159
▁ምናልባት	-1160
▁ዓይኖቼን	-1161
ላክ	-1162
ርጉ	-1163
ሰት	-1164
ሻል	-1165
ቅም	-1166
ዘን	-1167
ያቄ	-1168
ያዝ	-1169
ጡት	-1170
ኩበት	-1171
ጠሪያ	-1172
▁ነፍ	-1173
▁አዳ	-1174
▁አገ	-1175
▁የታ	-1176
▁የግ	-1177
▁ገና	-1178
▁ገን	-1179
▁ግደ	-1180
▁ፈለ	-1181
▁ፍራ	-1182
▁ሆኖም	-1183
▁መሄድ	-1184
▁ኃይል	-1185
▁ነበሩ	-1186
▁አስደ	-1187
▁እኔን	-1188
ኳቸው፡፡	-1189
▁ምኅረት	-1190
▁ሳይሆን	-1191
▁አለ፡፡	-1192
▁ሁላችንም	-1193
▁በመጨረሻ	-1194
▁እንደዚያ	-1195
▁በአእምሮዬ	-1196
ርባ	-1197
ስደ	-1198
ቀረ	-1199
ቆይ	-1200
ብሎ	-1201
ታዬ	-1202
ቶቹ	-1203
ኝ፤	-1204
ከብ	-1205
ዮን	-1206
ግሮ	-1207
▁5	-1208
▁ሮ	-1209
▁ጫ	-1210
በትና	-1211
▁ለም	-1212
▁አታ	-1213
▁እመ	-1214
▁ከሌ	-1215
▁ከኔ	-1216
▁ወጣ	-1217
▁የደ	-1218
▁የፍ	-1219
▁ዳር	-1220
ሀገሪቱ	-1221
ለኝ፡፡	-1222
ክርስቲ	-1223
ጠኝነት	-1224
▁መጥፎ	-1225
▁ሳምን	-1226
▁ቆንጆ	-1227
▁በሩን	-1228
▁በድን	-1229
▁ተማሪ	-1230
▁ተግባ	-1231
▁አስቸ	-1232
▁እውነ	-1233
▁ከሆነ	-1234
▁ቢያንስ	-1235
▁ነች፡፡	-1236
▁ኢሊባጊዛ	-1237
▁እንዲያውም	-1238
▁እንግሊዝኛ	-1239
ለየ	-1240
ማና	-1241
ሰበ	-1242
ቀኑ	-1243
ቁት	-1244
ቃይ	-1245
በሳ	-1246
ነሣ	-1247
ካታ	-1248
ሊዮን	-1249
ባችን	-1250
ታችሁ	-1251
ዙሪያ	-1252
ጠየቅ	-1253
▁መሬ	-1254
▁መዝ	-1255
▁መጸ	-1256
▁በኔ	-1257
▁በገ	-1258
▁ብት	-1259
▁ትው	-1260
▁አጋ	-1261
▁ከል	-1262
▁ከቤ	-1263
▁ተቀም	-1264
▁እማማ	-1265
▁ወራት	-1266
▁ያደረ	-1267
▁ጠየቅ	-1268
▁ቤታችን	-1269
▁አድርጎ	-1270
▁የተመድ	-1271
▁የነበሩ	-1272
▁የጥላቻ	-1273
▁ገንዘብ	-1274
▁መንግሥት	-1275
▁ኢንተርሃምዌ	-1276
ለል	-1277
መም	-1278
መር	-1279
ቀን	-1280
ቅስ	-1281
ቆሙ	-1282
ቿን	-1283
ከባ	-1284
ክስ	-1285
ደት	-1286
ገለ	-1287
ጎች	-1288
ጣን	-1289
ፈር	-1290
ፉት	-1291
▁3	-1292
ጀመረ	-1293
▁ለኔ	-1294
▁ሰም	-1295
▁በሺ	-1296
▁በው	-1297
▁በድ	-1298
▁በጸ	-1299
▁ኪሎ	-1300
▁ያየ	-1301
▁ይታ	-1302
ቀኝ፡፡	-1303
▁ለማሳ	-1304
▁መልካ	-1305
▁ስትል	-1306
▁ቋንቋ	-1307
▁በቀጣ	-1308
▁ቤቶች	-1309
▁ነገሩ	-1310
▁አግኝ	-1311
▁እናም	-1312
▁እናት	-1313
▁እያለ	-1314
▁ያንን	-1315
▁ጉዳይ	-1316
▁በኋላም	-1317
▁ብርሃን	-1318
▁አላውቅ	-1319
▁እንደሆን	-1320
ላቅ	-1321
ልጽ	-1322
መል	-1323
መና	-1324
ረድ	-1325
ሪካ	-1326
ቅድ	-1327
ባበ	-1328
ብረ	-1329
ኝም	-1330
ወሩ	-1331
ውም	-1332
ያየ	-1333
ዲት	-1334
ዳዳ	-1335
ጆሮ	-1336
ጋና	-1337
ጣሪ	-1338
ፈት	-1339
▁4	-1340
▁6	-1341
▁ሜ	-1342
ረጅም	-1343
ኛውን	-1344
ውነት	-1345
ው፡፡	-1346
ጨነቅ	-1347
ጸልይ	-1348
ፈጸሙ	-1349
▁ስደ	-1350
▁ቃላ	-1351
▁ቆየ	-1352
▁ወር	-1353
▁ይዞ	-1354
▁ገደ	-1355
▁ታዲያ	-1356
▁ከተማ	-1357
▁ዘውግ	-1358
▁ጸለይ	-1359
ፈረንሳይ	-1360
▁በፍጹም	-1361
▁አስከሬ	-1362
▁እንድት	-1363
▁የሚሆኑ	-1364
▁ያለውን	-1365
▁ዮሃንስ	-1366
▁ጎረቤቶ	-1367
▁መቁጠሪያ	-1368
▁አለኝ፡፡	-1369
▁ጭፍጨፋው	-1370
ሄዳ	-1371
ለበ	-1372
ሾካ	-1373
ቀል	-1374
ብቅ	-1375
ታተ	-1376
ችና	-1377
ክራ	-1378
ጥቶ	-1379
ለማው	-1380
ንቀሳ	-1381
ንበት	-1382
ዋል፤	-1383
ገኘው	-1384
ጥነት	-1385
▁ሄድ	-1386
▁መነ	-1387
▁መኰ	-1388
▁ስር	-1389
▁ቀስ	-1390
▁አነ	-1391
▁ከለ	-1392
▁ክፉ	-1393
▁ዢን	-1394
▁ደስ	-1395
▁ገለ	-1396
ቷል፡፡	-1397
ንድነው	-1398
ይማብል	-1399
▁ምሽግ	-1400
▁ሦስት	-1401
▁በረሮ	-1402
▁አሳል	-1403
▁እስካ	-1404
▁እወድ	-1405
▁ዝርዝ	-1406
▁ይሁን	-1407
▁ደኅና	-1408
ሰማኝ፡፡	-1409
ሻለሁ፡፡	-1410
ቱትሲዎች	-1411
▁ሚሊዮን	-1412
▁በየቀኑ	-1413
▁አልፈለ	-1414
▁እስኪያ	-1415
▁እነርሱ	-1416
▁አይደለም	-1417
▁እነዚህን	-1418
▁እንደዚህ	-1419
▁ለመጀመሪያ	-1420
▁እንደነበር	-1421
▁ኢማኪዩሌ፡፡	-1422
ምና	-1423
ሥር	-1424
ሰቡ	-1425
ቋቋ	-1426
ቡን	-1427
ችሉ	-1428
ንቅ	-1429
ንቺ	-1430
ኖራ	-1431
እን	-1432
ወለ	-1433
ውና	-1434
ዓት	-1435
ዣኔ	-1436
ለተኛ	-1437
መስል	-1438
ረጋገ	-1439
ኝነት	-1440
ወቅቱ	-1441
ዓለም	-1442
ገናኘ	-1443
ጠብቅ	-1444
▁20	-1445
▁ልክ	-1446
▁ሠራ	-1447
▁ቅዱ	-1448
▁ትክ	-1449
▁አቃ	-1450
▁ካል	-1451
▁ወሰ	-1452
▁ዋና	-1453
▁የሕ	-1454
▁የኢ	-1455
▁ይሰ	-1456
ታወቂያ	-1457
ቸው፡፡	-1458
▁ሕዝብ	-1459
▁ማየት	-1460
▁ረጅም	-1461
▁በመስ	-1462
▁በቅር	-1463
▁በበኩ	-1464
▁አንተ	-1465
▁ዕድሜ	-1466
▁ይህም	-1467
▁ጥቂት	-1468
▁ጥያቄ	-1469
ተክርስቲ	-1470
▁ሰዎችን	-1471
▁ሰዓታት	-1472
▁ሲሆን፤	-1473
▁በተለይ	-1474
▁ነኝ፡፡	-1475
▁የሚያስ	-1476
▁በርሳችን	-1477
▁ግደሏቸው	-1478
ሄደ	-1479
ሉ፤	-1480
ላማ	-1481
ራር	-1482
ሹክ	-1483
ቅን	-1484
ባሪ	-1485
ተረ	-1486
ታል	-1487
ነካ	-1488
ከለ	-1489
ኩም	-1490
ዘዋ	-1491
ያም	-1492
ዱን	-1493
ጠፋ	-1494
ጣሬ	-1495
ጨፍ	-1496
ፈች	-1497
ፍቅ	-1498
ፍታ	-1499
▁9	-1500
▁ና	-1501
▁ዐ	-1502
ሾካሾ	-1503
ቀመጥ	-1504
ታደር	-1505
ችለው	-1506
ነቴን	-1507
ዘጋጀ	-1508
ደርሱ	-1509
ገባኝ	-1510
ፈጸም	-1511
▁15	-1512
▁19	-1513
▁ሆይ	-1514
▁ለሁ	-1515
▁መጻ	-1516
▁በቃ	-1517
▁ብን	-1518
▁ተጠ	-1519
▁ነሽ	-1520
▁ከጥ	-1521
▁ዝግ	-1522
▁ጥር	-1523
በት፡፡	-1524
▁መቼም	-1525
▁ሰውዬ	-1526
▁ቁልቁ	-1527
▁በመን	-1528
▁ቡድን	-1529
▁እኔም	-1530
▁ኪሎሜ	-1531
▁ወጣት	-1532
▁የቄሱ	-1533
▁ይቅር	-1534
ላቸው፡፡	-1535
ቻለሁ፡፡	-1536
ንግሊዝኛ	-1537
▁ሁለተኛ	-1538
▁በእጅጉ	-1539
▁በዚያን	-1540
▁ትምህር	-1541
▁አልችል	-1542
▁አንዳች	-1543
▁አካባቢ	-1544
▁እናንተ	-1545
▁እንዲህ	-1546
▁ወደፊት	-1547
▁ጓደኞቼ	-1548
▁ጦርነት	-1549
ዩኒቨርሲቲ	-1550
▁መታወቂያ	-1551
▁ስደተኞች	-1552
▁በሕይወቴ	-1553
▁እንደምን	-1554
▁እያንዳን	-1555
▁ወንድሞቼ	-1556
▁የዳማሲን	-1557
▁ተሰማኝ፡፡	-1558
▁የነበረውን	-1559
▁አውቃለሁ፡፡	-1560
▁በእርግጠኝነት	-1561
▁አልቻልኩም፡፡	-1562
ሂድ	-1563
ልባ	-1564
ልና	-1565
መረ	-1566
መት	-1567
መኝ	-1568
ማት	-1569
ርጥ	-1570
ስለ	-1571
ቀድ	-1572
ቆቃ	-1573
ቆየ	-1574
ባብ	-1575
ቶሎ	-1576
ቶቼ	-1577
ነፍ	-1578
ንጸ	-1579
ከበ	-1580
ክፍ	-1581
የኝ	-1582
ጉን	-1583
ግራ	-1584
▁8	-1585
ሳለፍ	-1586
ሻለቃ	-1587
በረታ	-1588
ችሁን	-1589
ክተር	-1590
ዚያን	-1591
ገናኛ	-1592
ገደል	-1593
ጣቸው	-1594
▁13	-1595
▁መር	-1596
▁ራሴ	-1597
▁ቢያ	-1598
▁ባል	-1599
▁ትኩ	-1600
▁አና	-1601
▁እላ	-1602
▁ከግ	-1603
▁ካለ	-1604
▁ውሃ	-1605
▁ገጽ	-1606
▁ጉዳ	-1607
ንግሥት	-1608
ጭፍጨፋ	-1609
▁ምስል	-1610
▁ሞከር	-1611
▁ሬድዮ	-1612
▁ርዕሰ	-1613
▁ባለው	-1614
▁ብሎም	-1615
▁እችላ	-1616
▁ክፍሉ	-1617
▁የሁቱ	-1618
▁የመጣ	-1619
▁የሚሰ	-1620
▁መንደር	-1621
▁ምክንያ	-1622
▁በቀጣዩ	-1623
▁በተመድ	-1624
▁በወቅቱ	-1625
▁ብቸኛው	-1626
▁እምነት	-1627
▁ከአንድ	-1628
▁ያሉትን	-1629
▁ጓደኛዬ	-1630
▁ራሳቸውን	-1631
▁በስተቀር	-1632
▁ኖሯል፡፡	-1633
▁አስቸጋሪ	-1634
▁እንደሚያ	-1635
▁እንደምት	-1636
▁እንግዲህ	-1637
▁በማናቸውም	-1638
▁የኢማኪዩሌ	-1639
▁ይሆናል፡፡	-1640
▁እግዚአብሔርን	-1641
▁የእግዚአብሔር	-1642
ለብ	-1643
ሎት	-1644
ሎቹ	-1645
ሙን	-1646
ምጣ	-1647
ራው	-1648
ስኩ	-1649
ሸማ	-1650
ሽና	-1651
ቀነ	-1652
ቁም	-1653
ብሽ	-1654
ተት	-1655
ናን	-1656
ኔን	-1657
ክብ	-1658
ኸው	-1659
ዎት	-1660
ያዊ	-1661
ደም	-1662
ጄን	-1663
ጅት	-1664
ገም	-1665
ጠረ	-1666
ጠበ	-1667
ጠት	-1668
ጽሞ	-1669
ፍት	-1670
▁.	-1671
▁ዋ	-1672
ራቢያ	-1673
ሳሳይ	-1674
ስታወ	-1675
ቀበል	-1676
ቸዋል	-1677
ቻለኝ	-1678
ናንተ	-1679
ናገሩ	-1680
ዱ፡፡	-1681
ድረስ	-1682
ድስት	-1683
ጠበቅ	-1684
▁17	-1685
▁መው	-1686
▁ማጥ	-1687
▁ሳራ	-1688
▁ስና	-1689
▁ቀና	-1690
▁በወ	-1691
▁በጉ	-1692
▁ንግ	-1693
▁ንጹ	-1694
▁አር	-1695
▁አቋ	-1696
▁ዛሬ	-1697
▁ጉዞ	-1698
ለም፡፡	-1699
ልን፡፡	-1700
▁ሌሎቹ	-1701
▁ልብሶ	-1702
▁ሥቃይ	-1703
▁አለች	-1704
▁እርሷ	-1705
▁ያውቃ	-1706
▁ይመጣ	-1707
▁ጥብቅ	-1708
▁ጽንፈ	-1709
▁በደስታ	-1710
▁በደኅና	-1711
▁በደንብ	-1712
▁አሉ፡፡	-1713
▁አብረን	-1714
▁አይቀር	-1715
▁እናፍቅ	-1716
▁እፈልጋ	-1717
▁ከሁለት	-1718
▁ከቤተሰ	-1719
▁የእርሱ	-1720
▁የወንድ	-1721
▁ለማድረግ	-1722
▁በፍጥነት	-1723
▁ነበሩ፡፡	-1724
▁እስካሁን	-1725
▁ከተወሰኑ	-1726
▁ዳማሲንን	-1727
▁ዩኒቨርሲቲ	-1728
ለጠ	-1729
ማሽ	-1730
ቀሳ	-1731
ቡዬ	-1732
ነጋ	-1733
ከሻ	-1734
ኩል	-1735
ዛት	-1736
ያይ	-1737
ይት	-1738
ደራ	-1739
ዶቹ	-1740
ጆቼ	-1741
ገነ	-1742
ጓጓ	-1743
ጡን	-1744
ጽና	-1745
ፍን	-1746
▁7	-1747
▁ሣ	-1748
ለሁ፣	-1749
ልክት	-1750
ሞክር	-1751
ቃቸው	-1752
ንካሬ	-1753
ኖረው	-1754
ወቅሁ	-1755
ጠቀም	-1756
▁14	-1757
▁22	-1758
▁ለቅ	-1759
▁ማለ	-1760
▁ማየ	-1761
▁ሳለ	-1762
▁በኪ	-1763
▁በጎ	-1764
▁ነህ	-1765
▁ነኝ	-1766
▁ክር	-1767
▁ዣኔ	-1768
▁ይቻ	-1769
▁ይዤ	-1770
▁ደረ	-1771
መስገን	-1772
ባቸውን	-1773
▁ሆነው	-1774
▁ልብስ	-1775
▁ልጆቹ	-1776
▁በልጅ	-1777
▁በመቶ	-1778
▁ተነሥ	-1779
▁ወይም	-1780
▁የሰማ	-1781
▁ያሉት	-1782
▁ድርጊ	-1783
▁ጠዋት	-1784
▁ጸሎት	-1785
በታል፡፡	-1786
ዎቻቸውን	-1787
▁ሕይወቴ	-1788
▁መልካም	-1789
▁ሳይቀር	-1790
▁በፍቅር	-1791
▁አድርጋ	-1792
▁እንድና	-1793
▁እያደረ	-1794
▁ክፍሎች	-1795
▁ወረቀት	-1796
▁የሆነው	-1797
▁የሚያሳ	-1798
▁ይገድሉ	-1799
▁ልጆቻቸው	-1800
▁ሳምንታት	-1801
▁በእውነት	-1802
▁አልኩ፡፡	-1803
▁አመሰገን	-1804
▁አብዛኞቹ	-1805
▁አድርገው	-1806
▁ኪሎሜትር	-1807
▁የነበሩት	-1808
▁እየተከሰተ	-1809
ሆሮ	-1810
ሞቱ	-1811
ስል	-1812
ቀጥ	-1813
ቆመ	-1814
ባሰ	-1815
ብራ	-1816
ንክ	-1817
ከፋ	-1818
ኮት	-1819
ዎቼ	-1820
የሁ	-1821
ዲስ	-1822
ድኑ	-1823
ድያ	-1824
ገዳ	-1825
ገፋ	-1826
ጊያ	-1827
ጻፍ	-1828
ፈነ	-1829
▁ሺ	-1830
▁ዲ	-1831
ምንም	-1832
ረ፡፡	-1833
ርሃት	-1834
ሳምን	-1835
ተዋል	-1836
ነበሩ	-1837
ነቱን	-1838
ውቀው	-1839
ዘውግ	-1840
ፒየር	-1841
▁10	-1842
▁11	-1843
▁12	-1844
▁16	-1845
▁18	-1846
▁ሃሳ	-1847
▁ለወ	-1848
▁መላ	-1849
▁መታ	-1850
▁ማታ	-1851
▁ማው	-1852
▁ሰለ	-1853
▁ሰጠ	-1854
▁ስብ	-1855
▁ቀር	-1856
▁ቀጥ	-1857
▁በታ	-1858
▁በጨ	-1859
▁በፊ	-1860
▁ነጻ	-1861
▁ከበ	-1862
▁ዕጣ	-1863
▁ዝም	-1864
▁የሌ	-1865
▁የስ	-1866
▁የው	-1867
▁ያም	-1868
▁ያዝ	-1869
▁ደም	-1870
▁ግር	-1871
▁ጸል	-1872
▁ጸጉ	-1873
ብን፡፡	-1874
ግሁ፡፡	-1875
▁ልቤን	-1876
▁ራሱን	-1877
▁ሲያስ	-1878
▁ሻለቃ	-1879
▁ቅዱስ	-1880
▁በርስ	-1881
▁ብለን	-1882
▁ብቸኛ	-1883
▁ተመለ	-1884
▁ነው፣	-1885
▁አልኩ	-1886
▁አስፈ	-1887
▁አብሮ	-1888
▁አንዷ	-1889
▁አደጋ	-1890
▁እቤት	-1891
▁ከለላ	-1892
▁ወንጀ	-1893
▁የአባ	-1894
▁ይልቅ	-1895
▁ጀርባ	-1896
▁ገዳይ	-1897
▁ገጽታ	-1898
▁ግሩም	-1899
▁ፈጽሞ	-1900
ሽከርካሪ	-1901
▁ሌሎቹን	-1902
▁መጣ፡፡	-1903
▁መጽሐፉ	-1904
▁ምስጋና	-1905
▁ቁልቁል	-1906
▁በርካታ	-1907
▁በቅርቡ	-1908
▁በድጋሚ	-1909
▁ትዕይን	-1910
▁እንግዳ	-1911
▁እውነት	-1912
▁ወታደር	-1913
▁ሕይወቴን	-1914
▁አንደኛው	-1915
▁ከሩዋንዳ	-1916
▁አሰብኩ፡፡	-1917
▁እያንዳንዷ	-1918
▁አላውቅም፡፡	-1919
▁አይደለም፡፡	-1920
▁ከእግዚአብሔር	-1921
▁የኢንተርሃምዌ	-1922
io	-1923
ለመ	-1924
ለጋ	-1925
ልል	-1926
ልጅ	-1927
ሐይ	-1928
ማመ	-1929
ምለ	-1930
ምቶ	-1931
ሮቹ	-1932
ሮው	-1933
ስን	-1934
ቀሰ	-1935
ቁር	-1936
ቃት	-1937
ናው	-1938
ን፤	-1939
ኦና	-1940
ዊት	-1941
ደን	-1942
ዳም	-1943
ጁን	-1944
ገዝ	-1945
ጉት	-1946
ግስ	-1947
ጠሉ	-1948
ጩኸ	-1949
ፈጽ	-1950
▁ዱ	-1951
ሆኑት	-1952
ሆንኩ	-1953
ለያዩ	-1954
ምነት	-1955
ሳችሁ	-1956
ቅርብ	-1957
ቶቹን	-1958
ነዚህ	-1959
ከታተ	-1960
ገውን	-1961
ፈጸመ	-1962
▁21	-1963
▁ሁሌ	-1964
▁ሄዶ	-1965
▁ለራ	-1966
▁ሕፃ	-1967
▁ሲጨ	-1968
▁ስታ	-1969
▁በሃ	-1970
▁በጠ	-1971
▁በጽ	-1972
▁ተዋ	-1973
▁ታስ	-1974
▁ቶሎ	-1975
▁ነች	-1976
▁ከፈ	-1977
▁ወስ	-1978
▁ውጤ	-1979
▁ዘበ	-1980
▁ፈር	-1981
ላቸውን	-1982
ኦናርድ	-1983
ከላከል	-1984
ደርገው	-1985
ጦርነቱ	-1986
▁ለመን	-1987
▁ለመግ	-1988
▁ሊገድ	-1989
▁መሬት	-1990
▁መኖር	-1991
▁መዝሙ	-1992
▁ርቀት	-1993
▁በማን	-1994
▁በማይ	-1995
▁በቤቱ	-1996
▁በአን	-1997
▁በዓይ	-1998
▁ትንሹ	-1999
▁አለመ	-2000
▁አንዴ	-2001
▁እንዴ	-2002
▁እገዛ	-2003
▁ከአም	-2004
▁ወደኔ	-2005
▁ዘገባ	-2006
▁ዙሪያ	-2007
▁ዜጎች	-2008
▁የምና	-2009
▁ገደማ	-2010
▁ግልጽ	-2011
▁ግንኙ	-2012
▁ፍለጋ	-2013
ጭፍጨፋው	-2014
▁በማሰብ	-2015
▁ቤተሰቤ	-2016
▁አስታው	-2017
▁አንዲት	-2018
▁አእምሮ	-2019
▁አደገኛ	-2020
▁ወንድም	-2021
▁ዓይኖች	-2022
▁ዝርዝር	-2023
▁የሩአግ	-2024
▁የተለየ	-2025
▁የተሞላ	-2026
▁የተረፉ	-2027
▁ጊዜያት	-2028
▁ጥንካሬ	-2029
▁ለመጠየቅ	-2030
▁በተጨማሪ	-2031
▁ቤተሰቤን	-2032
▁አማጽያኑ	-2033
▁አንሾካሾ	-2034
▁እውነተኛ	-2035
▁ኦገስቲን	-2036
▁ገዳዮቹን	-2037
▁የመንግሥት	-2038
▁ፈረንሳውያኑ	-2039
at	-2040
ሁኑ	-2041
ላን	-2042
ሎኔ	-2043
መሩ	-2044
ራጭ	-2045
ሰሙ	-2046
ሽው	-2047
ቀፍ	-2048
ቻሉ	-2049
ነኛ	-2050
ናቴ	-2051
ክለ	-2052
ዘገ	-2053
ደድ	-2054
ዳጃ	-2055
ጋይ	-2056
ጋግ	-2057
ጥን	-2058
ጨት	-2059
ፋሪ	-2060
▁ሶ	-2061
199	-2062
ion	-2063
ህዎች	-2064
ረጋግ	-2065
ርጉም	-2066
ሯቸው	-2067
ሰማው	-2068
ባቢያ	-2069
ችንና	-2070
ነርሱ	-2071
ናገራ	-2072
ኖረኝ	-2073
አልባ	-2074
ከሰት	-2075
ውቅም	-2076
ዘኔታ	-2077
ጃቸው	-2078
ጠ፡፡	-2079
▁23	-2080
▁ሆኜ	-2081
▁መቶ	-2082
▁ማር	-2083
▁ቀል	-2084
▁ቆመ	-2085
▁ቆይ	-2086
▁ቋሚ	-2087
▁በስ	-2088
▁ባሉ	-2089
▁ቦን	-2090
▁ተሳ	-2091
▁ታው	-2092
▁አጎ	-2093
▁አጠ	-2094
▁አፈ	-2095
▁ከራ	-2096
▁ከባ	-2097
▁ከት	-2098
▁ከኛ	-2099
▁ዘር	-2100
▁ዜና	-2101
▁የኪ	-2102
▁የጎ	-2103
▁ይለ	-2104
▁ይጠ	-2105
ነታችን	-2106
ኝም፡፡	-2107
▁ለፊት	-2108
▁ሩአግ	-2109
▁ሲመጡ	-2110
▁በመግ	-2111
▁በምሽ	-2112
▁በውስ	-2113
▁ተመኘ	-2114
▁ታላቅ	-2115
▁አባት	-2116
▁አንብ	-2117
▁እጄን	-2118
▁እግሮ	-2119
▁ከሚያ	-2120
▁ክስተ	-2121
▁ክፍለ	-2122
▁ወዳጅ	-2123
▁ዐቅም	-2124
▁ዓይን	-2125
▁የምታ	-2126
▁ዳማሲ	-2127
▁ፈተና	-2128
▁ፍርድ	-2129
ation	-2130
ለኝም፡፡	-2131
ብኛል፡፡	-2132
ኋቸው፡፡	-2133
▁ለመሆን	-2134
▁ለማየት	-2135
▁ለረጅም	-2136
▁ማስታወ	-2137
▁በመንደ	-2138
▁በሺዎች	-2139
▁በነበረ	-2140
▁ከጥቂት	-2141
▁ከፍተኛ	-2142
▁የተነሣ	-2143
▁ዶክተር	-2144
▁ጥርጣሬ	-2145
ቸዋለሁ፡፡	-2146
ችኋለሁ፡፡	-2147
▁በቤታችን	-2148
▁አምላክን	-2149
▁አስከባሪ	-2150
▁ኤይማብል	-2151
▁ደቂቃዎች	-2152
▁አስከሬኖች	-2153
▁ጸለይኩ፡፡	-2154
▁እወድሃለሁ፤	-2155
▁ይሰማኛል፡፡	-2156
▁እናፍቅሃለሁ፤	-2157
ላቀ	-2158
ላዊ	-2159
ልበ	-2160
መራ	-2161
ሪክ	-2162
ሪው	-2163
ራሲ	-2164
ራሽ	-2165
ርክ	-2166
ርፍ	-2167
ሷን	-2168
ቀደ	-2169
ቁን	-2170
ቤቱ	-2171
ትዮ	-2172
ነሱ	-2173
ደጋ	-2174
ግሩ	-2175
ፈሩ	-2176
ፈጥ	-2177
ፍኜ	-2178
▁ኬ	-2179
መለሱ	-2180
ማመን	-2181
ሥራት	-2182
ቀ፡፡	-2183
ቆየት	-2184
ቋቋም	-2185
ብሔሩ	-2186
ችበት	-2187
ችኋል	-2188
ችንም	-2189
ኛውም	-2190
ወሰነ	-2191
ዋለሁ	-2192
ዕክት	-2193
ያውቅ	-2194
ይህን	-2195
ጸለይ	-2196
ጽያን	-2197
▁ለሌ	-2198
▁ለሰ	-2199
▁ለብ	-2200
▁መሆ	-2201
▁መተ	-2202
▁ርኩ	-2203
▁ሰብ	-2204
▁ሰይ	-2205
▁ስጋ	-2206
▁ቁም	-2207
▁ቁጭ	-2208
▁ተና	-2209
▁ተከ	-2210
▁ተወ	-2211
▁ነጭ	-2212
▁አሰ	-2213
▁አተ	-2214
▁ከወ	-2215
▁ክሌ	-2216
▁ወድ	-2217
▁ያው	-2218
▁ይሄ	-2219
▁ይሻ	-2220
▁ገድ	-2221
▁ጎዳ	-2222
▁ጩኸ	-2223
ማጽያኑ	-2224
ወንድሜ	-2225
▁መኰን	-2226
▁መጥቶ	-2227
▁መጻሕ	-2228
▁ሰቆቃ	-2229
▁ሴማና	-2230
▁በሌላ	-2231
▁በልቤ	-2232
▁በማስ	-2233
▁በሰው	-2234
▁አውሬ	-2235
▁አዲሱ	-2236
▁አጥን	-2237
▁እንስ	-2238
▁እንቅ	-2239
▁ውጤት	-2240
▁የተባ	-2241
▁ያልተ	-2242
▁ያስተ	-2243
▁ይኖር	-2244
▁ይግባ	-2245
▁ደህን	-2246
▁ጭምር	-2247
▁ፈልጌ	-2248
ላችንንም	-2249
ሸከርካሪ	-2250
ባቸው፡፡	-2251
▁መምህር	-2252
▁መንግሥ	-2253
▁መንፈስ	-2254
▁መጡ፡፡	-2255
▁ማግኘት	-2256
▁ሰላምታ	-2257
▁ስለሆኑ	-2258
▁በሚገባ	-2259
▁በገነት	-2260
▁በጸጥታ	-2261
▁ብርያን	-2262
▁ብዙዎቹ	-2263
▁አባቴን	-2264
▁አብረው	-2265
▁አታድር	-2266
▁የሚሆን	-2267
▁የማይታ	-2268
▁ይመስለ	-2269
▁ይናገራ	-2270
▁ድንገት	-2271
▁ሄድኩ፡፡	-2272
▁ለማግኘት	-2273
▁በድንገት	-2274
▁ተመሳሳይ	-2275
▁አይሆንም	-2276
▁የመጨረሻ	-2277
▁የተከሰተ	-2278
▁ግንኙነት	-2279
▁ሁላችንንም	-2280
▁ቤተክርስቲ	-2281
▁አለብኝ፡፡	-2282
▁አልኩት፡፡	-2283
▁አውቃለሁ፤	-2284
▁ኢንተርሃምዌዎች	-2285
ሁ፤	-2286
ህም	-2287
ህና	-2288
ለቲ	-2289
ላሉ	-2290
ሚው	-2291
ምሬ	-2292
ምቤ	-2293
ረች	-2294
ረዱ	-2295
ርዳ	-2296
ርጓ	-2297
ሰጥ	-2298
ሳች	-2299
ሳጥ	-2300
ባባ	-2301
ባዪ	-2302
ትረ	-2303
ንቃ	-2304
ንባ	-2305
ኛዋ	-2306
ከራ	-2307
ከው	-2308
ዕድ	-2309
ዘኝ	-2310
ዛቤ	-2311
ይህ	-2312
ዮቹ	-2313
ድጓ	-2314
ጎዳ	-2315
ጫፊ	-2316
ሁበት	-2317
ሁትን	-2318
ለያየ	-2319
መላለ	-2320
ምቤባ	-2321
ምጣት	-2322
ሰጠኝ	-2323
ቀመጫ	-2324
ቀውን	-2325
ባረቅ	-2326
እዚህ	-2327
ዓታት	-2328
ያችን	-2329
ገርም	-2330
ጥረት	-2331
ጨነቁ	-2332
▁ሄጄ	-2333
▁ልታ	-2334
▁ሕዝ	-2335
▁ሳላ	-2336
▁ቆዳ	-2337
▁በሩ	-2338
▁በን	-2339
▁በጭ	-2340
▁ብላ	-2341
▁ተሞ	-2342
▁ተቃ	-2343
▁ትዝ	-2344
▁ቻል	-2345
▁ነግ	-2346
▁አሊ	-2347
▁ከኪ	-2348
▁ዝቅ	-2349
▁ይዘ	-2350
▁ዲግ	-2351
▁ጆሮ	-2352
▁ጠብ	-2353
▁ጽሑ	-2354
▁ፈን	-2355
ሏል፡፡	-2356
ምኩ፡፡	-2357
ነበሩት	-2358
ኗል፡፡	-2359
ዲያብሎ	-2360
ገባቸው	-2361
ገኝ፡፡	-2362
ፈልገው	-2363
▁ለማስ	-2364
▁ሐይቅ	-2365
▁መምህ	-2366
▁ማመን	-2367
▁ሰለባ	-2368
▁ሴትዮ	-2369
▁ስላል	-2370
▁በሚያ	-2371
▁በቄሱ	-2372
▁ቢሆኑ	-2373
▁ቢኖር	-2374
▁ተረዳ	-2375
▁ተብሎ	-2376
▁ትናን	-2377
▁ትንን	-2378
▁ንጹሕ	-2379
▁አሥር	-2380
▁አብሬ	-2381
▁አውቄ	-2382
▁ከዘር	-2383
▁ከያዙ	-2384
▁ከደረ	-2385
▁ከጓደ	-2386
▁ዕድል	-2387
▁የተመ	-2388
▁የዚህ	-2389
▁የደረ	-2390
▁ደራሲ	-2391
▁ጌታዬ	-2392
▁ፒየር	-2393
ሳለሁ፡፡	-2394
ተናል፡፡	-2395
ንጸባረቅ	-2396
▁ሀገራት	-2397
▁ለማዳን	-2398
▁መቁረጥ	-2399
▁መጸዳጃ	-2400
▁ምልክት	-2401
▁ስድስት	-2402
▁በጥላቻ	-2403
▁ብቻዬን	-2404
▁ብዙውን	-2405
▁ተሰምቶ	-2406
▁ትውስታ	-2407
▁አንቺን	-2408
▁እነዚያ	-2409
▁እንዳያ	-2410
▁ከዚያን	-2411
▁ይችላል	-2412
▁ደስተኛ	-2413
▁ሁቱዎችን	-2414
▁ለመደበቅ	-2415
▁ማናቸውም	-2416
▁ራሳችንን	-2417
▁በልጅነቴ	-2418
▁በመሆኑም	-2419
▁እንቅልፍ	-2420
▁የሚለውን	-2421
▁የቤተሰቤ	-2422
▁የአባቴን	-2423
▁የእርሱን	-2424
▁ገባኝ፡፡	-2425
▁ፈረንሳይ	-2426
ፈረንሳውያኑ	-2427
▁መሰለኝ፡፡	-2428
▁ምክንያቱም	-2429
▁በመጨረሻም	-2430
▁ተሽከርካሪ	-2431
▁እንዳለብኝ	-2432
▁የነበሩትን	-2433
▁ይቻላል፡፡	-2434
▁ጠየቀኝ፡፡	-2435
▁ተሸከርካሪው	-2436
▁ነገርኩት፡፡	-2437
▁አልችልም፡፡	-2438
▁የተከሰተውን	-2439
▁የእንግሊዝኛ	-2440
ሊሲ	-2441
ልሽ	-2442
ልኩ	-2443
ልድ	-2444
ሚያ	-2445
ማው	-2446
ምራ	-2447
ምታ	-2448
ሮት	-2449
ሰኝ	-2450
ሱስ	-2451
ሳሌ	-2452
ሳሰ	-2453
ስም	-2454
ቀየ	-2455
ቃሽ	-2456
ቅና	-2457
ቆች	-2458
ቆጥ	-2459
በራ	-2460
በታ	-2461
በእ	-2462
ብያ	-2463
ቷል	-2464
ቷን	-2465
ችኝ	-2466
ነቷ	-2467
ነን	-2468
ኑኑ	-2469
አት	-2470
እኔ	-2471
ካት	-2472
ዋቂ	-2473
ዓዊ	-2474
ገላ	-2475
ገኟ	-2476
ጋል	-2477
ጋራ	-2478
ጡኝ	-2479
ጨና	-2480
ጮህ	-2481
ጾች	-2482
ፈተ	-2483
ፉን	-2484
ፋፋ	-2485
▁ኑ	-2486
ሄደው	-2487
ለን፤	-2488
ለኞች	-2489
ማርኛ	-2490
ማቸው	-2491
ሪቱን	-2492
ሸማቀ	-2493
ቀመጠ	-2494
ቀየር	-2495
ቅረብ	-2496
በልጥ	-2497
ባችሁ	-2498
ትዮጵ	-2499
ቸገር	-2500
ችልም	-2501
ኅበረ	-2502
ናችሁ	-2503
ጀምር	-2504
ጅምላ	-2505
ጠቀሙ	-2506
▁ለል	-2507
▁ለው	-2508
▁ላለ	-2509
▁ልጄ	-2510
▁መሳ	-2511
▁መቀ	-2512
▁መዘ	-2513
▁መጡ	-2514
▁ማራ	-2515
▁ማሳ	-2516
▁ሞት	-2517
▁ቀጣ	-2518
▁በቁ	-2519
▁በዝ	-2520
▁በይ	-2521
▁በፈ	-2522
▁ቡድ	-2523
▁ተቋ	-2524
▁እል	-2525
▁እቃ	-2526
▁እቤ	-2527
▁ከም	-2528
▁ወላ	-2529
▁የነ	-2530
▁የድ	-2531
▁ያላ	-2532
▁ይዟ	-2533
▁ጠያ	-2534
▁ጸጥ	-2535
ለህ፡፡	-2536
ለት፡፡	-2537
ላችሁም	-2538
ራቸውን	-2539
ርሳቸው	-2540
ሰማቸው	-2541
ቻልኩት	-2542
ነው፡፡	-2543
ኖራቸው	-2544
▁ለመስ	-2545
▁ሊሆን	-2546
▁መጠጥ	-2547
▁ሰበብ	-2548
▁ሲሄድ	-2549
▁በትክ	-2550
▁በአካ	-2551
▁በእግ	-2552
▁በደረ	-2553
▁ተከተ	-2554
▁ተደብ	-2555
▁አልጋ	-2556
▁አራት	-2557
▁አስታ	-2558
▁አክስ	-2559
▁ኮሎኔ	-2560
▁ወሰን	-2561
▁ዓላማ	-2562
▁ዘመቻ	-2563
▁ዛየር	-2564
▁ዣኔት	-2565
▁የማያ	-2566
▁የባሰ	-2567
▁የተሰ	-2568
▁ይነግ	-2569
▁ደስታ	-2570
▁ዲግሪ	-2571
▁ጊዜም	-2572
▁ጣቢያ	-2573
ልኛል፡፡	-2574
ረዋል፡፡	-2575
ንቀሳቃሽ	-2576
▁ለማመን	-2577
▁ለአንድ	-2578
▁መናገር	-2579
▁መንገዳ	-2580
▁ስለምን	-2581
▁በቤተሰ	-2582
▁በቱትሲ	-2583
▁በዚያም	-2584
▁ተመልሼ	-2585
▁ተግባር	-2586
▁ተጨማሪ	-2587
▁አሁኑኑ	-2588
▁አስቀም	-2589
▁አንዱን	-2590
▁አውጥቶ	-2591
▁አዳዲስ	-2592
▁እርስዎ	-2593
▁እንዳሉ	-2594
▁እንድታ	-2595
▁ከአፍታ	-2596
▁ክሌሜን	-2597
▁ወንዶች	-2598
▁የሚሆነ	-2599
▁የተገደ	-2600
▁የፍቅር	-2601
▁ይሆናል	-2602
▁ይመስል	-2603
▁ግንዛቤ	-2604
▁ለገዳዮቹ	-2605
▁ማስታወሻ	-2606
▁ቆየሁ፡፡	-2607
▁በረሮዎች	-2608
▁አየሁ፡፡	-2609
▁እችላለሁ	-2610
▁ወንድሜን	-2611
▁የለም፡፡	-2612
▁ግድያዎች	-2613
▁በተጨማሪም	-2614
▁ተመኘሁ፡፡	-2615
▁ተረዳሁ፡፡	-2616
▁ነገረኝ፡፡	-2617
▁ኢማኪዩሌ፣	-2618
▁እንደሚያስ	-2619
▁የዳማሲንን	-2620
▁የፈረንሳይ	-2621
▁ጀመርኩ፡፡	-2622
▁ፈለግሁ፡፡	-2623
▁ይመስላል፡፡	-2624
▁በእግዚአብሔር	-2625
▁እግዚአብሔር፣	-2626
▁የእግዚአብሔርን	-2627
............	-2628
12	-2629
ሁዲ	-2630
ረና	-2631
ርመ	-2632
ርቅ	-2633
ርና	-2634
ርኩ	-2635
ርዊ	-2636
ሴት	-2637
ስቱ	-2638
ሸን	-2639
ሻሻ	-2640
ቀና	-2641
ቆር	-2642
በሉ	-2643
ባይ	-2644
ብዛ	-2645
ተኮ	-2646
ቲቭ	-2647
ታባ	-2648
ቼው	-2649
ችም	-2650
ኒው	-2651
ናዚ	-2652
ንጄ	-2653
ንጻ	-2654
ኪን	-2655
ካኔ	-2656
ኮች	-2657
ኳስ	-2658
ወቁ	-2659
ወጡ	-2660
ዋዛ	-2661
ዋጋ	-2662
ዓመ	-2663
ዘላ	-2664
ዘግ	-2665
ዩት	-2666
ያና	-2667
ዬም	-2668
ደሰ	-2669
ጆቹ	-2670
ገቤ	-2671
ጋብ	-2672
ግደ	-2673
ግዳ	-2674
ጠሩ	-2675
ጠነ	-2676
ጣራ	-2677
ጣጫ	-2678
ጥም	-2679
ፍና	-2680
ለቲካ	-2681
ለ፡፡	-2682
ርዕሰ	-2683
ሳሰብ	-2684
ቋረጥ	-2685
በርክ	-2686
ቡ፡፡	-2687
ባትም	-2688
ትሮው	-2689
ቻለው	-2690
ኛል፣	-2691
ኩትን	-2692
ዕለት	-2693
ዕድሜ	-2694
ዜንጄ	-2695
ያየት	-2696
ደበቀ	-2697
ግሥት	-2698
ጠይቅ	-2699
ጣናት	-2700
ጭነት	-2701
ፈችው	-2702
▁ሆኑ	-2703
▁ለፊ	-2704
▁ሕመ	-2705
▁መሪ	-2706
▁መድ	-2707
▁መጋ	-2708
▁ማል	-2709
▁ሜዳ	-2710
▁ሲቀ	-2711
▁ሳል	-2712
▁ሳያ	-2713
▁ቀይ	-2714
▁ቆር	-2715
▁በኛ	-2716
▁አሻ	-2717
▁እሱ	-2718
▁እባ	-2719
▁እግ	-2720
▁ከጎ	-2721
▁ካጋ	-2722
▁ኳስ	-2723
▁የኛ	-2724
▁ያኔ	-2725
▁ይፈ	-2726
▁ጎን	-2727
▁ጥግ	-2728
ለሽ፡፡	-2729
ላሉ፡፡	-2730
ረጋገጥ	-2731
ረጋጋት	-2732
ስተርስ	-2733
ሻል፡፡	-2734
ቀሳቀስ	-2735
ቆጣጠር	-2736
ባችንን	-2737
ቶቻችን	-2738
ነጋገር	-2739
ንግዲህ	-2740
ኳት፡፡	-2741
ዎቻቸው	-2742
የኋቸው	-2743
የኝ፡፡	-2744
ጃቸውን	-2745
ጨፍጫፊ	-2746
ፈልግም	-2747
ፖለቲካ	-2748
▁ሂደት	-2749
▁ህመም	-2750
▁ሆይ፣	-2751
▁ለሰው	-2752
▁ለቅቄ	-2753
▁ልጆቼ	-2754
▁ሕልም	-2755
▁ሕንጻ	-2756
▁መሆና	-2757
▁መልሶ	-2758
▁መተኛ	-2759
▁መንደ	-2760
▁መግደ	-2761
▁ምክር	-2762
▁ሴቶቹ	-2763
▁ስሜን	-2764
▁ስምን	-2765
▁ስቲቭ	-2766
▁ቀጠለ	-2767
▁ቃላቱ	-2768
▁በሆነ	-2769
▁በመሆ	-2770
▁በቀር	-2771
▁በኩል	-2772
▁በደግ	-2773
▁ቡሆሮ	-2774
▁ተሞል	-2775
▁ትንፋ	-2776
▁ትዕዛ	-2777
▁አለኝ	-2778
▁አምና	-2779
▁አስቤ	-2780
▁አወቅ	-2781
▁አየር	-2782
▁አፍታ	-2783
▁ኤርዊ	-2784
▁እህት	-2785
▁እይታ	-2786
▁ከቤቱ	-2787
▁ከቤት	-2788
▁ክብር	-2789
▁ወረቀ	-2790
▁ወዲህ	-2791
▁የሚሉ	-2792
▁የሚመ	-2793
▁የሚቀ	-2794
▁የምሽ	-2795
▁የሥራ	-2796
▁የቤት	-2797
▁የተሳ	-2798
▁የግል	-2799
▁ያለኝ	-2800
▁ይሁዲ	-2801
▁ይህች	-2802
▁ይታወ	-2803
▁ይኖራ	-2804
▁ይጠብ	-2805
▁ደረሰ	-2806
▁ድምጹ	-2807
▁ጀመረ	-2808
▁ገብቼ	-2809
▁ጠበቅ	-2810
▁ጠንካ	-2811
▁ጨፍኜ	-2812
▁ጭካኔ	-2813
▁ፈጣሪ	-2814
ሀገራችን	-2815
ላችሁ፡፡	-2816
ልኝም፡፡	-2817
ባለሁ፡፡	-2818
ታለሁ፡፡	-2819
ነበራቸው	-2820
ናቸውንም	-2821
▁ሄዱ፡፡	-2822
▁ለመሄድ	-2823
▁ለእርሱ	-2824
▁ልብሶች	-2825
▁መስጠት	-2826
▁መግደል	-2827
▁መጻሕፍ	-2828
▁ማንበብ	-2829
▁ማጥፋት	-2830
▁ምስኪን	-2831
▁በሚያስ	-2832
▁በሬድዮ	-2833
▁በነዚያ	-2834
▁በዙሪያ	-2835
▁ትክክለ	-2836
▁ነበር፤	-2837
▁አማራጭ	-2838
▁አቅጣጫ	-2839
▁አይተው	-2840
▁አፍሪካ	-2841
▁እንችላ	-2842
▁እንደሌ	-2843
▁እንዲሁ	-2844
▁እዚያው	-2845
▁ከጀመረ	-2846
▁ክርስቲ	-2847
▁የመጡት	-2848
▁የሰላም	-2849
▁የትኛው	-2850
▁የአባቴ	-2851
▁የዓለም	-2852
▁የዘውግ	-2853
▁ያደርጋ	-2854
▁ድንጋይ	-2855
▁ፈለግሁ	-2856
▁ፈገግታ	-2857
▁ሩዋንዳን	-2858
▁በመቶዎች	-2859
▁በሺህዎች	-2860
▁በተቻለኝ	-2861
▁በቻልኩት	-2862
▁በነበረው	-2863
▁ቤታችንን	-2864
▁ተማሪዎች	-2865
▁አመሰግና	-2866
▁አመሰግን	-2867
▁አማጽያን	-2868
▁አስከሬን	-2869
▁አንዳንዴ	-2870
▁እንደማያ	-2871
▁እንደምታ	-2872
▁ከሀገሪቱ	-2873
▁ደህንነት	-2874
▁ገባሁ፡፡	-2875
▁ለምንድነው	-2876
▁አየሁት፡፡	-2877
▁እንዲያገኙ	-2878
▁ኦገስቲንና	-2879
▁ከጭፍጨፋው	-2880
▁ሩዋንዳውያን	-2881
▁ጠየቅሁት፡፡	-2882
▁አልነበረም፡፡	-2883
▁ይመስለኛል፡፡	-2884
ሃን	-2885
ለሉ	-2886
ለቅ	-2887
ለዋ	-2888
ለጽ	-2889
ላባ	-2890
ላጊ	-2891
ልህ	-2892
መጥ	-2893
ማሩ	-2894
ምሩ	-2895
ረመ	-2896
ረደ	-2897
ረጡ	-2898
ርሷ	-2899
ርሽ	-2900
ሰና	-2901
ሳብ	-2902
ሳዊ	-2903
ስቡ	-2904
ስቼ	-2905
ስና	-2906
ስጭ	-2907
ሸሸ	-2908
ሸነ	-2909
ሽም	-2910
ቃድ	-2911
ቅሩ	-2912
ቡብ	-2913
ታሬ	-2914
ቴና	-2915
ት፤	-2916
ቶኝ	-2917
ነቃ	-2918
ንዛ	-2919
ኖቹ	-2920
አም	-2921
ኧረ	-2922
ከረ	-2923
ወይ	-2924
ወጥ	-2925
ደኝ	-2926
ዳሚ	-2927
ጀት	-2928
ጆቿ	-2929
ጋባ	-2930
ጠኑ	-2931
ጠኛ	-2932
ጠጋ	-2933
ጣቂ	-2934
ጤና	-2935
ጥል	-2936
ጦታ	-2937
ጨፈ	-2938
ጫወ	-2939
ጽሕ	-2940
ፈስ	-2941
▁ሠ	-2942
▁ቸ	-2943
▁ዞ	-2944
▁ጓ	-2945
▁ጦ	-2946
▁ፌ	-2947
ሄድን	-2948
ለምን	-2949
ለች፤	-2950
ላጆቼ	-2951
ልጣን	-2952
ማሪያ	-2953
ምለጥ	-2954
ሞክራ	-2955
ረዳት	-2956
ረጋጋ	-2957
ሩ፡፡	-2958
ሪማና	-2959
ራትን	-2960
ሮችን	-2961
ሱ፡፡	-2962
ሸበር	-2963
ባቢው	-2964
ተነፍ	-2965
ታል፤	-2966
ትረፍ	-2967
ቶችና	-2968
ቸውና	-2969
ነሳሳ	-2970
ነትን	-2971
ነገር	-2972
ንድን	-2973
ኖሩት	-2974
እባክ	-2975
ከላከ	-2976
ወስዳ	-2977
ውጣት	-2978
ዎቼን	-2979
ዘኖች	-2980
የሁት	-2981
የሱስ	-2982
ይማኖ	-2983
ደረገ	-2984
ድያው	-2985
ድጓድ	-2986
ጃገረ	-2987
ግተው	-2988
ግዘኝ	-2989
ጓጓዣ	-2990
ጠነቀ	-2991
ጨርስ	-2992
ጨነቂ	-2993
ፈለግ	-2994
ፈራረ	-2995
▁30	-2996
▁ሆን	-2997
▁ለቀ	-2998
▁ለኛ	-2999
▁ልቦ	-3000
▁ሐኪ	-3001
▁መራ	-3002
▁መቃ	-3003
▁ሞክ	-3004
▁ራሱ	-3005
▁ራስ	-3006
▁ርህ	-3007
▁ሰላ	-3008
▁ሳት	-3009
▁ቀድ	-3010
▁ቁጥ	-3011
▁ቅር	-3012
▁በሐ	-3013
▁በቂ	-3014
▁በቡ	-3015
▁በብ	-3016
▁በኢ	-3017
▁በጀ	-3018
▁ቢላ	-3019
▁ባላ	-3020
▁ባዶ	-3021
▁ተማ	-3022
▁ተኩ	-3023
▁ተው	-3024
▁ተጨ	-3025
▁ተጽ	-3026
▁ነበ	-3027
▁ንዴ	-3028
▁አራ	-3029
▁አበ	-3030
▁አቶ	-3031
▁አወ	-3032
▁አዛ	-3033
▁አዩ	-3034
▁እድ	-3035
▁ክብ	-3036
▁የሳ	-3037
▁የገ	-3038
▁ግዴ	-3039
▁ጠይ	-3040
▁ጣል	-3041
▁ጥላ	-3042
▁ጥሪ	-3043
▁ጮኸ	-3044
▁ፈራ	-3045
ለማችን	-3046
ማል፡፡	-3047
ሳሉ፡፡	-3048
ሳቸውን	-3049
ሹክሹክ	-3050
ታደሮቹ	-3051
ክሁ፡፡	-3052
ዓመታት	-3053
ዘብተኛ	-3054
ደረገው	-3055
ጆቻቸው	-3056
ገዳዮች	-3057
ጧል፡፡	-3058
ፈጸሙት	-3059
▁ለምት	-3060
▁ለቀው	-3061
▁ሕመም	-3062
▁መልኩ	-3063
▁መገለ	-3064
▁ምንጭ	-3065
▁ሲጠይ	-3066
▁ሳለሁ	-3067
▁ስሄድ	-3068
▁ስለመ	-3069
▁ስንት	-3070
▁ስጦታ	-3071
▁ቆይታ	-3072
▁በመካ	-3073
▁በአቅ	-3074
▁በጆሮ	-3075
▁በጽኑ	-3076
▁ቤልጅ	-3077
▁ተናገ	-3078
▁ተናግ	-3079
▁ትከሻ	-3080
▁ነፍሴ	-3081
▁ንግግ	-3082
▁አላስ	-3083
▁አልቀ	-3084
▁አልባ	-3085
▁አመጣ	-3086
▁አቀፍ	-3087
▁አካል	-3088
▁አዎን	-3089
▁አየሁ	-3090
▁አድራ	-3091
▁እኛም	-3092
▁ከቄሱ	-3093
▁ከእኔ	-3094
▁ካባዪ	-3095
▁ወደኛ	-3096
▁ወዲያ	-3097
▁የለም	-3098
▁የማል	-3099
▁የራስ	-3100
▁የወደ	-3101
▁የውጪ	-3102
▁ይታየ	-3103
▁ይኸው	-3104
▁ደጋግ	-3105
▁ድጋሚ	-3106
▁ገብቶ	-3107
▁ግማሽ	-3108
▁ጠያራ	-3109
▁ጥልቅ	-3110
▁ጸጥታ	-3111
▁ፍራቻ	-3112
ልናል፡፡	-3113
ባቢያችን	-3114
ብያሪማና	-3115
ቻለም፡፡	-3116
ናቸው፡፡	-3117
ኛለሁ፡፡	-3118
ወንድሞቼ	-3119
▁ለማለት	-3120
▁ለማገዝ	-3121
▁ሌሊቱን	-3122
▁መኰንኑ	-3123
▁መኰንን	-3124
▁መጸለይ	-3125
▁ማንንም	-3126
▁ሥራዎች	-3127
▁ስለሆን	-3128
▁ስለማይ	-3129
▁በመጽሐ	-3130
▁በአየር	-3131
▁በውስጤ	-3132
▁በዚህም	-3133
▁ነን፡፡	-3134
▁አሳልፌ	-3135
▁አይመስ	-3136
▁ኤርዊን	-3137
▁እናቴም	-3138
▁እንዳን	-3139
▁ከነዚህ	-3140
▁ከአባቴ	-3141
▁ከእንቅ	-3142
▁ከያዙኝ	-3143
▁ካልሆነ	-3144
▁ወደዚያ	-3145
▁የሆኑት	-3146
▁የሕይወ	-3147
▁የሚባል	-3148
▁የቅርብ	-3149
▁የተሻለ	-3150
▁የደንብ	-3151
▁የግድያ	-3152
▁ይህንን	-3153
▁ደግነት	-3154
▁ዲያብሎ	-3155
▁ግድያው	-3156
▁ጠንካራ	-3157
▁ጽንፈኛ	-3158
▁ለሰዓታት	-3159
▁ሊኦናርድ	-3160
▁መልዕክት	-3161
▁በሀገሪቱ	-3162
▁በማድረግ	-3163
▁በትክክል	-3164
▁አስታወስ	-3165
▁አቅራቢያ	-3166
▁አባታችን	-3167
▁አነስተኛ	-3168
▁አንብበው	-3169
▁እንደሆኑ	-3170
▁እንጂ፡፡	-3171
▁ከቤተሰቤ	-3172
▁ከቤታችን	-3173
▁ከነበረው	-3174
▁የአሎይዜ	-3175
▁ማናቸውንም	-3176
▁በመጀመሪያ	-3177
▁አልፈለግሁ	-3178
▁ኢማኪዩሌን	-3179
▁ከትምህርት	-3180
▁ወሰንኩ፡፡	-3181
▁እያንዳንዷን	-3182
▁የዩኒቨርሲቲ	-3183
▁ነገርኳቸው፡፡	-3184
▁አመሰገንኩት፡፡	-3185
59	-3186
iz	-3187
ለቱ	-3188
ላላ	-3189
ላሽ	-3190
ምጃ	-3191
ሣቅ	-3192
ረሳ	-3193
ረበ	-3194
ራቂ	-3195
ርም	-3196
ሮቿ	-3197
ሯል	-3198
ሰለ	-3199
ሱት	-3200
ሳም	-3201
ሳኔ	-3202
ስቸ	-3203
ሸሽ	-3204
ሸት	-3205
ሽ፣	-3206
ቄስ	-3207
ቆዩ	-3208
ቆያ	-3209
በስ	-3210
በዝ	-3211
ቢው	-3212
ባሉ	-3213
ባዊ	-3214
ቧራ	-3215
ተወ	-3216
ቱት	-3217
ታና	-3218
ችሽ	-3219
ነብ	-3220
ነኝ	-3221
ነዘ	-3222
ኑና	-3223
ናፍ	-3224
ንያ	-3225
ንገ	-3226
ንጎ	-3227
ኖቼ	-3228
ኝ፣	-3229
ኩር	-3230
ካክ	-3231
ካው	-3232
ወነ	-3233
ዛው	-3234
ዩኝ	-3235
ያዘ	-3236
ዬ፣	-3237
ይል	-3238
ደፍ	-3239
ዲሱ	-3240
ዳዊ	-3241
ጂው	-3242
ገበ	-3243
ገዱ	-3244
ገፍ	-3245
ጋጤ	-3246
ግሌ	-3247
ጠላ	-3248
ጠቃ	-3249
ጠቅ	-3250
ጣሚ	-3251
ጥሩ	-3252
ጥፋ	-3253
ፊያ	-3254
ፋፍ	-3255
▁ሩ	-3256
▁ፀ	-3257
▁ፎ	-3258
000	-3259
ሁሉም	-3260
ሃለሁ	-3261
ሄድኩ	-3262
ህ፡፡	-3263
ለማዊ	-3264
ላንዥ	-3265
ልኝና	-3266
መለሰ	-3267
ሜሪካ	-3268
ረውን	-3269
ሳጥኑ	-3270
ስበው	-3271
ሸበሩ	-3272
ሻለሁ	-3273
ቀላቀ	-3274
ቀጠል	-3275
በሳጨ	-3276
በት፣	-3277
ብለው	-3278
ብረት	-3279
ቦታው	-3280
ተኛው	-3281
ታውቂ	-3282
ቻችሁ	-3283
ነበብ	-3284
ነገሩ	-3285
ኔጋል	-3286
ንቃቄ	-3287
ኝም፤	-3288
አሁን	-3289
ኩራት	-3290
ወለድ	-3291
ወርድ	-3292
ዘገጃ	-3293
ያንን	-3294
ይቅር	-3295
ዮርክ	-3296
ደረግ	-3297
ደውን	-3298
ጃችን	-3299
ጅነት	-3300
ገልጽ	-3301
ገባው	-3302
ገድሏ	-3303
ግባባ	-3304
ጥተው	-3305
ጥናት	-3306
ፈለገ	-3307
ፈለጉ	-3308
ፍረት	-3309
ፍራው	-3310
ፎይታ	-3311
▁ሂጂ	-3312
▁ህዝ	-3313
▁መክ	-3314
▁ማዕ	-3315
▁ምህ	-3316
▁ሮዝ	-3317
▁ሰር	-3318
▁ሲሰ	-3319
▁ሳን	-3320
▁ቆሞ	-3321
▁በሉ	-3322
▁በዘ	-3323
▁ባሏ	-3324
▁ባት	-3325
▁ባዚ	-3326
▁ተፈ	-3327
▁ትላ	-3328
▁ትር	-3329
▁ትቼ	-3330
▁እቅ	-3331
▁እብ	-3332
▁ኧረ	-3333
▁ከታ	-3334
▁ከው	-3335
▁ከደ	-3336
▁ኪቩ	-3337
▁ኬላ	-3338
▁ውር	-3339
▁ውጣ	-3340
▁የጸ	-3341
▁ያዘ	-3342
▁ገላ	-3343
▁ገበ	-3344
▁ግራ	-3345
▁ጫማ	-3346
▁ፍሎ	-3347
▁ፍቅ	-3348
▁፡፡	-3349
1959	-3350
ለተኛው	-3351
ሞክርም	-3352
ርመኖች	-3353
ርጓሚው	-3354
ስታወስ	-3355
ቅሁ፡፡	-3356
ቋል፡፡	-3357
ተኝ፡፡	-3358
ተዋል፤	-3359
ታችንም	-3360
ቶቻቸው	-3361
ቸዋለሁ	-3362
ቸዋል፤	-3363
ንዳችን	-3364
ንዳንዱ	-3365
እንዴት	-3366
ከታተል	-3367
ከፍተኛ	-3368
ኳቸው፤	-3369
ዎቻችን	-3370
ያለሁ፤	-3371
ጠራጠር	-3372
ጠብቀኝ	-3373
ጠኝ፡፡	-3374
ጸለይኩ	-3375
ፈለግሁ	-3376
▁ሁለቱ	-3377
▁ለማን	-3378
▁ለራሴ	-3379
▁ለእኔ	-3380
▁ለእኛ	-3381
▁ለዚያ	-3382
▁መለስ	-3383
▁መማር	-3384
▁መረጃ	-3385
▁መነሻ	-3386
▁ምሽጉ	-3387
▁ሥጋት	-3388
▁ሲመጣ	-3389
▁ሽብር	-3390
▁ቀኑን	-3391
▁ቆመው	-3392
▁በራሴ	-3393
▁በራስ	-3394
▁በተመ	-3395
▁በእጁ	-3396
▁ብስጭ	-3397
▁ብዙም	-3398
▁ተስማ	-3399
▁ተደር	-3400
▁ታሪኬ	-3401
▁ታጣቂ	-3402
▁ኃይለ	-3403
▁ነቀነ	-3404
▁ናችሁ	-3405
▁ንብረ	-3406
▁ንዴት	-3407
▁አሉኝ	-3408
▁አሳቢ	-3409
▁አቅር	-3410
▁አቤት	-3411
▁አተኩ	-3412
▁አወጣ	-3413
▁አውር	-3414
▁አይቻ	-3415
▁አጥብ	-3416
▁አፍጥ	-3417
▁እርዳ	-3418
▁እስር	-3419
▁እንኳ	-3420
▁እጁን	-3421
▁እግር	-3422
▁ከሞላ	-3423
▁ከኋላ	-3424
▁ከክፍ	-3425
▁ከፊት	-3426
▁ክፍሌ	-3427
▁ወለል	-3428
▁ወደሚ	-3429
▁ውሳኔ	-3430
▁ዘወር	-3431
▁የራሴ	-3432
▁የአም	-3433
▁ያገኘ	-3434
▁ድምጼ	-3435
▁ድንቅ	-3436
▁ጎደል	-3437
▁ጎዳና	-3438
▁ጠየቁ	-3439
▁ፌሊሲ	-3440
ለዋል፡፡	-3441
ራቸው፡፡	-3442
ሳምንታት	-3443
ቀኛል፡፡	-3444
ነታቸውን	-3445
ነታችንን	-3446
ንቀሳቀስ	-3447
ኤይማብል	-3448
ዎቻችንን	-3449
ያንዳንዱ	-3450
▁ሁለቱም	-3451
▁ሁቱትሲ	-3452
▁ሄደ፡፡	-3453
▁ሆነ፡፡	-3454
▁ለሁለት	-3455
▁ለማስተ	-3456
▁ለሦስት	-3457
▁ለአባቴ	-3458
▁መለስኩ	-3459
▁መሰለኝ	-3460
▁መስኮት	-3461
▁መንገዱ	-3462
▁መገለጫ	-3463
▁መግቢያ	-3464
▁መጠለያ	-3465
▁ሰማያዊ	-3466
▁ሲያወሩ	-3467
▁ሲደርሱ	-3468
▁ስለሚያ	-3469
▁ሶላንዥ	-3470
▁በሌሎች	-3471
▁በምንም	-3472
▁በቀላሉ	-3473
▁በአሥራ	-3474
▁በአባቴ	-3475
▁በዚያች	-3476
▁በጉልበ	-3477
▁በግልጽ	-3478
▁ባሳለፍ	-3479
▁ቤተሰቦ	-3480
▁ቤቶችን	-3481
▁ተሰማኝ	-3482
▁ትኩረት	-3483
▁ትዕዛዝ	-3484
▁አባቴም	-3485
▁አንድም	-3486
▁አካላት	-3487
▁እንዳላ	-3488
▁እጆቹን	-3489
▁እጆቼን	-3490
▁ከማንም	-3491
▁ከአሁን	-3492
▁ከእርሱ	-3493
▁ዓይኖቼ	-3494
▁የቄሱን	-3495
▁የበላይ	-3496
▁የአማር	-3497
▁የእርስ	-3498
▁የዚያን	-3499
▁ያደርጉ	-3500
▁ይቅርታ	-3501
▁ገባ፡፡	-3502
ሸከርካሪው	-3503
▁ሆኗል፡፡	-3504
▁ለመጨረሻ	-3505
▁መንገዶች	-3506
▁ምንድነው	-3507
▁ሰማሁ፡፡	-3508
▁ስለቤተሰ	-3509
▁ስለነበረ	-3510
▁ቀጠለ፡፡	-3511
▁በመንገድ	-3512
▁በርሳቸው	-3513
▁ብቻቸውን	-3514
▁ተመስገን	-3515
▁ተንበርክ	-3516
▁አሉኝ፡፡	-3517
▁አስተዳዳ	-3518
▁አንዳንድ	-3519
▁አእምሮዬ	-3520
▁አይደለሁ	-3521
▁እርሳቸው	-3522
▁እባክህ፣	-3523
▁እንባዬን	-3524
▁እንድሞት	-3525
▁ከእንቅል	-3526
▁ከገዳዮቹ	-3527
▁የቤተሰብ	-3528
▁የተፈጸመ	-3529
ization	-3530
▁ሃብያሪማና	-3531
▁ምናልባትም	-3532
▁ነገሩን፡፡	-3533
▁ነገሩኝ፡፡	-3534
▁አለብን፡፡	-3535
▁ከመታጠቢያ	-3536
▁ወታደሮችን	-3537
▁ዓይኖቻቸው	-3538
▁የለኝም፡፡	-3539
▁ጀመርን፡፡	-3540
▁አልቻለም፡፡	-3541
▁እንደነበረው	-3542
▁እንዳለባቸው	-3543
▁የኢማኪዩሌን	-3544
▁ለእግዚአብሔር	-3545
ሆኚ	-3546
ላከ	-3547
ላኬ	-3548
ላፊ	-3549
ልማ	-3550
ልስ	-3551
ልጋ	-3552
ሙት	-3553
ማቱ	-3554
ምቦ	-3555
ረኛ	-3556
ሩኝ	-3557
ራን	-3558
ሬት	-3559
ርሳ	-3560
ሯን	-3561
ሰላ	-3562
ሰም	-3563
ሰስ	-3564
ስፋ	-3565
ስፔ	-3566
ሾቹ	-3567
ቃሴ	-3568
ቅዱ	-3569
ቆብ	-3570
ቆት	-3571
ቡና	-3572
ቡኝ	-3573
ብላ	-3574
ብና	-3575
ቦት	-3576
ቧን	-3577
ተኝ	-3578
ቱና	-3579
ቴም	-3580
ትወ	-3581
ቸግ	-3582
ቹም	-3583
ቻና	-3584
ችያ	-3585
ኋት	-3586
ነጣ	-3587
ነጥ	-3588
ናደ	-3589
ኘት	-3590
ኞቼ	-3591
ከም	-3592
ኩሲ	-3593
ኩን	-3594
ካካ	-3595
ኮታ	-3596
ኸኝ	-3597
ወጋ	-3598
ው፣	-3599
ዓም	-3600
ዝን	-3601
ይቶ	-3602
ዮች	-3603
ደግ	-3604
ዳት	-3605
ዳግ	-3606
ግነ	-3607
ጎት	-3608
ጓት	-3609
ጠጥ	-3610
ጣል	-3611
ጭር	-3612
ጽፍ	-3613
ፈኝ	-3614
ፊቱ	-3615
ፎች	-3616
ፕቲ	-3617
▁ሪ	-3618
ህተት	-3619
ለኝም	-3620
ልበት	-3621
መሰል	-3622
መጡት	-3623
ሙ፡፡	-3624
ማግሌ	-3625
ሞቼን	-3626
ረዳው	-3627
ራንስ	-3628
ስማማ	-3629
ሺ፡፡	-3630
ቁ፡፡	-3631
ቆራር	-3632
በሳጭ	-3633
ባለው	-3634
ባራቂ	-3635
ባበቅ	-3636
ታጠቁ	-3637
ቶቼን	-3638
ቷል፤	-3639
ኃይል	-3640
ናችን	-3641
ናገኝ	-3642
ንግል	-3643
ኗቸው	-3644
ኞቹን	-3645
አባባ	-3646
እንዴ	-3647
ኩት፤	-3648
ካሄዱ	-3649
ክራሪ	-3650
ወስድ	-3651
ወነጅ	-3652
ወደድ	-3653
ዎችም	-3654
ዎች፣	-3655
ዕቆብ	-3656
ያለሁ	-3657
ደረጉ	-3658
ደራጁ	-3659
ዲያው	-3660
ገባን	-3661
ገናኝ	-3662
ጉ፡፡	-3663
ጋንዳ	-3664
ጠቀመ	-3665
ጠይቃ	-3666
ጥለው	-3667
ጥበት	-3668
ጨናነ	-3669
ጸባር	-3670
ጽበት	-3671
ፈቀድ	-3672
ፈቅድ	-3673
ፉ፡፡	-3674
▁ሃይ	-3675
▁ለግ	-3676
▁ለጸ	-3677
▁ልና	-3678
▁መመ	-3679
▁መቅ	-3680
▁መኖ	-3681
▁ሥር	-3682
▁ራቅ	-3683
▁ራት	-3684
▁ሲን	-3685
▁ሳብ	-3686
▁ስማ	-3687
▁ቀዳ	-3688
▁በላ	-3689
▁በጫ	-3690
▁ብል	-3691
▁ብታ	-3692
▁ብና	-3693
▁ትዋ	-3694
▁ኋላ	-3695
▁ነይ	-3696
▁ነጥ	-3697
▁አቁ	-3698
▁አጀ	-3699
▁አጣ	-3700
▁አፌ	-3701
▁ከስ	-3702
▁ከን	-3703
▁ክህ	-3704
▁የሃ	-3705
▁የብ	-3706
▁የጻ	-3707
▁ያወ	-3708
▁ይቀ	-3709
▁ደማ	-3710
▁ገል	-3711
▁ግብ	-3712
▁ጠረ	-3713
▁ጮህ	-3714
▁ፋሪ	-3715
▁ፍላ	-3716
▁››	-3717
1994	-3718
ሁም፡፡	-3719
ላትነት	-3720
ላት፡፡	-3721
መለከተ	-3722
መጣልኝ	-3723
ርሃትና	-3724
ሰላስል	-3725
ሳል፡፡	-3726
ስታውስ	-3727
ቅስቃሴ	-3728
ባበሩት	-3729
ችው፡፡	-3730
ኋት፡፡	-3731
ነታቸው	-3732
ነኝ፡፡	-3733
ነግረኝ	-3734
ናቸውን	-3735
ንቀጠቀ	-3736
ኞቻችን	-3737
እባክህ	-3738
እናንተ	-3739
ከሰተው	-3740
ከባከብ	-3741
ኩባቸው	-3742
ክብሮት	-3743
ደጋጋሚ	-3744
ዷል፡፡	-3745
ጆቻችን	-3746
ፈችበት	-3747
▁ሄደው	-3748
▁ለመዋ	-3749
▁ለብዙ	-3750
▁ሊያስ	-3751
▁ላለማ	-3752
▁ላስብ	-3753
▁ልጆቿ	-3754
▁ሐሳቦ	-3755
▁መላው	-3756
▁መልከ	-3757
▁መምጣ	-3758
▁መብራ	-3759
▁መታሰ	-3760
▁መድረ	-3761
▁ማወቅ	-3762
▁ማድረ	-3763
▁ማግኘ	-3764
▁ምላሽ	-3765
▁ራሷን	-3766
▁ሰማይ	-3767
▁ሰጥቶ	-3768
▁ሲሄዱ	-3769
▁ሳለን	-3770
▁ስለም	-3771
▁ቀላል	-3772
▁ቄሱን	-3773
▁በልዩ	-3774
▁በመፍ	-3775
▁በራሱ	-3776
▁በነጻ	-3777
▁ብርታ	-3778
▁ታውቃ	-3779
▁ታደር	-3780
▁ትችላ	-3781
▁ትችያ	-3782
▁ችግሩ	-3783
▁ኃላፊ	-3784
▁አለማ	-3785
▁አልቻ	-3786
▁አራዊ	-3787
▁አሳው	-3788
▁አብራ	-3789
▁አንጻ	-3790
▁አያው	-3791
▁አይታ	-3792
▁አደራ	-3793
▁እህቴ	-3794
▁እረፍ	-3795
▁እሰማ	-3796
▁እወዳ	-3797
▁እየጎ	-3798
▁እያሉ	-3799
▁እያሳ	-3800
▁ከመን	-3801
▁ከንፈ	-3802
▁ካገኘ	-3803
▁ክምር	-3804
▁ወለሉ	-3805
▁ወላጅ	-3806
▁ወሰደ	-3807
▁ወይኔ	-3808
▁ወደተ	-3809
▁ወጥቶ	-3810
▁ዕቅድ	-3811
▁ዘበኛ	-3812
▁የሚታ	-3813
▁የሚወ	-3814
▁የቆየ	-3815
▁የትም	-3816
▁የነገ	-3817
▁የእጅ	-3818
▁የያዙ	-3819
▁ያለማ	-3820
▁ያክል	-3821
▁ያደር	-3822
▁ይሄው	-3823
▁ይሄዳ	-3824
▁ዮርክ	-3825
▁ድርሻ	-3826
▁ጀግና	-3827
▁ገለታ	-3828
▁ጎርፍ	-3829
▁ጎበዝ	-3830
▁ጠንክ	-3831
▁ጥፋት	-3832
▁ጨለማ	-3833
▁ጩኸት	-3834
▁ጸልዬ	-3835
▁ፊቴን	-3836
▁ፊቶች	-3837
ስፔራንስ	-3838
ሹክሹክታ	-3839
በዋል፡፡	-3840
ችኋል፡፡	-3841
እንግዲህ	-3842
ደርገውን	-3843
ደዋል፡፡	-3844
ገናል፡፡	-3845
▁ሊገባኝ	-3846
▁ልጃገረ	-3847
▁ልጆቹን	-3848
▁ልጆቿን	-3849
▁ሕፃናት	-3850
▁መቆየት	-3851
▁መነኩሲ	-3852
▁መዝሙር	-3853
▁መጠበቅ	-3854
▁መጥተው	-3855
▁ማንነት	-3856
▁ሰብዓዊ	-3857
▁ሰይጣን	-3858
▁ሲጨርሱ	-3859
▁ሳምንት	-3860
▁ሴምቤባ	-3861
▁ስሜቱን	-3862
▁ስምንት	-3863
▁ስትሆን	-3864
▁ሽማግሌ	-3865
▁ቃላቱን	-3866
▁በምሽጉ	-3867
▁በቀጥታ	-3868
▁በተሻለ	-3869
▁በኃይል	-3870
▁በአሁኑ	-3871
▁በእርሱ	-3872
▁በዓለም	-3873
▁በጆሮዬ	-3874
▁በገጀራ	-3875
▁ተቀመጥ	-3876
▁ተነሥቼ	-3877
▁ተደናግ	-3878
▁ተጨነቅ	-3879
▁ትርጉም	-3880
▁ትናንሽ	-3881
▁ትክክል	-3882
▁ናቸው፤	-3883
▁አሉታዊ	-3884
▁አምስት	-3885
▁አስተዋ	-3886
▁አስፈሪ	-3887
▁አባትሽ	-3888
▁አደረገ	-3889
▁አደርጋ	-3890
▁አጋጣሚ	-3891
▁አጠገብ	-3892
▁ኢትዮጵ	-3893
▁እማማና	-3894
▁እርምጃ	-3895
▁እርሱም	-3896
▁እናቴን	-3897
▁እንሂድ	-3898
▁እንደኔ	-3899
▁እንዳት	-3900
▁እጅጉን	-3901
▁ከሌሎቹ	-3902
▁ከሌሎች	-3903
▁ከሰዓት	-3904
▁ኮሎኔል	-3905
▁ወላጆቿ	-3906
▁ወንበር	-3907
▁ወደኋላ	-3908
▁ዝግጅት	-3909
▁የሚለው	-3910
▁የሚታይ	-3911
▁የሚችል	-3912
▁የሚከተ	-3913
▁የሚወስ	-3914
▁የርዕሰ	-3915
▁የስልክ	-3916
▁የበለጠ	-3917
▁የአየር	-3918
▁የእግር	-3919
▁የገደሉ	-3920
▁ያላቸው	-3921
▁ያዕቆብ	-3922
▁ያየሁት	-3923
▁ይበልጥ	-3924
▁ይችላሉ	-3925
▁ደርዘን	-3926
▁ዱዜንጄ	-3927
▁ድምጾች	-3928
▁ገቡ፡፡	-3929
▁ጉድጓድ	-3930
▁ጓደኞቹ	-3931
▁ጸሎቴን	-3932
ባቸዋል፡፡	-3933
ቸዋለን፡፡	-3934
▁ለመናገር	-3935
▁ለማሳመን	-3936
▁ለወንድሜ	-3937
▁ለዘብተኛ	-3938
▁መንፈሳዊ	-3939
▁ሞከርኩ፤	-3940
▁ስለነበሩ	-3941
▁በሌላኛው	-3942
▁በየቦታው	-3943
▁በጥንቃቄ	-3944
▁በጨለማው	-3945
▁በፍርሃት	-3946
▁ተመልሰው	-3947
▁ትዕይንት	-3948
▁ቻልኩ፡፡	-3949
▁አሉን፡፡	-3950
▁አምላኬን	-3951
▁አገሪቱን	-3952
▁እንደዋዛ	-3953
▁እንዲሆን	-3954
▁እንዲያዩ	-3955
▁እንዲያድ	-3956
▁እንፈልጋ	-3957
▁እጃቸውን	-3958
▁ከመቀመጫ	-3959
▁ከእነርሱ	-3960
▁ከጦርነቱ	-3961
▁ወታደራዊ	-3962
▁ዘገባዎች	-3963
▁የሁለተኛ	-3964
▁የሚያሳይ	-3965
▁የሰማሁት	-3966
▁የተለያዩ	-3967
▁የተወሰነ	-3968
▁የትርጉም	-3969
▁የፖለቲካ	-3970
▁ደረጃዎች	-3971
▁ግድያውን	-3972
▁ጎረቤቶቼ	-3973
▁ጓደኛሞች	-3974
▁ጦርነቱን	-3975
▁ፈለግሁ፤	-3976
እግዚአብሔር	-3977
▁ለሳምንታት	-3978
▁ልጆቻቸውን	-3979
▁መንገዳችን	-3980
▁ሞከርኩ፡፡	-3981
▁በበኩላቸው	-3982
▁በተደጋጋሚ	-3983
▁በቱትሲዎች	-3984
▁በአቅራቢያ	-3985
▁በአንድነት	-3986
▁በእግራችን	-3987
▁በፈረንሳይ	-3988
▁ነበረች፡፡	-3989
▁ነበርኩ፡፡	-3990
▁እንቅስቃሴ	-3991
▁እንደሆነች	-3992
▁እንደሆነና	-3993
▁እንዳይሆን	-3994
▁እጆቻቸውን	-3995
▁እፈልጋለሁ	-3996
▁ክሌሜንታይ	-3997
▁ወታደሮቹን	-3998
▁ወንድሞቼና	-3999
▁ወንጀለኞች	-4000
▁የቤተሰቤን	-4001
▁የተረፈችው	-4002
▁የተወሰኑት	-4003
▁ያውቃል፡፡	-4004
▁ይሰማኛል፤	-4005
▁ይችላል፡፡	-4006
▁ሕይወታቸውን	-4007
▁መቁጠሪያዬን	-4008
▁በዩኒቨርሲቲ	-4009
▁ነገረችኝ፡፡	-4010
▁አይቀርም፡፡	-4011
▁የሚንጸባረቅ	-4012
▁ይታየኛል፡፡	-4013
▁ጎረቤቶቻችን	-4014
▁እፈልጋለሁ፡፡	-4015
▁ይታወቀኛል፡፡	-4016
▁ይገድሉኛል፡፡	-4017
▁ገጀራዎቻቸውን	-4018
▁አስታውሳለሁ፡፡	-4019
20	-4020
73	-4021
ለለ	-4022
ለዩ	-4023
ለዳ	-4024
ለፉ	-4025
ሉና	-4026
ሊሴ	-4027
ሊክ	-4028
ላቱ	-4029
ላካ	-4030
ሌን	-4031
መጠ	-4032
ማል	-4033
ረቱ	-4034
ረካ	-4035
ረግ	-4036
ራሹ	-4037
ርኒ	-4038
ር፣	-4039
ሮፓ	-4040
ሰሩ	-4041
ሰፊ	-4042
ሳለ	-4043
ሳል	-4044
ሳቢ	-4045
ሳን	-4046
ሳካ	-4047
ስቶ	-4048
ስኪ	-4049
ሸፈ	-4050
ሻሽ	-4051
ቀሱ	-4052
ቀጣ	-4053
ቁና	-4054
ቅብ	-4055
ቅ፣	-4056
በተ	-4057
በን	-4058
በጥ	-4059
ብሻ	-4060
ተም	-4061
ቻቸ	-4062
ቾች	-4063
ነዳ	-4064
ናሽ	-4065
ናፈ	-4066
ኖረ	-4067
ከና	-4068
ከኛ	-4069
ኩለ	-4070
ኩ፣	-4071
ካል	-4072
ኮራ	-4073
ኮቱ	-4074
ኳኳ	-4075
ወቄ	-4076
ዋታ	-4077
ዎቿ	-4078
ዕኖ	-4079
የተ	-4080
የን	-4081
ይም	-4082
ዱኝ	-4083
ድመ	-4084
ጆች	-4085
ገሪ	-4086
ገራ	-4087
ገሰ	-4088
ገጠ	-4089
ገጣ	-4090
ገፈ	-4091
ጉም	-4092
ጋጭ	-4093
ጎብ	-4094
ጓዝ	-4095
ጓዴ	-4096
ጠፉ	-4097
ጥሮ	-4098
ጨፉ	-4099
ጫው	-4100
ጽሑ	-4101
ፈሰ	-4102
ፍሮ	-4103
ፍቼ	-4104
▁ቪ	-4105
▁ቲ	-4106
▁ቴ	-4107
▁ቻ	-4108
ሁት፤	-4109
ለበስ	-4110
ለችው	-4111
ላለሙ	-4112
ላማዊ	-4113
ሌክት	-4114
ልኝን	-4115
ልኝ፣	-4116
ልኝ፤	-4117
ልኩት	-4118
ሎችን	-4119
ሐይቁ	-4120
ማማት	-4121
ማርኩ	-4122
ማችን	-4123
ሞከር	-4124
ሠለጠ	-4125
ሣጥን	-4126
ራውን	-4127
ርመን	-4128
ሮዎች	-4129
ሰብም	-4130
ሰውን	-4131
ሻገር	-4132
ሽ፡፡	-4133
ቀመጡ	-4134
ቆመው	-4135
ቆርጥ	-4136
በረከ	-4137
በጣም	-4138
ቢያው	-4139
ባትሽ	-4140
ብናል	-4141
ብኛል	-4142
ተኛሁ	-4143
ቱ፡፡	-4144
ትወታ	-4145
ቷቸው	-4146
ቸው፤	-4147
ቻለሁ	-4148
ችውን	-4149
ነበው	-4150
ናግጠ	-4151
ንቀት	-4152
ኖረን	-4153
ኛቸው	-4154
አምር	-4155
አንድ	-4156
አዎን	-4157
አይ፣	-4158
እማማ	-4159
እስኪ	-4160
እንደ	-4161
ከብድ	-4162
ዋናው	-4163
ዛቸው	-4164
ያንና	-4165
ያዘው	-4166
ድርግ	-4167
ገልግ	-4168
ገባሁ	-4169
ገኝም	-4170
ጊዜው	-4171
ጠናቀ	-4172
ጠንቀ	-4173
ጠገቤ	-4174
ጽናና	-4175
ፋቸው	-4176
▁ሁኑ	-4177
▁ሂደ	-4178
▁ሃያ	-4179
▁ህመ	-4180
▁ለዘ	-4181
▁ለፈ	-4182
▁ልማ	-4183
▁ሕጻ	-4184
▁መብ	-4185
▁መቻ	-4186
▁መቼ	-4187
▁ሚስ	-4188
▁ሚኒ	-4189
▁ማረ	-4190
▁ማሰ	-4191
▁ምና	-4192
▁ምግ	-4193
▁ሣቅ	-4194
▁ሰቀ	-4195
▁ሰፍ	-4196
▁ሳም	-4197
▁ስካ	-4198
▁ቀሚ	-4199
▁ቀሪ	-4200
▁ቀሰ	-4201
▁ቀጠ	-4202
▁ቁር	-4203
▁ቆሜ	-4204
▁በሥ	-4205
▁በባ	-4206
▁ባያ	-4207
▁ቤቷ	-4208
▁ተረ	-4209
▁ትል	-4210
▁ኒው	-4211
▁አሽ	-4212
▁እሷ	-4213
▁ካላ	-4214
▁ውስ	-4215
▁ውይ	-4216
▁ዘል	-4217
▁ዘረ	-4218
▁ዘግ	-4219
▁ዝና	-4220
▁የሥ	-4221
▁የቤ	-4222
▁የን	-4223
▁የካ	-4224
▁የዘ	-4225
▁ያሰ	-4226
▁ያቃ	-4227
▁ያደ	-4228
▁ይባ	-4229
▁ይዣ	-4230
▁ዳን	-4231
▁ጋት	-4232
▁ጌታ	-4233
▁ጠባ	-4234
▁ጠፋ	-4235
▁ጣራ	-4236
▁ጽኑ	-4237
ሆናችሁ	-4238
ለማውታ	-4239
ለንበት	-4240
ለው፡፡	-4241
ሟል፡፡	-4242
ረንጓዴ	-4243
ራችንን	-4244
ስፍራው	-4245
ሷል፡፡	-4246
ቃል፡፡	-4247
ተዋወቅ	-4248
ታቸውም	-4249
ታችሁን	-4250
ትም፡፡	-4251
ችኋለሁ	-4252
ነገረኝ	-4253
ናገረው	-4254
ኖርበት	-4255
ከፋፈል	-4256
ክስቶቼ	-4257
ወዳቸው	-4258
ዘዋወር	-4259
ዘጋጀት	-4260
ዩጋንዳ	-4261
ያውያን	-4262
ደርግል	-4263
ገንዘብ	-4264
ጡት፡፡	-4265
ጥርጣሬ	-4266
ጦርነት	-4267
ፈራሪያ	-4268
ፋሪዎች	-4269
ፏል፡፡	-4270
ፕቲስት	-4271
▁000	-4272
▁ሁሉን	-4273
▁ለቄሱ	-4274
▁ለቅሶ	-4275
▁ለዚህ	-4276
▁ላንቺ	-4277
▁ልቦና	-4278
▁ሐኪም	-4279
▁ሐይቁ	-4280
▁መሞት	-4281
▁መትረ	-4282
▁መጠየ	-4283
▁ማላባ	-4284
▁ማርያ	-4285
▁ማጥፋ	-4286
▁ምስጢ	-4287
▁ምነው	-4288
▁ሥራው	-4289
▁ሰባት	-4290
▁ሰውን	-4291
▁ሰዎቹ	-4292
▁ሲሆኑ	-4293
▁ሲያን	-4294
▁ሳስብ	-4295
▁ሳየው	-4296
▁ስልክ	-4297
▁ስብዕ	-4298
▁ሽቅብ	-4299
▁ቀለም	-4300
▁ቀዳዳ	-4301
▁ቀጠል	-4302
▁ቃሉን	-4303
▁በመተ	-4304
▁በማል	-4305
▁በምታ	-4306
▁በሰማ	-4307
▁በብዙ	-4308
▁በናዚ	-4309
▁በአፌ	-4310
▁በክፍ	-4311
▁በዓል	-4312
▁በደም	-4313
▁በደር	-4314
▁በግን	-4315
▁ቢያስ	-4316
▁ባልን	-4317
▁ብሆን	-4318
▁ተመስ	-4319
▁ተመድ	-4320
▁ተቋም	-4321
▁ተዘጋ	-4322
▁ታናሽ	-4323
▁ትልቁ	-4324
▁ትነግ	-4325
▁ነጂው	-4326
▁ነግሮ	-4327
▁አለፍ	-4328
▁አሉ፤	-4329
▁አምሽ	-4330
▁አሥራ	-4331
▁አቋር	-4332
▁አብረ	-4333
▁አብያ	-4334
▁አትኩ	-4335
▁አንጸ	-4336
▁አዋቂ	-4337
▁አየት	-4338
▁አይቶ	-4339
▁አፈር	-4340
▁እሆና	-4341
▁እልቂ	-4342
▁እሱን	-4343
▁እጸል	-4344
▁ከሚታ	-4345
▁ከሞት	-4346
▁ከሰማ	-4347
▁ከሰው	-4348
▁ከወጣ	-4349
▁ከፈት	-4350
▁ካንቺ	-4351
▁ካጋሜ	-4352
▁ወሰድ	-4353
▁ወንበ	-4354
▁ወዳጄ	-4355
▁ዘግና	-4356
▁የሆኑ	-4357
▁የለሽ	-4358
▁የመሰ	-4359
▁የስደ	-4360
▁የቀረ	-4361
▁የተፈ	-4362
▁የኔን	-4363
▁የፊት	-4364
▁ያለን	-4365
▁ያለፍ	-4366
▁ያገኙ	-4367
▁ይላል	-4368
▁ደርሶ	-4369
▁ደቡብ	-4370
▁ደብተ	-4371
▁ድምጻ	-4372
▁ገለጻ	-4373
▁ጉዳት	-4374
▁ግርማ	-4375
▁ጥቃት	-4376
▁ጸሐይ	-4377
▁ፈልጎ	-4378
ሃለሁ፡፡	-4379
ሊኦናርድ	-4380
መንግሥት	-4381
ስታውሰው	-4382
ቃለሁ፡፡	-4383
ቆኛል፡፡	-4384
ታለች፡፡	-4385
ችልም፡፡	-4386
ኛለች፡፡	-4387
አይሆንም	-4388
ዘላለማዊ	-4389
ደርጋቸው	-4390
ጓለማውታ	-4391
ፈልገውን	-4392
ፈዋል፡፡	-4393
▁ሁቱዎቹ	-4394
▁ሁኔታው	-4395
▁ሃሳቤን	-4396
▁ለሁሉም	-4397
▁ለማንም	-4398
▁ለማወቅ	-4399
▁ለቀናት	-4400
▁ለወራት	-4401
▁ሌላውን	-4402
▁ልጆችን	-4403
▁ሐይቅን	-4404
▁ሕዝቦች	-4405
▁መልሰው	-4406
▁መመለስ	-4407
▁መደበቅ	-4408
▁መግባት	-4409
▁ማልቀስ	-4410
▁ማስረጃ	-4411
▁ማኅበረ	-4412
▁ማውራት	-4413
▁ሥልጣን	-4414
▁ሥርዓት	-4415
▁ሰላማዊ	-4416
▁ሰውነቴ	-4417
▁ሰዎችም	-4418
▁ሲደርስ	-4419
▁ስህተት	-4420
▁ስለምት	-4421
▁ስንሄድ	-4422
▁ቅጽበት	-4423
▁በሚለው	-4424
▁በበኩሌ	-4425
▁በትከሻ	-4426
▁በእንባ	-4427
▁በኪቡዬ	-4428
▁በዕድሜ	-4429
▁በዚህን	-4430
▁በጥይት	-4431
▁በጨለማ	-4432
▁በጭራሽ	-4433
▁ቡድኖች	-4434
▁ባለፉት	-4435
▁ቤታቸው	-4436
▁ቪያኒና	-4437
▁ተቀምጬ	-4438
▁ተገናኘ	-4439
▁ተጽዕኖ	-4440
▁ታሪኬን	-4441
▁ትውልድ	-4442
▁ነገሩን	-4443
▁ነግረው	-4444
▁ነጻነት	-4445
▁ንግግር	-4446
▁አሊያም	-4447
▁አረጋግ	-4448
▁አሳለፍ	-4449
▁አስከፊ	-4450
▁አስገብ	-4451
▁አስገድ	-4452
▁አንጻር	-4453
▁አያውቅ	-4454
▁አይሆን	-4455
▁አደረስ	-4456
▁አደረግ	-4457
▁አገልግ	-4458
▁አገኘሁ	-4459
▁ኢየሱስ	-4460
▁እናውቃ	-4461
▁እውነታ	-4462
▁እየተን	-4463
▁እየጠበ	-4464
▁እያየሁ	-4465
▁ከተማዋ	-4466
▁ወጥተን	-4467
▁ውትወታ	-4468
▁ዓይኖቹ	-4469
▁ዘውጎች	-4470
▁የለንም	-4471
▁የሚያው	-4472
▁የሚገባ	-4473
▁የሚጠብ	-4474
▁የተሳተ	-4475
▁የእናቴ	-4476
▁የኪቡዬ	-4477
▁የዕለት	-4478
▁የጭነት	-4479
▁ያለበት	-4480
▁ያለኝን	-4481
▁ይህችን	-4482
▁ይመላለ	-4483
▁ይድረስ	-4484
▁ድምጼን	-4485
▁ድርጅት	-4486
▁ጉዳዩን	-4487
▁ግድግዳ	-4488
▁ጓደኛው	-4489
▁ፈልገው	-4490
▁ፍሎረን	-4491
▁ፍርሃት	-4492
ላቸዋል፡፡	-4493
ሬያለሁ፡፡	-4494
ቷቸዋል፡፡	-4495
ንዳንዳችን	-4496
▁ሁኔታዎች	-4497
▁ለመሥራት	-4498
▁ለመስማት	-4499
▁ለመቀበል	-4500
▁ለመግባት	-4501
▁ለማምለጥ	-4502
▁መንገዱን	-4503
▁ሩዋንዳዊ	-4504
▁ሰማን፡፡	-4505
▁ቁምሣጥን	-4506
▁በመሸበር	-4507
▁በመገናኛ	-4508
▁በገዳዮቹ	-4509
▁ባለማመን	-4510
▁ቤተሰቦች	-4511
▁ተቀምጠን	-4512
▁ተደናግጠ	-4513
▁ተግባራት	-4514
▁አለባቸው	-4515
▁አለች፡፡	-4516
▁አልን፡፡	-4517
▁አልፈለገ	-4518
▁አመሰግነ	-4519
▁አምላኬ፣	-4520
▁አስጠነቀ	-4521
▁አስፈላጊ	-4522
▁አንሆንም	-4523
▁አንዳቸው	-4524
▁አይመስል	-4525
▁አይቀርም	-4526
▁እምነቴን	-4527
▁እንደማል	-4528
▁እንዲኖር	-4529
▁እንዳለሽ	-4530
▁ከነበሩት	-4531
▁ከአምላክ	-4532
▁ወላጆቼ፣	-4533
▁ወንድሞች	-4534
▁የሆነውን	-4535
▁የሚኖሩት	-4536
▁የሚያሳድ	-4537
▁የማውቀው	-4538
▁የምችለው	-4539
▁የወደፊት	-4540
▁ዳማሲንና	-4541
▁ጀመረ፡፡	-4542
▁ጀርመኖች	-4543
▁ገባን፡፡	-4544
▁ጓደኞቼን	-4545
ስታውስም፡፡	-4546
▁ሁለታችንም	-4547
▁ለቱትሲዎች	-4548
▁መሣሪያዎች	-4549
▁መንቀሳቀስ	-4550
▁ሩዋንዳዊት	-4551
▁ቆመዋል፡፡	-4552
▁በሁላችንም	-4553
▁በአሥራዎቹ	-4554
▁በጠላትነት	-4555
▁ተናገረ፡፡	-4556
▁ትምህርቱን	-4557
▁ንግግራቸው	-4558
▁አልነበረው	-4559
▁አስተሳሰብ	-4560
▁አስተዳዳሪ	-4561
▁አቃተኝ፡፡	-4562
▁አብዛኛውን	-4563
▁እንችላለን	-4564
▁እንደሆንኩ	-4565
▁እንደሚችል	-4566
▁እንደሚወደ	-4567
▁እንዳለብን	-4568
▁እንዳልሆነ	-4569
▁እየተገደሉ	-4570
▁የሚያደርግ	-4571
▁የሩዋንዳው	-4572
▁የበላይነት	-4573
▁የነበረኝን	-4574
▁የአማርኛው	-4575
▁ያለማቋረጥ	-4576
▁ይሁዲዎችን	-4577
▁ፈረንሳይኛ	-4578
▁ለመንኩት፡፡	-4579
▁በመንደራችን	-4580
▁ባሳለፍኳቸው	-4581
▁አምናለሁ፡፡	-4582
▁እችላለሁ፡፡	-4583
▁እንደማደርግ	-4584
▁እንዲያደርጉ	-4585
▁የመጀመሪያው	-4586
▁የሚያደርገው	-4587
▁የሩዋንዳውን	-4588
▁ይገባኛል፡፡	-4589
▁ፈረንሳውያን	-4590
▁አልነበረኝም፤	-4591
▁አስታወስኩ፡፡	-4592
▁አደርጋለሁ፡፡	-4593
▁እናውቃለን፡፡	-4594
▁አንሾካሾክሁ፡፡	-4595
▁አመሰግንሻለሁ፡፡	-4596
ma	-4597
ሁም	-4598
ሂጊ	-4599
ሄዴ	-4600
ለታ	-4601
ለና	-4602
ለግ	-4603
ሊት	-4604
ሊያ	-4605
ላር	-4606
ላሳ	-4607
ልሜ	-4608
ልካ	-4609
ልዕ	-4610
ልፉ	-4611
ሐፊ	-4612
መተ	-4613
መኘ	-4614
መዘ	-4615
ሙና	-4616
ማረ	-4617
ምም	-4618
ምረ	-4619
ምሯ	-4620
ሠቃ	-4621
ሣኤ	-4622
ረተ	-4623
ሩህ	-4624
ራሄ	-4625
ራል	-4626
ርበ	-4627
ሮሮ	-4628
ሮጥ	-4629
ሳስ	-4630
ሳኝ	-4631
ሳዩ	-4632
ሳድ	-4633
ስኤ	-4634
ሶቹ	-4635
ሸር	-4636
ሸጥ	-4637
ሼን	-4638
ቀች	-4639
ቀዋ	-4640
ቁኝ	-4641
ቂኝ	-4642
ቃል	-4643
ቃሪ	-4644
ቃቅ	-4645
ቃና	-4646
ቅዞ	-4647
ቅዶ	-4648
በቡ	-4649
ቡት	-4650
ቢስ	-4651
ብሩ	-4652
ተሽ	-4653
ታም	-4654
ታሻ	-4655
ታታ	-4656
ታኝ	-4657
ቴት	-4658
ች፤	-4659
ኅበ	-4660
ኑት	-4661
ናማ	-4662
ናቂ	-4663
ንጌ	-4664
ንጣ	-4665
ኗን	-4666
ኝቼ	-4667
ክረ	-4668
ዓያ	-4669
ዓይ	-4670
ዕክ	-4671
ዚች	-4672
ዝቃ	-4673
የራ	-4674
የቤ	-4675
ዩዋ	-4676
ዪኝ	-4677
ዪው	-4678
ይዝ	-4679
ይዩ	-4680
ደቡ	-4681
ደይ	-4682
ዱት	-4683
ዳር	-4684
ድነ	-4685
ድ፣	-4686
ጅሙ	-4687
ገዙ	-4688
ጊው	-4689
ግል	-4690
ግዝ	-4691
ጎም	-4692
ጠቁ	-4693
ጠግ	-4694
ጣና	-4695
ጣጣ	-4696
ጤን	-4697
ጪው	-4698
ጭው	-4699
ጸዳ	-4700
ጻሜ	-4701
ጻፉ	-4702
ፊው	-4703
▁ሎ	-4704
▁ሹ	-4705
▁ሻ	-4706
▁ሾ	-4707
▁ዑ	-4708
ሆነው	-4709
ለመደ	-4710
ለበት	-4711
ለብሱ	-4712
ለብኝ	-4713
ላምታ	-4714
ላትና	-4715
ላት፣	-4716
ልቀት	-4717
ልቀው	-4718
ልኝም	-4719
ሒሳብ	-4720
መጣም	-4721
ማመኑ	-4722
ሠረት	-4723
ረበሽ	-4724
ረቤት	-4725
ረትን	-4726
ረፍተ	-4727
ሩትን	-4728
ርሥራ	-4729
ርሽር	-4730
ርዳት	-4731
ርጉሙ	-4732
ሮች፣	-4733
ሰማን	-4734
ሰብኩ	-4735
ሰጠው	-4736
ሳልፍ	-4737
ሴቶቹ	-4738
ስታት	-4739
ቀረው	-4740
ቀርቡ	-4741
ቃጠል	-4742
ቅዶቄ	-4743
ቆሙና	-4744
ቆጠር	-4745
ቆጣጠ	-4746
በሎች	-4747
በትም	-4748
ባረር	-4749
ብኝና	-4750
ብኝ፣	-4751
ብጠው	-4752
ተኮር	-4753
ተውና	-4754
ታታይ	-4755
ታጠብ	-4756
ትተው	-4757
ትንፋ	-4758
ችሁም	-4759
ችሁት	-4760
ችሉት	-4761
ችግር	-4762
ነበበ	-4763
ነቶች	-4764
ነዘር	-4765
ነዚያ	-4766
ንደኛ	-4767
ንዶቹ	-4768
ንግሥ	-4769
ኛዋም	-4770
አባቴ	-4771
እቤት	-4772
እናት	-4773
እንዳ	-4774
ከራከ	-4775
ከባከ	-4776
ኩባት	-4777
ካሂድ	-4778
ካሄደ	-4779
ወትር	-4780
ወድቅ	-4781
ወጣት	-4782
ዋል፣	-4783
ዋክብ	-4784
ዋወቅ	-4785
ውቀት	-4786
ዓይን	-4787
ዘውጉ	-4788
ዜጠኛ	-4789
ያናት	-4790
ድነት	-4791
ዶችን	-4792
ገልጻ	-4793
ገኘት	-4794
ገኙት	-4795
ገኙን	-4796
ገድለ	-4797
ገገም	-4798
ጊያው	-4799
ጋገር	-4800
ጌታዬ	-4801
ጓቸው	-4802
ጣዬን	-4803
ጧቸው	-4804
ጨረሱ	-4805
ጨረቃ	-4806
ጽሕና	-4807
ፈልገ	-4808
ፈረኝ	-4809
ፈጽሙ	-4810
ፈጽም	-4811
ፊያው	-4812
ፍሪካ	-4813
ፍትሔ	-4814
▁24	-4815
▁50	-4816
▁91	-4817
▁ሂዱ	-4818
▁ሃው	-4819
▁ህል	-4820
▁ለት	-4821
▁ለይ	-4822
▁ለደ	-4823
▁ሊቀ	-4824
▁ልጇ	-4825
▁መዋ	-4826
▁መፋ	-4827
▁መፍ	-4828
▁ማእ	-4829
▁ማግ	-4830
▁ሜሁ	-4831
▁ሞል	-4832
▁ሞከ	-4833
▁ሰባ	-4834
▁ሰን	-4835
▁ሲታ	-4836
▁ሲፈ	-4837
▁ሳሚ	-4838
▁ስሞ	-4839
▁ስድ	-4840
▁ሺህ	-4841
▁ሽያ	-4842
▁ቁስ	-4843
▁ቅን	-4844
▁ቅዠ	-4845
▁በለ	-4846
▁በሳ	-4847
▁በከ	-4848
▁በዕ	-4849
▁ቢጫ	-4850
▁ባሕ	-4851
▁ብቅ	-4852
▁ተለ	-4853
▁ተር	-4854
▁ተባ	-4855
▁ተጋ	-4856
▁ትተ	-4857
▁ትቶ	-4858
▁ቻለ	-4859
▁ነን	-4860
▁ነካ	-4861
▁ነክ	-4862
▁ኑሮ	-4863
▁ንድ	-4864
▁ኖር	-4865
▁አዝ	-4866
▁እሳ	-4867
▁እጽ	-4868
▁ከክ	-4869
▁ከፊ	-4870
▁ካሉ	-4871
▁ወጪ	-4872
▁ውሰ	-4873
▁ውሸ	-4874
▁የሙ	-4875
▁የሸ	-4876
▁የባ	-4877
▁የዛ	-4878
▁የዜ	-4879
▁የጀ	-4880
▁የጠ	-4881
▁ይዛ	-4882
▁ደሞ	-4883
▁ደክ	-4884
▁ዶቃ	-4885
▁ገጠ	-4886
▁ጉን	-4887
▁ጋብ	-4888
▁ግዙ	-4889
▁ጎራ	-4890
▁ጓሮ	-4891
▁ጠቅ	-4892
▁ጫካ	-4893
▁ጭር	-4894
▁ፈጥ	-4895
▁ፊቷ	-4896
▁ፍጡ	-4897
1973	-4898
ላችንን	-4899
ላውቀው	-4900
ሏቸዋል	-4901
መሰግና	-4902
መስለኝ	-4903
መኝ፡፡	-4904
ረናለህ	-4905
ረጃጅም	-4906
ረጋግጥ	-4907
ሮቻቸው	-4908
ሰጣቸው	-4909
ሳምንት	-4910
ሳችንን	-4911
ስለዚህ	-4912
ስታውቃ	-4913
ሶቻችን	-4914
ሸማቀቅ	-4915
ቁም፡፡	-4916
ባት፡፡	-4917
ተነፍስ	-4918
ትንሣኤ	-4919
ቻችሁን	-4920
ችሁ፡፡	-4921
ችለውን	-4922
ነግረን	-4923
ንደኛው	-4924
ንጸባር	-4925
ኖቻቸው	-4926
እነዚህ	-4927
ካሄደው	-4928
ውቃቸው	-4929
ያሉ፡፡	-4930
ዳምጠው	-4931
ጠባበቅ	-4932
ጡኝ፡፡	-4933
ጻፍኩት	-4934
ፈልጉት	-4935
▁199	-4936
▁ሀገሬ	-4937
▁ሁሌም	-4938
▁ሁነኛ	-4939
▁ሆንኩ	-4940
▁ለመቅ	-4941
▁ለመፍ	-4942
▁ለቀን	-4943
▁ለችም	-4944
▁ለፊቴ	-4945
▁ሊጠይ	-4946
▁ላሉት	-4947
▁ልጁን	-4948
▁ሎሬን	-4949
▁ሕዝቡ	-4950
▁መለሰ	-4951
▁መልስ	-4952
▁መምሬ	-4953
▁መርሃ	-4954
▁መሰል	-4955
▁መስተ	-4956
▁መነሳ	-4957
▁መክፈ	-4958
▁መውደ	-4959
▁መድሎ	-4960
▁መጠነ	-4961
▁ማሪያ	-4962
▁ማራኪ	-4963
▁ማሰብ	-4964
▁ማሳያ	-4965
▁ማታባ	-4966
▁ምርጥ	-4967
▁ምድር	-4968
▁ሞተው	-4969
▁ርቀው	-4970
▁ሰላይ	-4971
▁ሰቅዞ	-4972
▁ሰዓቱ	-4973
▁ሰዓታ	-4974
▁ሳራና	-4975
▁ስሆን	-4976
▁ስለሌ	-4977
▁ስለኛ	-4978
▁ስላስ	-4979
▁ስሙን	-4980
▁ስምና	-4981
▁ስሰማ	-4982
▁ስትና	-4983
▁ስወጣ	-4984
▁ቀይና	-4985
▁ቀደም	-4986
▁ቀጥሎ	-4987
▁ቄሱም	-4988
▁ቅርብ	-4989
▁በሁቱ	-4990
▁በሊሴ	-4991
▁በሚል	-4992
▁በማየ	-4993
▁በምን	-4994
▁በሞት	-4995
▁በቀስ	-4996
▁በበሩ	-4997
▁በተቃ	-4998
▁በተቻ	-4999
▁በታች	-5000
▁በእኔ	-5001
▁በወር	-5002
▁በግራ	-5003
▁በጸሎ	-5004
▁ቡታሬ	-5005
▁ቢላዋ	-5006
▁ባለፈ	-5007
▁ባዚል	-5008
▁ብረት	-5009
▁ብርሃ	-5010
▁ተራፊ	-5011
▁ተገረ	-5012
▁ታሪኳ	-5013
▁ትንሿ	-5014
▁ትይዩ	-5015
▁ነኝ፤	-5016
▁ነጥብ	-5017
▁ነፍስ	-5018
▁ንዴቴ	-5019
▁አመስ	-5020
▁አቀረ	-5021
▁አቀፈ	-5022
▁አቧራ	-5023
▁አንዲ	-5024
▁አያስ	-5025
▁አይቼ	-5026
▁አጠና	-5027
▁እመኚ	-5028
▁እሳት	-5029
▁እስክ	-5030
▁እኔና	-5031
▁እንጃ	-5032
▁እኩል	-5033
▁እውን	-5034
▁እየሰ	-5035
▁እየዘ	-5036
▁እየጮ	-5037
▁እጆች	-5038
▁እፊት	-5039
▁ከሁቱ	-5040
▁ከልቤ	-5041
▁ከማይ	-5042
▁ከባድ	-5043
▁ከንቱ	-5044
▁ከየት	-5045
▁ከጎኔ	-5046
▁ክፍያ	-5047
▁ወረድ	-5048
▁ወሰዱ	-5049
▁ወሳኝ	-5050
▁ወስደ	-5051
▁ወንዝ	-5052
▁ወገን	-5053
▁ዋናው	-5054
▁ውረድ	-5055
▁ውበት	-5056
▁ዕትም	-5057
▁ዝግጁ	-5058
▁የሄዱ	-5059
▁የለብ	-5060
▁የለው	-5061
▁የልብ	-5062
▁የመን	-5063
▁የሚተ	-5064
▁የሚይ	-5065
▁የማዋ	-5066
▁የሰጠ	-5067
▁የተወ	-5068
▁የነጻ	-5069
▁የአካ	-5070
▁የአየ	-5071
▁የከበ	-5072
▁የገዛ	-5073
▁ያመጣ	-5074
▁ይረዳ	-5075
▁ይቻለ	-5076
▁ይኖሩ	-5077
▁ይፈጸ	-5078
▁ደማቅ	-5079
▁ደረስ	-5080
▁ዳርቻ	-5081
▁ዳንኤ	-5082
▁ድርጅ	-5083
▁ገነት	-5084
▁ገደብ	-5085
▁ጋሂጊ	-5086
▁ጋደም	-5087
▁ግንብ	-5088
▁ግጥም	-5089
▁ጎረቤ	-5090
▁ጠርዝ	-5091
▁ጠየቀ	-5092
▁ጠይቄ	-5093
▁ጣልቃ	-5094
▁ጥቁር	-5095
▁ጨምሮ	-5096
▁ጨዋታ	-5097
▁ጭንቅ	-5098
▁ጸባይ	-5099
▁ጸጉር	-5100
▁ጽሑፍ	-5101
▁ፀደይ	-5102
▁ፈቃድ	-5103
▁ፈንታ	-5104
▁ፍርሃ	-5105
▁ፍጹም	-5106
▁ፍጻሜ	-5107
.....	-5108
ሁላችሁም	-5109
ማለሁ፡፡	-5110
ራለች፡፡	-5111
ሮፓውያን	-5112
ቀዋል፡፡	-5113
ቁምሳጥኑ	-5114
ብኝም፡፡	-5115
ተመስገን	-5116
ቶቻቸውን	-5117
ቶቻችንን	-5118
ዎታል፡፡	-5119
ያየን፡፡	-5120
ጀመሪያው	-5121
ገደሉበት	-5122
ጠንቀቂያ	-5123
ፈልጋቸው	-5124
▁....	-5125
▁ሃይማኖ	-5126
▁ለመማር	-5127
▁ለአፍታ	-5128
▁ለዓለም	-5129
▁ልባቸው	-5130
▁ልጃቸው	-5131
▁መሆኔን	-5132
▁መሆንን	-5133
▁መለየት	-5134
▁መልሰን	-5135
▁መማሪያ	-5136
▁መሠረት	-5137
▁መሥራት	-5138
▁መስማቱ	-5139
▁መስማት	-5140
▁መተኛት	-5141
▁መንስኤ	-5142
▁መንፈሴ	-5143
▁መዘምር	-5144
▁መገደል	-5145
▁መጓጓዣ	-5146
▁ሚኒስት	-5147
▁ማለትም	-5148
▁ማለትዎ	-5149
▁ምንነት	-5150
▁ምግብና	-5151
▁ሞተዋል	-5152
▁ሠራተኛ	-5153
▁ሥራዬን	-5154
▁ራሳቸው	-5155
▁ርህራሄ	-5156
▁ሲመለሱ	-5157
▁ሴኔጋል	-5158
▁ስላለው	-5159
▁ስላገኘ	-5160
▁ስሜቴን	-5161
▁ስፍራው	-5162
▁ሻለቃው	-5163
▁ቃላትም	-5164
▁በሁሉም	-5165
▁በመሆኔ	-5166
▁በመኝታ	-5167
▁በማስተ	-5168
▁በማግስ	-5169
▁በማግኘ	-5170
▁በምዕራ	-5171
▁በርቀት	-5172
▁በቅርብ	-5173
▁በአሥር	-5174
▁በኩራት	-5175
▁በዋናው	-5176
▁በዚያው	-5177
▁በጅምላ	-5178
▁በግቢው	-5179
▁በፍቅሩ	-5180
▁ባለስል	-5181
▁ባለበት	-5182
▁ቤልጅየ	-5183
▁ቤተሰቡ	-5184
▁ቪያኒን	-5185
▁ተስማማ	-5186
▁ተቀምጦ	-5187
▁ተናገሩ	-5188
▁ተደርጎ	-5189
▁ተደሰት	-5190
▁ታሪኮች	-5191
▁ታደርጋ	-5192
▁ትላልቅ	-5193
▁ትንንሽ	-5194
▁ትንፋሽ	-5195
▁ነፍሴን	-5196
▁ንጹሃን	-5197
▁አለበት	-5198
▁አለብሽ	-5199
▁አለብን	-5200
▁አላወቅ	-5201
▁አልሆነ	-5202
▁አልመሰ	-5203
▁አልረሳ	-5204
▁አልኩት	-5205
▁አልፎም	-5206
▁አማላይ	-5207
▁አረጋገ	-5208
▁አራዊት	-5209
▁አሰብኩ	-5210
▁አስመስ	-5211
▁አስቀድ	-5212
▁አስታወ	-5213
▁አስደሳ	-5214
▁አባባን	-5215
▁አንደኛ	-5216
▁አንድን	-5217
▁አክራሪ	-5218
▁አይነካ	-5219
▁አይደል	-5220
▁አይገባ	-5221
▁አደረጉ	-5222
▁አድርገ	-5223
▁አጥብቄ	-5224
▁እላለሁ	-5225
▁እርሱን	-5226
▁እርሷም	-5227
▁እስክን	-5228
▁እናወራ	-5229
▁እንስሳ	-5230
▁እንደሞ	-5231
▁እንደወ	-5232
▁እንዳስ	-5233
▁እየመጡ	-5234
▁እየቀረ	-5235
▁እየታደ	-5236
▁እየነቀ	-5237
▁እያልኩ	-5238
▁እያወራ	-5239
▁እፎይታ	-5240
▁ከመኝታ	-5241
▁ከማታባ	-5242
▁ከሦስት	-5243
▁ከሰባት	-5244
▁ከአልጋ	-5245
▁ከአብዛ	-5246
▁ከእርሷ	-5247
▁ከዚህም	-5248
▁ከደረስ	-5249
▁ከፈጣሪ	-5250
▁ክስተት	-5251
▁ወንጀል	-5252
▁ወዳጆቼ	-5253
▁ውጥረት	-5254
▁ዘመዶች	-5255
▁የሁሉም	-5256
▁የመኝታ	-5257
▁የሚኖር	-5258
▁የረጅም	-5259
▁የራሴን	-5260
▁የሬድዮ	-5261
▁የቪያኒ	-5262
▁የእኔን	-5263
▁የይቅር	-5264
▁የጎድን	-5265
▁የፈጸሙ	-5266
▁ይነግራ	-5267
▁ይገልጻ	-5268
▁ይግባህ	-5269
▁ድርሰት	-5270
▁ድንበር	-5271
▁ድንግል	-5272
▁ገብተው	-5273
▁ጭንቀት	-5274
▁ፈልጓት	-5275
▁ፌሊሲን	-5276
▁ፍራንክ	-5277
▁ፍርሥራ	-5278
▁ፍቅር፣	-5279
▁ፍጅቱን	-5280
ቸዋለች፡፡	-5281
ንያሩዋንዳ	-5282
▁...››	-5283
▁ሁላችሁም	-5284
▁ሆንኩ፡፡	-5285
▁ለመመለስ	-5286
▁ለመርዳት	-5287
▁ለመቀየር	-5288
▁ለመድረስ	-5289
▁ለመጀመር	-5290
▁ለመግደል	-5291
▁ለማስቆም	-5292
▁ለእናንተ	-5293
▁ሊያደርጉ	-5294
▁ሊገድሉን	-5295
▁ሕይወትን	-5296
▁መረጋጋት	-5297
▁መቆጣጠር	-5298
▁መታሰቢያ	-5299
▁ሙሪንዚን	-5300
▁ማርያምን	-5301
▁ማንነቴን	-5302
▁ምስጋናዬ	-5303
▁ሠራተኞች	-5304
▁ሳሰላስል	-5305
▁ስፍራዎች	-5306
▁ቆየን፡፡	-5307
▁በሃዘኔታ	-5308
▁በሌሎችም	-5309
▁በመስጠት	-5310
▁በመናገር	-5311
▁በመንደሩ	-5312
▁በመንገዱ	-5313
▁በሚመስል	-5314
▁በሚገኘው	-5315
▁በተደበቅ	-5316
▁በአንዲት	-5317
▁በእጃቸው	-5318
▁በከፍተኛ	-5319
▁በዓይኖቼ	-5320
▁በዙሪያዬ	-5321
▁በድንጋጤ	-5322
▁ባፕቲስት	-5323
▁ተመልሰን	-5324
▁ተነሺ፡፡	-5325
▁ታየኝ፡፡	-5326
▁ትንንሾቹ	-5327
▁ነገሮችን	-5328
▁አልባትም	-5329
▁አልችልም	-5330
▁አልኳቸው	-5331
▁አሎይዜን	-5332
▁አስተያየ	-5333
▁አስከሬኖ	-5334
▁አስደሳች	-5335
▁አስደናቂ	-5336
▁አሻፈረኝ	-5337
▁አትጨነቂ	-5338
▁አእምሮን	-5339
▁አየን፡፡	-5340
▁እነርሱን	-5341
▁እነዚያን	-5342
▁እናትሽን	-5343
▁እናንተን	-5344
▁እንደተሰ	-5345
▁እንደደረ	-5346
▁እንዲልክ	-5347
▁እንዲቆይ	-5348
▁እንዳለች	-5349
▁እንዳለን	-5350
▁እንዳይሰ	-5351
▁እንጸልይ	-5352
▁እየተዘዋ	-5353
▁እየጠበቅ	-5354
▁እያደረገ	-5355
▁ከአምስት	-5356
▁ከግድያው	-5357
▁ክስተቶች	-5358
▁ዓለማችን	-5359
▁ዓይኖቿን	-5360
▁የሚሉትን	-5361
▁የሚመጡት	-5362
▁የሚሰማኝ	-5363
▁የሚያስተ	-5364
▁የሚገደሉ	-5365
▁የብርሃን	-5366
▁የተለያየ	-5367
▁የተሰማኝ	-5368
▁የተቀመጠ	-5369
▁የአሜሪካ	-5370
▁የአእምሮ	-5371
▁የወላጆቼ	-5372
▁ያስተጋባ	-5373
▁ያስታውቃ	-5374
▁ያስፈልጋ	-5375
▁ይዘውልን	-5376
▁ይዟል፡፡	-5377
▁ዲያብሎስ	-5378
▁ድምጻቸው	-5379
▁ገጀራውን	-5380
▁ጠየቅሁት	-5381
▁ፈራሁ፡፡	-5382
▁ፈገግታው	-5383
▁ፍሎረንስ	-5384
▁ለመከላከል	-5385
▁ለወንድሞቼ	-5386
▁መንግሥታት	-5387
▁መንግስታት	-5388
▁ማስፈራሪያ	-5389
▁ሞተዋል፡፡	-5390
▁ስለቤተሰቤ	-5391
▁በሁለተኛው	-5392
▁በመሆናቸው	-5393
▁በመስማማት	-5394
▁በተመሳሳይ	-5395
▁በነበረበት	-5396
▁በአማጽያኑ	-5397
▁በደርዘኖች	-5398
▁ተንበርክኬ	-5399
▁ትምህርቴን	-5400
▁ትምህርቶች	-5401
▁አለበት፡፡	-5402
▁አለችኝ፡፡	-5403
▁አማጽያኑን	-5404
▁አስተያየት	-5405
▁አብዛኞቹን	-5406
▁አንጸባራቂ	-5407
▁አወቅሁ፡፡	-5408
▁አውቃለሁ፣	-5409
▁አይደለም፤	-5410
▁አገልግሎት	-5411
▁አገኘሁ፡፡	-5412
▁እንደሆንን	-5413
▁እንደሚሆን	-5414
▁እንደሚችሉ	-5415
▁እንደዚያው	-5416
▁እንዲሰማኝ	-5417
▁ኦገስቲንን	-5418
▁ከኢማኪዩሌ	-5419
▁ከእንቅልፌ	-5420
▁ወላጆቻቸው	-5421
▁ወዲያውኑም	-5422
▁ወዳጆቻችን	-5423
▁ዓይኖቻችን	-5424
▁የመታጠቢያ	-5425
▁የሚቆጠሩት	-5426
▁የሚያስታው	-5427
▁የማስተርስ	-5428
▁የምፈልገው	-5429
▁የተርጓሚው	-5430
▁የአሎይዜን	-5431
▁ይመጣሉ፡፡	-5432
▁ይችላሉ፡፡	-5433
▁ይዣለሁ፡፡	-5434
▁ደብዳቤውን	-5435
▁ዳማሲን፡፡	-5436
▁ጎረቤታችን	-5437
▁ጠመንጃውን	-5438
▁ጠየቅሁ፡፡	-5439
▁ጭፍጨፋውን	-5440
▁ሰምቻለሁ፡፡	-5441
▁በእንግሊዝኛ	-5442
▁በፈረንሳይኛ	-5443
▁ትነግረናለህ	-5444
▁አስባለሁ፡፡	-5445
▁አየኋቸው፡፡	-5446
▁አደረግሁ፡፡	-5447
▁እሆናለሁ፡፡	-5448
▁እንደሚመስል	-5449
▁እንደተገደሉ	-5450
▁ከመጀመሪያው	-5451
▁ክሌሜንታይን	-5452
▁የምፈልገውን	-5453
▁የቤተሰባችን	-5454
▁የቱትሲዎችን	-5455
▁ጎረቤቶቻቸው	-5456
▁ቤተክርስቲያን	-5457
▁ተሸከርካሪዎች	-5458
▁አልቻልንም፡፡	-5459
▁አውቄያለሁ፡፡	-5460
▁የቤተሰባችንን	-5461
▁ያስታውቃል፡፡	-5462
▁ይመላለሳሉ፡፡	-5463
▁አላስታውስም፡፡	-5464
▁አልነበረውም፡፡	-5465
▁አይመስለኝም፡፡	-5466
!!	-5467
39	-5468
::	-5469
?›	-5470
De	-5471
ar	-5472
mi	-5473
ol	-5474
ሂቃ	-5475
ሂዱ	-5476
ሄይ	-5477
ህረ	-5478
ህር	-5479
ለኛ	-5480
ለድ	-5481
ለፋ	-5482
ሌው	-5483
ሌዳ	-5484
ልዳ	-5485
ሏት	-5486
ሏን	-5487
መታ	-5488
መነ	-5489
መኛ	-5490
መግ	-5491
ሙም	-5492
ሙኝ	-5493
ሚዙ	-5494
ማም	-5495
ማን	-5496
ማዊ	-5497
ሜት	-5498
ምሽ	-5499
ሞቹ	-5500
ሞን	-5501
ሥል	-5502
ረዝ	-5503
ረዷ	-5504
ረጣ	-5505
ረፈ	-5506
ሩ፤	-5507
ሪኩ	-5508
ራም	-5509
ራረ	-5510
ራቅ	-5511
ራኬ	-5512
ሬሳ	-5513
ሬው	-5514
ሮታ	-5515
ሮጌ	-5516
ሰባ	-5517
ሰጣ	-5518
ሳራ	-5519
ስር	-5520
ስቅ	-5521
ሸበ	-5522
ሹት	-5523
ሻት	-5524
ቀሩ	-5525
ቀዳ	-5526
ቁጥ	-5527
ቅቃ	-5528
ቅዳ	-5529
ቆማ	-5530
ቆቹ	-5531
በዛ	-5532
በይ	-5533
ቢሲ	-5534
ባቷ	-5535
ባው	-5536
ብህ	-5537
ብጥ	-5538
ቦን	-5539
ተህ	-5540
ተቱ	-5541
ተነ	-5542
ተዉ	-5543
ታን	-5544
ቴ፣	-5545
ትመ	-5546
ቸገ	-5547
ቺን	-5548
ቾት	-5549
ነሰ	-5550
ነባ	-5551
ነይ	-5552
ኑር	-5553
ኒያ	-5554
ንኦ	-5555
ንዲ	-5556
ንጫ	-5557
ኗል	-5558
አሃ	-5559
አዎ	-5560
እይ	-5561
ከሉ	-5562
ከን	-5563
ከክ	-5564
ከፈ	-5565
ኪያ	-5566
ካሂ	-5567
ኳኋ	-5568
ዋች	-5569
ዋጉ	-5570
ውሬ	-5571
ውኑ	-5572
ዘም	-5573
ዘፍ	-5574
ዚሁ	-5575
ዛዛ	-5576
ዞር	-5577
ዩና	-5578
ደነ	-5579
ደዱ	-5580
ዳነ	-5581
ዳዩ	-5582
ድሞ	-5583
ድቶ	-5584
ጀላ	-5585
ጁና	-5586
ገጥ	-5587
ጉሥ	-5588
ጋቢ	-5589
ጋን	-5590
ጋጥ	-5591
ጌታ	-5592
ግሽ	-5593
ግታ	-5594
ጎል	-5595
ጎበ	-5596
ጎዱ	-5597
ጓታ	-5598
ጠጉ	-5599
ጣሩ	-5600
ጥና	-5601
ጧል	-5602
ጨቀ	-5603
ጭት	-5604
ጮሃ	-5605
ጴዛ	-5606
ጸት	-5607
ጸው	-5608
ጹሕ	-5609
ጻፈ	-5610
ጽዳ	-5611
ፈጀ	-5612
ፈግ	-5613
ፋጭ	-5614
ፍር	-5615
ፍኖ	-5616
ፐብ	-5617
▁ሟ	-5618
▁ሦ	-5619
▁ሱ	-5620
▁ኦ	-5621
▁ጅ	-5622
▁ጻ	-5623
▁ፋ	-5624
ሁትም	-5625
ሂቃን	-5626
ለቅስ	-5627
ለን፣	-5628
ለዋል	-5629
ለየት	-5630
ለያው	-5631
ለያይ	-5632
ሉም፣	-5633
ላለሁ	-5634
ላቀል	-5635
ላትን	-5636
ላክን	-5637
ልዕኮ	-5638
መራኝ	-5639
መውን	-5640
መጡና	-5641
ምታታ	-5642
ምነቴ	-5643
ሞቱት	-5644
ሟቸው	-5645
ረመኔ	-5646
ረውም	-5647
ረፈው	-5648
ራረብ	-5649
ራቆች	-5650
ራትና	-5651
ራዊው	-5652
ርሰው	-5653
ርስዎ	-5654
ርባዬ	-5655
ርግጥ	-5656
ሮሮዬ	-5657
ሮቿ፣	-5658
ሰለሰ	-5659
ሰጠን	-5660
ሰጡኝ	-5661
ሰ፡፡	-5662
ሳሰበ	-5663
ሴንጄ	-5664
ስተው	-5665
ስንት	-5666
ስጋና	-5667
ሶሊያ	-5668
ሸሸግ	-5669
ሸነፉ	-5670
ሻል፤	-5671
ሽልኝ	-5672
ሽም፤	-5673
ሾቹን	-5674
ቀንም	-5675
ቂ፡፡	-5676
ቅድም	-5677
ቆየው	-5678
ቆጠሩ	-5679
ቋቸው	-5680
ቋንቋ	-5681
ባበር	-5682
ብረቅ	-5683
ብራራ	-5684
ብታም	-5685
ተረፈ	-5686
ተናል	-5687
ተኞቹ	-5688
ታለሁ	-5689
ታለን	-5690
ታረድ	-5691
ታዘብ	-5692
ታይም	-5693
ታደል	-5694
ቻልኩ	-5695
ቼውም	-5696
ችን፣	-5697
ኋችሁ	-5698
ነሳት	-5699
ነኛው	-5700
ነካካ	-5701
ነግር	-5702
ነጥፍ	-5703
ናትና	-5704
ናትን	-5705
ናውቅ	-5706
ናደደ	-5707
ናደድ	-5708
ናገድ	-5709
ንተን	-5710
ንኦት	-5711
ንግዳ	-5712
ንጨት	-5713
ንፈኛ	-5714
ኘሁት	-5715
አቸው	-5716
አይዟ	-5717
ከበኝ	-5718
ኩለት	-5719
ኬላው	-5720
ክምና	-5721
ክፈት	-5722
ወረች	-5723
ወረው	-5724
ወሩት	-5725
ወይኔ	-5726
ወጣው	-5727
ውንና	-5728
ዎትም	-5729
ዎቿን	-5730
ዎንታ	-5731
ዘመን	-5732
ዘጋጁ	-5733
ዛግብ	-5734
ዝናና	-5735
ዣኔት	-5736
የውን	-5737
ዩ፡፡	-5738
ያችሁ	-5739
ያውቁ	-5740
ያየር	-5741
ያያዝ	-5742
ዬንም	-5743
ደበድ	-5744
ዱኝን	-5745
ዳቸው	-5746
ዳደር	-5747
ጀምራ	-5748
ጀርባ	-5749
ገልጹ	-5750
ገመት	-5751
ገቢያ	-5752
ገባት	-5753
ገትም	-5754
ገደለ	-5755
ገድል	-5756
ጋቸው	-5757
ግራም	-5758
ግነት	-5759
ጠበቀ	-5760
ጠኝን	-5761
ጤዎች	-5762
ጻፉት	-5763
ጽሐፉ	-5764
ጽሑፍ	-5765
ጽናፍ	-5766
ፈላል	-5767
ፈቀደ	-5768
ፈነዳ	-5769
ፈጥሮ	-5770
ፍራፊ	-5771
ፍተው	-5772
ፍጅት	-5773
ፏል፤	-5774
▁ሁኚ	-5775
▁ሆና	-5776
▁ሆዴ	-5777
▁ለቆ	-5778
▁ለበ	-5779
▁ለች	-5780
▁ለጥ	-5781
▁ልጁ	-5782
▁መጉ	-5783
▁ማወ	-5784
▁ማዳ	-5785
▁ምሁ	-5786
▁ምር	-5787
▁ምክ	-5788
▁ሞቅ	-5789
▁ሥቃ	-5790
▁ርቆ	-5791
▁ርዕ	-5792
▁ርዝ	-5793
▁ሮጬ	-5794
▁ሰል	-5795
▁ሰጥ	-5796
▁ሰጪ	-5797
▁ሲደ	-5798
▁ሳጣ	-5799
▁ቀኝ	-5800
▁ቀጭ	-5801
▁ቃለ	-5802
▁ቅሉ	-5803
▁ቅዳ	-5804
▁ቅጂ	-5805
▁በሽ	-5806
▁በቆ	-5807
▁በዱ	-5808
▁ባሌ	-5809
▁ባር	-5810
▁ቤተ	-5811
▁ቦም	-5812
▁ተም	-5813
▁ተሟ	-5814
▁ተቆ	-5815
▁ተቸ	-5816
▁ተቻ	-5817
▁ተዛ	-5818
▁ተዪ	-5819
▁ተይ	-5820
▁ተጉ	-5821
▁ታች	-5822
▁ታወ	-5823
▁ታጋ	-5824
▁ታጥ	-5825
▁ትታ	-5826
▁ቸል	-5827
▁ቸር	-5828
▁ችፍ	-5829
▁ነባ	-5830
▁ንዚ	-5831
▁አዕ	-5832
▁አጉ	-5833
▁እኝ	-5834
▁ከረ	-5835
▁ከየ	-5836
▁ኪሴ	-5837
▁ኪስ	-5838
▁ካስ	-5839
▁ካን	-5840
▁ኮን	-5841
▁ዘላ	-5842
▁የሞ	-5843
▁የቁ	-5844
▁የቃ	-5845
▁የቻ	-5846
▁የክ	-5847
▁የዕ	-5848
▁ዩና	-5849
▁ያረ	-5850
▁ያበ	-5851
▁ያች	-5852
▁ይል	-5853
▁ይሸ	-5854
▁ይቃ	-5855
▁ይጋ	-5856
▁ዳግ	-5857
▁ድኅ	-5858
▁ገቢ	-5859
▁ጉዬ	-5860
▁ጎሳ	-5861
▁ጎድ	-5862
▁ጠላ	-5863
▁ጤና	-5864
▁ጥቅ	-5865
▁ጨር	-5866
▁ጫፍ	-5867
▁ጮኬ	-5868
▁ጮክ	-5869
▁ጸረ	-5870
▁ፈጠ	-5871
▁ፊቴ	-5872
▁ፍት	-5873
ሁን፡፡	-5874
ሄዳችን	-5875
ሄድበት	-5876
ላቸውም	-5877
ሎቻቸው	-5878
መጡልን	-5879
መጨረሻ	-5880
ማርያም	-5881
ማቸውም	-5882
ማውያኑ	-5883
ሠራቸው	-5884
ሥራትና	-5885
ረጋገጫ	-5886
ሪያችን	-5887
ራሁ፡፡	-5888
ሮችንና	-5889
ሰብኩት	-5890
ሰብዓዊ	-5891
ሳጥኑን	-5892
ሴምቤባ	-5893
ቀን፡፡	-5894
ቀው፡፡	-5895
ቁጠሪያ	-5896
ቃሉ፡፡	-5897
ቋቋመው	-5898
ቋንቋው	-5899
በረታታ	-5900
በረከተ	-5901
ባቸውና	-5902
ብኛል፤	-5903
ቧል፡፡	-5904
ተንፈስ	-5905
ታዊነት	-5906
ቸውንና	-5907
ችልበት	-5908
ችበትን	-5909
ኅበራዊ	-5910
ነበረድ	-5911
ናገሩት	-5912
ኛውንም	-5913
አምላክ	-5914
አባባ፣	-5915
አባትሽ	-5916
ኤሌክት	-5917
እንኳን	-5918
እውነት	-5919
ከተለው	-5920
ከተማው	-5921
ከታታይ	-5922
ከፍቱት	-5923
ካሄዱት	-5924
ኳቸውን	-5925
ወርደው	-5926
ወስደኝ	-5927
ወደውን	-5928
ዋለሁ፤	-5929
ዋክብት	-5930
ውቅበት	-5931
ውንጀላ	-5932
ውጣቸው	-5933
ዎችንና	-5934
ዘላለም	-5935
ዛግብት	-5936
ያል፡፡	-5937
ያችንን	-5938
ይማኖት	-5939
ዶቻችን	-5940
ገነዘብ	-5941
ገናኘት	-5942
ገኛቸው	-5943
ገኟችሁ	-5944
ገደሉት	-5945
ገደልኩ	-5946
ገዳደር	-5947
ጉት፡፡	-5948
ጊያለሽ	-5949
ጊያውን	-5950
ግድያው	-5951
ጎብኘት	-5952
ጠቀሱት	-5953
ጨፈጨፉ	-5954
ጸባርቅ	-5955
ጽንኦት	-5956
ፈልገኝ	-5957
ፈራረሱ	-5958
ፈራረስ	-5959
ፈራችን	-5960
ፈጸምም	-5961
ፋሉ፡፡	-5962
ፐብሊክ	-5963
▁-››	-5964
▁200	-5965
▁ሁቱ፣	-5966
▁ሄደን	-5967
▁ሆነን	-5968
▁ለሁቱ	-5969
▁ለመው	-5970
▁ለማው	-5971
▁ለማይ	-5972
▁ለማጥ	-5973
▁ለአባ	-5974
▁ለውጥ	-5975
▁ለጸሎ	-5976
▁ሊሄዱ	-5977
▁ሊመጡ	-5978
▁ላለመ	-5979
▁ላምን	-5980
▁ሌላው	-5981
▁ልርዳ	-5982
▁ልቤና	-5983
▁መለሱ	-5984
▁መለያ	-5985
▁መሬቱ	-5986
▁መርፌ	-5987
▁መሰና	-5988
▁መስመ	-5989
▁መስጠ	-5990
▁መንጋ	-5991
▁መከራ	-5992
▁መያዝ	-5993
▁መዳን	-5994
▁መግባ	-5995
▁መጠበ	-5996
▁መጮህ	-5997
▁መፈለ	-5998
▁ሙቀት	-5999
▁ማስተ	-6000
▁ማነው	-6001
▁ማዳን	-6002
▁ምልክ	-6003
▁ምሳሌ	-6004
▁ምናለ	-6005
▁ረብሻ	-6006
▁ረፍት	-6007
▁ራእይ	-6008
▁ርኩስ	-6009
▁ሰሌዳ	-6010
▁ሰምቼ	-6011
▁ሲቀሩ	-6012
▁ሲወጡ	-6013
▁ሲገባ	-6014
▁ሲጠራ	-6015
▁ስለደ	-6016
▁ስላለ	-6017
▁ስላላ	-6018
▁ስሞች	-6019
▁ሺዎች	-6020
▁ቀለል	-6021
▁ቀርቶ	-6022
▁ቀዳሜ	-6023
▁ቀድሞ	-6024
▁ቀጠሉ	-6025
▁ቀጣይ	-6026
▁ቄሱ፣	-6027
▁ቅድመ	-6028
▁ቅጠል	-6029
▁ቆመን	-6030
▁ቆራር	-6031
▁በሃሳ	-6032
▁በሕግ	-6033
▁በመፈ	-6034
▁በምና	-6035
▁በሥራ	-6036
▁በሸፈ	-6037
▁በብሔ	-6038
▁በተረ	-6039
▁በትን	-6040
▁በአም	-6041
▁በአው	-6042
▁በአዳ	-6043
▁በእጄ	-6044
▁በውድ	-6045
▁በየተ	-6046
▁በግፍ	-6047
▁በጥሩ	-6048
▁በጫካ	-6049
▁በፊቴ	-6050
▁ባለመ	-6051
▁ባለቤ	-6052
▁ባለች	-6053
▁ባለኝ	-6054
▁ባሉት	-6055
▁ቤትና	-6056
▁ብለህ	-6057
▁ብለሽ	-6058
▁ብሩህ	-6059
▁ተለይ	-6060
▁ተማር	-6061
▁ተሰና	-6062
▁ተቀር	-6063
▁ተቆጣ	-6064
▁ተቆጥ	-6065
▁ተተር	-6066
▁ተነሣ	-6067
▁ተንፍ	-6068
▁ተኝቼ	-6069
▁ተከት	-6070
▁ተዘር	-6071
▁ተዘግ	-6072
▁ተገን	-6073
▁ተጠቅ	-6074
▁ታስቦ	-6075
▁ታዋቂ	-6076
▁ታይም	-6077
▁ታገኛ	-6078
▁ትኩስ	-6079
▁ትዝብ	-6080
▁ትዝታ	-6081
▁ትጠብ	-6082
▁ችሮታ	-6083
▁ነቅን	-6084
▁ነዎት	-6085
▁ነገሬ	-6086
▁ነገሯ	-6087
▁ናታሻ	-6088
▁ንጉሥ	-6089
▁ኖሯል	-6090
▁አለቀ	-6091
▁አሊሹ	-6092
▁አመፅ	-6093
▁አረዳ	-6094
▁አሳስ	-6095
▁አሳዛ	-6096
▁አሳየ	-6097
▁አስወ	-6098
▁አሸን	-6099
▁አባል	-6100
▁አባሺ	-6101
▁አብቅ	-6102
▁አትር	-6103
▁አነሳ	-6104
▁አነባ	-6105
▁አናግ	-6106
▁አንገ	-6107
▁አኳኋ	-6108
▁አወራ	-6109
▁አዝና	-6110
▁አገኙ	-6111
▁አገኛ	-6112
▁አጋር	-6113
▁አፈጠ	-6114
▁አፋፍ	-6115
▁እሄዳ	-6116
▁እመት	-6117
▁እርግ	-6118
▁እብድ	-6119
▁እናያ	-6120
▁እየጨ	-6121
▁እያን	-6122
▁እያወ	-6123
▁እያየ	-6124
▁እገባ	-6125
▁እፈራ	-6126
▁ከሆኑ	-6127
▁ከማን	-6128
▁ከምን	-6129
▁ከበደ	-6130
▁ከባለ	-6131
▁ከብዙ	-6132
▁ከአን	-6133
▁ከአዳ	-6134
▁ከኪቩ	-6135
▁ከዋና	-6136
▁ከዓይ	-6137
▁ኪቡዬ	-6138
▁ካሁን	-6139
▁ክፉኛ	-6140
▁ክፍት	-6141
▁ኮስታ	-6142
▁ኮንጎ	-6143
▁ወረደ	-6144
▁ወደር	-6145
▁ወጣቱ	-6146
▁ወጥታ	-6147
▁ውርጅ	-6148
▁ዘልዬ	-6149
▁ዘመዶ	-6150
▁ዘርግ	-6151
▁የለየ	-6152
▁የልጅ	-6153
▁የመስ	-6154
▁የመጡ	-6155
▁የማስ	-6156
▁የሥነ	-6157
▁የሳራ	-6158
▁የቡና	-6159
▁የብዙ	-6160
▁የታየ	-6161
▁የታደ	-6162
▁የናዚ	-6163
▁የኛን	-6164
▁የእር	-6165
▁የኪቩ	-6166
▁የጦር	-6167
▁ያለች	-6168
▁ያላት	-6169
▁ያምና	-6170
▁ያስደ	-6171
▁ያወጣ	-6172
▁ያውቅ	-6173
▁ይሆኑ	-6174
▁ይልቁ	-6175
▁ይባስ	-6176
▁ይታዩ	-6177
▁ይከተ	-6178
▁ይዘዋ	-6179
▁ይደር	-6180
▁ደስተ	-6181
▁ደብረ	-6182
▁ደብቆ	-6183
▁ዶላር	-6184
▁ጀልባ	-6185
▁ገባኝ	-6186
▁ገፋፋ	-6187
▁ጊዜዬ	-6188
▁ግቢው	-6189
▁ግንቡ	-6190
▁ጓደኝ	-6191
▁ጠላት	-6192
▁ጠባሳ	-6193
▁ጥቅም	-6194
▁ጥበቃ	-6195
▁ጨመር	-6196
▁ጨፈን	-6197
▁ጭራሽ	-6198
▁ፊቱን	-6199
▁ፍጡር	-6200
ሁላችንም	-6201
ላችሁንም	-6202
መናል፡፡	-6203
ሥልጣናት	-6204
ቃለች፡፡	-6205
በእርግጥ	-6206
ብናል፡፡	-6207
ችሉም፡፡	-6208
ችልኝ፡፡	-6209
ነበረበት	-6210
ንቀጠቀጥ	-6211
ኖርም፡፡	-6212
አመሰግና	-6213
አይዟችሁ	-6214
እነዚህን	-6215
እንዲያው	-6216
ኦገስቲን	-6217
ኩበት፡፡	-6218
ኩባቸውን	-6219
ወለድኩት	-6220
ይማብል፣	-6221
ጠቀሙበት	-6222
ጠብቃቸው	-6223
ጠዋል፡፡	-6224
ጠይቃቸው	-6225
ጫለሁ፡፡	-6226
ፋለሁ፡፡	-6227
▁1994	-6228
▁ሀገሪቱ	-6229
▁ሁለመና	-6230
▁ሁለቱን	-6231
▁ሄደዋል	-6232
▁ለሌሎቹ	-6233
▁ለመኖር	-6234
▁ለመዋጥ	-6235
▁ለጊዜው	-6236
▁ለፈተና	-6237
▁ሊጠቀሙ	-6238
▁ሌሎችም	-6239
▁ልሂቃን	-6240
▁ልንሄድ	-6241
▁ልዩነት	-6242
▁ሎሬንት	-6243
▁መምጣት	-6244
▁መራመድ	-6245
▁መቀመጫ	-6246
▁መትረፌ	-6247
▁መኖሩን	-6248
▁መክፈቻ	-6249
▁መውረድ	-6250
▁መውደድ	-6251
▁መዝገበ	-6252
▁መድረስ	-6253
▁መግዛት	-6254
▁መጠየቅ	-6255
▁መጤዎች	-6256
▁መጥፋት	-6257
▁መፍትሔ	-6258
▁ማሪያኔ	-6259
▁ማቅረብ	-6260
▁ማበረታ	-6261
▁ማዕበል	-6262
▁ማጓጓዣ	-6263
▁ምህረት	-6264
▁ምሽትም	-6265
▁ምግቡን	-6266
▁ሥራዋን	-6267
▁ሥራውን	-6268
▁ረጃጅም	-6269
▁ረጅም፣	-6270
▁ራሴንም	-6271
▁ርኩሰት	-6272
▁ሰውዬው	-6273
▁ሲያልቅ	-6274
▁ሲያናግ	-6275
▁ሲያወራ	-6276
▁ሲፈልጉ	-6277
▁ሳላሰማ	-6278
▁ሳይመን	-6279
▁ሳይንስ	-6280
▁ሴቶችና	-6281
▁ስለምታ	-6282
▁ስለዚያ	-6283
▁ስለፈራ	-6284
▁ስላለህ	-6285
▁ስላደረ	-6286
▁ስሜትን	-6287
▁ስሞክር	-6288
▁ስብስብ	-6289
▁ስብዕና	-6290
▁ስትጽፍ	-6291
▁ስፍራዬ	-6292
▁ሺህዎች	-6293
▁ሽርሽር	-6294
▁ቁጥጥር	-6295
▁ቃላትን	-6296
▁ቄሱ፡፡	-6297
▁ቆንጆና	-6298
▁ቆዳዬን	-6299
▁በሁለት	-6300
▁በመሄድ	-6301
▁በመንፈ	-6302
▁በመጠኑ	-6303
▁በማታባ	-6304
▁በማየቴ	-6305
▁በሦስት	-6306
▁በሰሜን	-6307
▁በሰዎች	-6308
▁በስልክ	-6309
▁በቀስታ	-6310
▁በበኩሉ	-6311
▁በቡድን	-6312
▁በተስፋ	-6313
▁በተቃራ	-6314
▁በተግባ	-6315
▁በንዴት	-6316
▁በአስቸ	-6317
▁በአንዴ	-6318
▁በአዲሱ	-6319
▁በእጆቼ	-6320
▁በእጆቿ	-6321
▁በኪጋሊ	-6322
▁በክፍሉ	-6323
▁በዓይኔ	-6324
▁በዘውግ	-6325
▁በዝግታ	-6326
▁በየቤቱ	-6327
▁በደረሰ	-6328
▁በጥያቄ	-6329
▁በጸሎት	-6330
▁በፊትና	-6331
▁ቢኖረው	-6332
▁ባለቤት	-6333
▁ባሉበት	-6334
▁ባልንጀ	-6335
▁ባልደረ	-6336
▁ባውቅም	-6337
▁ባይሆን	-6338
▁ባይነት	-6339
▁ብስጭት	-6340
▁ብቸኞቹ	-6341
▁ብቻሽን	-6342
▁ቪያኒ፣	-6343
▁ተለያይ	-6344
▁ተመልሰ	-6345
▁ተመልሶ	-6346
▁ተሞልቶ	-6347
▁ተራሮች	-6348
▁ተናጋሪ	-6349
▁ተደስቼ	-6350
▁ተደብቄ	-6351
▁ቱትሲና	-6352
▁ታሪኩም	-6353
▁ታሪኳን	-6354
▁ትናንት	-6355
▁ነሽ፡፡	-6356
▁ነበረች	-6357
▁ነበረው	-6358
▁ነበርን	-6359
▁አለመቻ	-6360
▁አለብኝ	-6361
▁አለያም	-6362
▁አላቆም	-6363
▁አላገኘ	-6364
▁አልሰማ	-6365
▁አማርኛ	-6366
▁አማካሪ	-6367
▁አረመኔ	-6368
▁አርዓያ	-6369
▁አሳልፎ	-6370
▁አስበው	-6371
▁አስገቡ	-6372
▁አቃሰት	-6373
▁አቅርቦ	-6374
▁አበቦች	-6375
▁አባባ፣	-6376
▁አብያተ	-6377
▁አትኩሮ	-6378
▁አንስቼ	-6379
▁አንብቤ	-6380
▁አንጠል	-6381
▁አካላዊ	-6382
▁አውዳሚ	-6383
▁አዛውን	-6384
▁አየሁት	-6385
▁አያዳግ	-6386
▁አይሁን	-6387
▁አይደሉ	-6388
▁አዲሱን	-6389
▁አድራሻ	-6390
▁አገላለ	-6391
▁አፍንጫ	-6392
▁እረፍት	-6393
▁እርዳታ	-6394
▁እቃዎች	-6395
▁እናትሽ	-6396
▁እኔንም	-6397
▁እንሰማ	-6398
▁እንባዬ	-6399
▁እንደመ	-6400
▁እንዲጎ	-6401
▁እንዲፈ	-6402
▁እንዳሳ	-6403
▁እንዳተ	-6404
▁እየመጣ	-6405
▁እየሠራ	-6406
▁እየኖሩ	-6407
▁እየገፋ	-6408
▁እያለች	-6409
▁እያልን	-6410
▁እግሮች	-6411
▁እጥረት	-6412
▁ከሁሉም	-6413
▁ከሄድኩ	-6414
▁ከሌላው	-6415
▁ከቱትሲ	-6416
▁ከነዚያ	-6417
▁ከአውሬ	-6418
▁ከዓለም	-6419
▁ከገዳዮ	-6420
▁ካነበብ	-6421
▁ካወቅሁ	-6422
▁ክህደት	-6423
▁ወላጆች	-6424
▁ወስደው	-6425
▁ወታደሩ	-6426
▁ወንዶቹ	-6427
▁ወደዚህ	-6428
▁ወጥመድ	-6429
▁ዓይነቱ	-6430
▁ዕምነት	-6431
▁የሕዝብ	-6432
▁የሚሄድ	-6433
▁የሚሰማ	-6434
▁የሚቀይ	-6435
▁የሚኖሩ	-6436
▁የሚወድ	-6437
▁የሚጠሉ	-6438
▁የማለዳ	-6439
▁የማምለ	-6440
▁የምሽት	-6441
▁የሠለጠ	-6442
▁የሰውን	-6443
▁የቀድሞ	-6444
▁የቆረጡ	-6445
▁የተላከ	-6446
▁የተማረ	-6447
▁የተገኘ	-6448
▁የታጠቁ	-6449
▁የትርጉ	-6450
▁የነበር	-6451
▁የወላጆ	-6452
▁የወረደ	-6453
▁የደስታ	-6454
▁የገዳዮ	-6455
▁የጸሎት	-6456
▁የጻፈች	-6457
▁ያሳለፍ	-6458
▁ያስባሉ	-6459
▁ያስከት	-6460
▁ያውቃሉ	-6461
▁ያውቃል	-6462
▁ያደረግ	-6463
▁ይህንኑ	-6464
▁ይመስገ	-6465
▁ይቻላል	-6466
▁ይፈልጋ	-6467
▁ደራሲና	-6468
▁ደብተር	-6469
▁ድምጹን	-6470
▁ድረስም	-6471
▁ድርጊት	-6472
▁ጀመርኩ	-6473
▁ጉልበት	-6474
▁ጋዜጠኛ	-6475
▁ጌታዬ፣	-6476
▁ግዴታዬ	-6477
▁ጓደኞች	-6478
▁ጥላቻን	-6479
▁ጨለማው	-6480
▁ጮኸ፡፡	-6481
▁ፈርተው	-6482
▁ፊታቸው	-6483
▁ፍቅርና	-6484
▁ፍጅትና	-6485
▁ፍጥነት	-6486
ላቸውም፡፡	-6487
ሰማኝም፡፡	-6488
ቻለኝም፡፡	-6489
ችኋለን፡፡	-6490
ጨፍጫፊዎቹ	-6491
ፈልግም፡፡	-6492
ፈቅድም፡፡	-6493
▁ሀገራቸው	-6494
▁ሁለቱንም	-6495
▁ሄደች፡፡	-6496
▁ለመቆየት	-6497
▁ለመቋቋም	-6498
▁ለመነሳት	-6499
▁ለመጽሐፉ	-6500
▁ለማሳተም	-6501
▁ለማሳየት	-6502
▁ለማቅረብ	-6503
▁ለማትረፍ	-6504
▁ለተወሰነ	-6505
▁ለተወሰኑ	-6506
▁ለዘላለም	-6507
▁ሌሎቻችን	-6508
▁ልብሶቼን	-6509
▁ሕይወቱን	-6510
▁መምህርት	-6511
▁መዛግብት	-6512
▁መጠለያው	-6513
▁መጽሐፉን	-6514
▁ማረጋገጫ	-6515
▁ማረፊያው	-6516
▁ማስተርስ	-6517
▁ማስታወስ	-6518
▁ሞከረ፡፡	-6519
▁ሩዋንዳው	-6520
▁ሪፐብሊክ	-6521
▁ሰዓታትን	-6522
▁ሲከፍቱት	-6523
▁ስለሆንን	-6524
▁ስለሆንኩ	-6525
▁ስንደርስ	-6526
▁በመስኮት	-6527
▁በመካከለ	-6528
▁በመደበቅ	-6529
▁በመግለጽ	-6530
▁በመጽሐፍ	-6531
▁በማንበብ	-6532
▁በማግስቱ	-6533
▁በማጥናት	-6534
▁በምልክት	-6535
▁በምዕራብ	-6536
▁በቀጣዮቹ	-6537
▁በተወሰኑ	-6538
▁በአዎንታ	-6539
▁በኢትዮጵ	-6540
▁በወንድሜ	-6541
▁በዩጋንዳ	-6542
▁በደግነት	-6543
▁በጀርባዬ	-6544
▁በገዳዮች	-6545
▁በጥርጣሬ	-6546
▁በፈረንሳ	-6547
▁በፊታቸው	-6548
▁በፍቅርና	-6549
▁ቤታቸውን	-6550
▁ብቸኝነት	-6551
▁ተሰማኝ፤	-6552
▁ተሰምቶኝ	-6553
▁ታደርጓታ	-6554
▁ትርፍራፊ	-6555
▁ትክክለኛ	-6556
▁ነበረብኝ	-6557
▁ንብረቶች	-6558
▁አለባችሁ	-6559
▁አለው፡፡	-6560
▁አላወቅሁ	-6561
▁አላውቅም	-6562
▁አልቻለም	-6563
▁አልነበር	-6564
▁አረንጓዴ	-6565
▁አረጋገጥ	-6566
▁አሳልፈው	-6567
▁አስደነገ	-6568
▁አባቴ፡፡	-6569
▁አባትሽን	-6570
▁አብረውኝ	-6571
▁አንደሆነ	-6572
▁አንዳችን	-6573
▁አየኝ፡፡	-6574
▁አደረግሁ	-6575
▁አድርገን	-6576
▁አግኝቼው	-6577
▁እልቂቶች	-6578
▁እማማንና	-6579
▁እባላለሁ	-6580
▁እቤታችን	-6581
▁እናታችን	-6582
▁እናድርግ	-6583
▁እንባዋን	-6584
▁እንኳንም	-6585
▁እንደማት	-6586
▁እንደምና	-6587
▁እንደሰማ	-6588
▁እንደተጣ	-6589
▁እንደወጣ	-6590
▁እንደያዙ	-6591
▁እንደፈራ	-6592
▁እንዲሁም	-6593
▁እንዳለኝ	-6594
▁እንዳሉት	-6595
▁እንዳልተ	-6596
▁እንድሄድ	-6597
▁እንገናኛ	-6598
▁እውነቱን	-6599
▁እየሄድን	-6600
▁እየተጣራ	-6601
▁እያደረጉ	-6602
▁ከመቼውም	-6603
▁ከተፈጸሙ	-6604
▁ከአምላኬ	-6605
▁ከዓመታት	-6606
▁ከዳማሲን	-6607
▁ከጓደኞቼ	-6608
▁ኪሎግራም	-6609
▁ካለንበት	-6610
▁ክዋክብት	-6611
▁ክፍላችን	-6612
▁ወላጆቼና	-6613
▁ወላጆቼን	-6614
▁ወላጆችሽ	-6615
▁ወንድሙን	-6616
▁ወንድምሽ	-6617
▁ወደቀ፡፡	-6618
▁የሀገሪቱ	-6619
▁የልጅነት	-6620
▁የመንግሥ	-6621
▁የመገናኛ	-6622
▁የሚሆነን	-6623
▁የሚችለው	-6624
▁የሚናገሩ	-6625
▁የሚኖረው	-6626
▁የማይሞላ	-6627
▁የማይታዩ	-6628
▁የሰማነው	-6629
▁የሰጠኝን	-6630
▁የቤተሰቡ	-6631
▁የተባለው	-6632
▁የተዘጋጀ	-6633
▁የተደበቀ	-6634
▁የነበረኝ	-6635
▁የነጻነት	-6636
▁የአንድን	-6637
▁የእምነት	-6638
▁የገዳዮቹ	-6639
▁የገዳዮች	-6640
▁የጎረቤቶ	-6641
▁የፍቅርና	-6642
▁ያየሁትን	-6643
▁ይሁዲዎች	-6644
▁ይላሉ፡፡	-6645
▁ይላል፡፡	-6646
▁ይችላሉ፤	-6647
▁ይናገራሉ	-6648
▁ዮሃንስና	-6649
▁ዮሃንስን	-6650
▁ደረሰ፡፡	-6651
▁ድርጊቶች	-6652
▁ጓደኛዬን	-6653
▁ጣቢያዎች	-6654
▁ጥያቄዎች	-6655
▁ጭምር፡፡	-6656
▁ጽንፈኞች	-6657
▁ፊታቸውን	-6658
▁ፍርሥራሽ	-6659
አመሰግናለሁ	-6660
▁ሆነብን፡፡	-6661
▁ለልጆቻቸው	-6662
▁ለማንኛውም	-6663
▁ለአክስቶቼ	-6664
▁ለኢማኪዩሌ	-6665
▁ሕይወታቸው	-6666
▁መለስኩ፡፡	-6667
▁ማንኛውንም	-6668
▁ሰጠችኝ፡፡	-6669
▁ቀጥሏል፡፡	-6670
▁በመንግሥት	-6671
▁በረሮዎችን	-6672
▁በሩዋንዳው	-6673
▁በስተጀርባ	-6674
▁በአካባቢው	-6675
▁በአክብሮት	-6676
▁በኢማኪዩሌ	-6677
▁በእርሳቸው	-6678
▁በእርግጥም	-6679
▁በዙሪያችን	-6680
▁በየስፍራው	-6681
▁በፍርሃትና	-6682
▁ባለፈችበት	-6683
▁ተመለሱ፡፡	-6684
▁ተናገሩ፡፡	-6685
▁ተያየን፡፡	-6686
▁ትክክለኛው	-6687
▁አለብሽ፡፡	-6688
▁አልጠራጠር	-6689
▁አልፈልግም	-6690
▁አሳየኝ፡፡	-6691
▁አብሬያቸው	-6692
▁አንደኛውን	-6693
▁አእምሮዬን	-6694
▁እስከዚያን	-6695
▁እንደማይሰ	-6696
▁እንደነበረ	-6697
▁እንዲያድግ	-6698
▁እንዲጠብቅ	-6699
▁እንዳላቸው	-6700
▁እየጠበቅን	-6701
▁እያንዳንዱ	-6702
▁ከአማጽያኑ	-6703
▁ክፍለሀገር	-6704
▁ክፍለዘመን	-6705
▁የለንም፡፡	-6706
▁የሚወስደው	-6707
▁የሚፈጸሙት	-6708
▁የማይታሰብ	-6709
▁የራሳቸውን	-6710
▁የስደተኞች	-6711
▁የተገደለች	-6712
▁የተጨፈጨፉ	-6713
▁የነበረችው	-6714
▁የአምላክን	-6715
▁የወንድሜን	-6716
▁የገደሉትን	-6717
▁የጥላቻንም	-6718
▁የጥላቻውን	-6719
▁የጭፍጨፋው	-6720
▁ያምናሉ፡፡	-6721
▁ይመስልሻል	-6722
▁ይሻላል፡፡	-6723
▁ይገባችኋል	-6724
▁ደረስን፡፡	-6725
▁ጠየቁኝ፡፡	-6726
▁ጠየኩት፡፡	-6727
▁ጥንካሬውን	-6728
▁ጭፍጨፋዎች	-6729
nization	-6730
▁ሕይወታችንን	-6731
▁ምክንያትነት	-6732
▁በቤተሰባችን	-6733
▁በቤተክርስቲ	-6734
▁በተንቀሳቃሽ	-6735
▁ባለስልጣናት	-6736
▁ተቀመጥን፡፡	-6737
▁ተጨነቅሁ፡፡	-6738
▁ትችያለሽ፡፡	-6739
▁ኃይለማርያም	-6740
▁ነግሮኛል፡፡	-6741
▁አመሰግናለሁ	-6742
▁አሳለፍን፡፡	-6743
▁አስከባሪዎች	-6744
▁አንችልም፡፡	-6745
▁አያውቅም፡፡	-6746
▁አይኖርም፡፡	-6747
▁አደረገኝ፡፡	-6748
▁አደረግን፡፡	-6749
▁አገኘሁት፡፡	-6750
▁እንደሚወደን	-6751
▁እንደማይችል	-6752
▁እንደምንችል	-6753
▁እንደተከሰተ	-6754
▁እንደነገረኝ	-6755
▁እንዳይፈጸም	-6756
▁እፈራለሁ፡፡	-6757
▁ከደረስንበት	-6758
▁ወላጆቻቸውን	-6759
▁የመጀመሪያዋ	-6760
▁የሚያረጋግጥ	-6761
▁የሚያንጸባር	-6762
▁የማስታውሰው	-6763
▁የማደርገውን	-6764
▁የተሞላባቸው	-6765
▁የተወለድኩት	-6766
▁የተወሰኑትን	-6767
▁ያደርጋል፡፡	-6768
▁ይናገራሉ፡፡	-6769
▁ጠየቀችኝ፡፡	-6770
▁ስላልነበራቸው	-6771
▁ተሰምቶኛል፡፡	-6772
▁አልፈለገም፡፡	-6773
▁አልፈልግም፡፡	-6774
▁አታድርገኝ፡፡	-6775
▁አግኝተዋል፡፡	-6776
▁ኢትዮጵያውያን	-6777
▁እንችላለን፡፡	-6778
▁የሚያሳድዱኝን	-6779
▁ያደርገናል፡፡	-6780
▁ይመጣብኛል፡፡	-6781
▁ተደናግጠዋል፡፡	-6782
▁አልተሰማኝም፡፡	-6783
▁አልተቻለኝም፡፡	-6784
▁አልነበረኝም፡፡	-6785
▁አልነበርኩም፡፡	-6786
▁አልፈለግሁም፡፡	-6787
▁አሳልፌያለሁ፡፡	-6788
▁እወዳችኋለሁ፡፡	-6789
▁የኢንተርሃምዌን	-6790
▁አመሰግነዋለሁ፡፡	-6791
▁ኢንተርሃምዌዎችን	-6792
.............	-6793
...............	-6794
!›	-6795
13	-6796
15	-6797
18	-6798
er	-6799
ia	-6800
ll	-6801
re	-6802
rg	-6803
ሃል	-6804
ሃት	-6805
ሃዊ	-6806
ህጉ	-6807
ለሙ	-6808
ለቡ	-6809
ሊቱ	-6810
ሊና	-6811
ሌም	-6812
ሌቪ	-6813
ልጥ	-6814
ሎስ	-6815
መኔ	-6816
መጪ	-6817
ሙያ	-6818
ሚር	-6819
ማሚ	-6820
ማቴ	-6821
ማይ	-6822
ማጅ	-6823
ሜል	-6824
ሜም	-6825
ምሌ	-6826
ምኑ	-6827
ምድ	-6828
ምዶ	-6829
ሞና	-6830
ሣር	-6831
ረሱ	-6832
ረቅ	-6833
ረጠ	-6834
ራሉ	-6835
ራሩ	-6836
ራሴ	-6837
ሬሴ	-6838
ርን	-6839
ርያ	-6840
ርዱ	-6841
ሯት	-6842
ሰች	-6843
ሰድ	-6844
ሱም	-6845
ሱ፣	-6846
ሳሽ	-6847
ሳቁ	-6848
ስጢ	-6849
ስ፣	-6850
ሶራ	-6851
ሷል	-6852
ሸገ	-6853
ሺ፣	-6854
ሻው	-6855
ሽጌ	-6856
ቀሉ	-6857
ቀቅ	-6858
ቀበ	-6859
ቁ፤	-6860
ቂታ	-6861
ቃጥ	-6862
ቄላ	-6863
ቄን	-6864
ቅዬ	-6865
ቆስ	-6866
ቋሚ	-6867
ቋጦ	-6868
በአ	-6869
በዙ	-6870
ባን	-6871
ብም	-6872
ብሱ	-6873
ብዬ	-6874
ብ፣	-6875
ተብ	-6876
ተኸ	-6877
ታማ	-6878
ትቼ	-6879
ቶሊ	-6880
ቶት	-6881
ቷም	-6882
ቼና	-6883
ቼ፣	-6884
ችሏ	-6885
ችኮ	-6886
ኃኒ	-6887
ነሡ	-6888
ነቁ	-6889
ነኸ	-6890
ነዝ	-6891
ነፋ	-6892
ኒኬ	-6893
ኒዳ	-6894
ንቁ	-6895
ንቄ	-6896
ንጭ	-6897
ኘው	-6898
ኛን	-6899
ኝት	-6900
አስ	-6901
አክ	-6902
ከስ	-6903
ኩህ	-6904
ኩስ	-6905
ኮል	-6906
ኮረ	-6907
ኮስ	-6908
ኮተ	-6909
ኰን	-6910
ኳት	-6911
ወል	-6912
ወሱ	-6913
ወቃ	-6914
ወያ	-6915
ዊቷ	-6916
ዋም	-6917
ውጪ	-6918
ዎና	-6919
ዘቡ	-6920
ዘዘ	-6921
ዙኝ	-6922
ዣብ	-6923
ዣኒ	-6924
የመ	-6925
የሚ	-6926
የም	-6927
ያቂ	-6928
ይስ	-6929
ይሻ	-6930
ይድ	-6931
ደሬ	-6932
ደና	-6933
ደያ	-6934
ደጉ	-6935
ዳጅ	-6936
ዴን	-6937
ድራ	-6938
ድና	-6939
ድኗ	-6940
ጄ፣	-6941
ጅቱ	-6942
ገተ	-6943
ገኚ	-6944
ጉና	-6945
ጋቷ	-6946
ጋች	-6947
ጋዊ	-6948
ጋገ	-6949
ግረ	-6950
ጎመ	-6951
ጓጉ	-6952
ጠች	-6953
ጠዋ	-6954
ጡ፤	-6955
ጣይ	-6956
ጥሉ	-6957
ጥሎ	-6958
ጥሬ	-6959
ጥቆ	-6960
ጥጥ	-6961
ጥፍ	-6962
ጧት	-6963
ጨቃ	-6964
ጨበ	-6965
ጭም	-6966
ጭኝ	-6967
ጭጭ	-6968
ጭፉ	-6969
ጮሁ	-6970
ጯጯ	-6971
ጸን	-6972
ጽድ	-6973
ፈረ	-6974
ፈሬ	-6975
ፈሱ	-6976
ፈቱ	-6977
ፈጡ	-6978
ፋሉ	-6979
ፋና	-6980
ፋኝ	-6981
ፋው	-6982
ፌን	-6983
ፍረ	-6984
ፍሬ	-6985
‹‹	-6986
▁ዉ	-6987
▁ጂ	-6988
▁ጃ	-6989
▁ጤ	-6990
▁፩	-6991
196	-6992
ሀገሩ	-6993
ሀገሬ	-6994
ሁኔታ	-6995
ሃል፣	-6996
ሄዱን	-6997
ሄድም	-6998
ሆንን	-6999
399	-7000
ህጉሩ	-7001
ለህ፣	-7002
ለምኑ	-7003
ለምና	-7004
ለሰብ	-7005
ለቀኝ	-7006
ለዋወ	-7007
ለውት	-7008
ለፈው	-7009
ላለግ	-7010
ላላቅ	-7011
ላላቆ	-7012
ልልስ	-7013
ልነት	-7014
ልን፤	-7015
ልኛል	-7016
ልዶች	-7017
ልጆቼ	-7018
ሎቹን	-7019
ሕዝብ	-7020
ሕፈት	-7021
መልስ	-7022
መርጥ	-7023
መሰግ	-7024
መኑና	-7025
መንና	-7026
መኖር	-7027
መ፡፡	-7028
ሚዙን	-7029
ማመጣ	-7030
ምረው	-7031
ምነቱ	-7032
ምንና	-7033
ምን፣	-7034
ምጣቱ	-7035
ሞላው	-7036
ሠራር	-7037
ሠራው	-7038
ሠራጭ	-7039
ረቱን	-7040
ረዱት	-7041
ረዳን	-7042
ረድና	-7043
ሩህና	-7044
ሬንስ	-7045
ሬንች	-7046
ሬንጄ	-7047
ርሃዊ	-7048
ርሳት	-7049
ርተው	-7050
ርኒሱ	-7051
ርግድ	-7052
ርጓሚ	-7053
ሰሙኝ	-7054
ሰቃይ	-7055
ሰብን	-7056
ሰችው	-7057
ሳሰቡ	-7058
ሳትኩ	-7059
ስላሳ	-7060
ስተም	-7061
ስትና	-7062
ስገባ	-7063
ስጢር	-7064
ሸማቅ	-7065
ሹ፡፡	-7066
ሻለን	-7067
ሻሻል	-7068
ቀለው	-7069
ቀልድ	-7070
ቀምር	-7071
ቀርብ	-7072
ቀሰቅ	-7073
ቀስኩ	-7074
ቀነስ	-7075
ቀውም	-7076
ቀጠቀ	-7077
ቀጥሉ	-7078
ቀጥል	-7079
ቃሽና	-7080
ቃቀር	-7081
ቃጠለ	-7082
ቃጠሉ	-7083
ቅተን	-7084
ቅዱስ	-7085
ቅፈኝ	-7086
ቆለፉ	-7087
ቆመኝ	-7088
ቆሙት	-7089
ቆቹን	-7090
ቆጥራ	-7091
ቆጥቁ	-7092
በላሸ	-7093
በላሽ	-7094
በላን	-7095
በልጣ	-7096
በረሮ	-7097
በሰብ	-7098
በሶች	-7099
በኋላ	-7100
በዚህ	-7101
ቡሆሮ	-7102
ቢሎስ	-7103
ቢቢሲ	-7104
ባርራ	-7105
ባርኬ	-7106
ባርክ	-7107
ባበሉ	-7108
ባበሩ	-7109
ባታል	-7110
ባትና	-7111
ባትን	-7112
ቤንና	-7113
ብረቱ	-7114
ብራሂ	-7115
ብሮች	-7116
ብሽም	-7117
ብንም	-7118
ብኝም	-7119
ቧንቧ	-7120
ተማመ	-7121
ተሰቃ	-7122
ተን፣	-7123
ተዋት	-7124
ቱንና	-7125
ታለች	-7126
ታሪክ	-7127
ታዎች	-7128
ታደሰ	-7129
ታጠቡ	-7130
ታ፡፡	-7131
ትሮች	-7132
ትንና	-7133
ትን፣	-7134
ቶዎች	-7135
ችኝን	-7136
ችኮላ	-7137
ነሣው	-7138
ነናል	-7139
ነዘሩ	-7140
ነፍስ	-7141
ናል፤	-7142
ናውን	-7143
ናውጥ	-7144
ናዳዊ	-7145
ና፡፡	-7146
ንም፤	-7147
ንከባ	-7148
ንዛዥ	-7149
ንዴና	-7150
ኖሪያ	-7151
ኖርና	-7152
ኛለች	-7153
አንቺ	-7154
ከልና	-7155
ከርካ	-7156
ከባክ	-7157
ከትል	-7158
ከዚህ	-7159
ኩም፤	-7160
ኩሽና	-7161
ካሄድ	-7162
ካባዪ	-7163
ካችሁ	-7164
ኬታማ	-7165
ክልት	-7166
ክልኝ	-7167
ክበር	-7168
ክብሮ	-7169
ክፈው	-7170
ኮሎኔ	-7171
ኮታዊ	-7172
ኰቴት	-7173
ኳት፤	-7174
ወለዱ	-7175
ወላጆ	-7176
ወራው	-7177
ወርዱ	-7178
ወሰን	-7179
ወደው	-7180
ወዳት	-7181
ወጋኝ	-7182
ወጣና	-7183
ዋች፣	-7184
ዋናይ	-7185
ዋ፡፡	-7186
ውለበ	-7187
ውንም	-7188
ዎቼም	-7189
ዘምር	-7190
ዘረጋ	-7191
ዘንና	-7192
ዘግም	-7193
ዙ፡፡	-7194
ዝቃዜ	-7195
ዟቸው	-7196
የለሽ	-7197
የርን	-7198
ያዝን	-7199
ያየኝ	-7200
ይሁን	-7201
ይዘው	-7202
ደረሰ	-7203
ደረደ	-7204
ደራጀ	-7205
ደበቁ	-7206
ደናገ	-7207
ደፍሩ	-7208
ዲካል	-7209
ዳምጥ	-7210
ዳችሁ	-7211
ዳችን	-7212
ዳዊው	-7213
ድተው	-7214
ድኑን	-7215
ድጓዱ	-7216
ጀመሩ	-7217
ገለጠ	-7218
ገለጽ	-7219
ገምም	-7220
ገምት	-7221
ገቡን	-7222
ገቡ፣	-7223
ገነት	-7224
ገነዝ	-7225
ገኙኝ	-7226
ገኝና	-7227
ገኞች	-7228
ገደዳ	-7229
ገግም	-7230
ገጣጠ	-7231
ገፋፉ	-7232
ጋብር	-7233
ጋችን	-7234
ግባቡ	-7235
ግባብ	-7236
ግባት	-7237
ግዛት	-7238
ግጠው	-7239
ጎሶራ	-7240
ጠለቀ	-7241
ጠሙኝ	-7242
ጠረው	-7243
ጠበቁ	-7244
ጠናወ	-7245
ጠይቁ	-7246
ጥለን	-7247
ጥፋቱ	-7248
ጨረስ	-7249
ጨርሱ	-7250
ጨፍጭ	-7251
ጨ፡፡	-7252
ጫወቱ	-7253
ጭዎች	-7254
ጴዛው	-7255
ጸልዪ	-7256
ጽሐፍ	-7257
ጽፈው	-7258
ፈራራ	-7259
ፈራው	-7260
ፈርና	-7261
ፈቅር	-7262
ፈውን	-7263
ፈጠረ	-7264
ፈጽማ	-7265
ፉበት	-7266
ፉትን	-7267
ፊቱን	-7268
ፋለማ	-7269
ፋለም	-7270
ፋትን	-7271
ፍሰስ	-7272
ፍቃሪ	-7273
ፎችን	-7274
ፏቸው	-7275
▁55	-7276
▁60	-7277
▁61	-7278
▁ሁን	-7279
▁ለቃ	-7280
▁ለኤ	-7281
▁ሊሰ	-7282
▁ላል	-7283
▁ልባ	-7284
▁ልኮ	-7285
▁መሐ	-7286
▁መሥ	-7287
▁መቆ	-7288
▁መጪ	-7289
▁ሙሜ	-7290
▁ማመ	-7291
▁ማና	-7292
▁ምኞ	-7293
▁ሣል	-7294
▁ሥነ	-7295
▁ረስ	-7296
▁ሩቅ	-7297
▁ርቄ	-7298
▁ሰነ	-7299
▁ሰዉ	-7300
▁ሰፊ	-7301
▁ሲሲ	-7302
▁ሲስ	-7303
▁ሲቃ	-7304
▁ሲዳ	-7305
▁ሲጋ	-7306
▁ሳስ	-7307
▁ሳጥ	-7308
▁ስሙ	-7309
▁ስሚ	-7310
▁ሶኒ	-7311
▁ቀረ	-7312
▁ቀኔ	-7313
▁ቅስ	-7314
▁ቅኝ	-7315
▁ቆማ	-7316
▁ቆም	-7317
▁በህ	-7318
▁በሦ	-7319
▁በቅ	-7320
▁በኮ	-7321
▁በዋ	-7322
▁በዛ	-7323
▁በዜ	-7324
▁በጣ	-7325
▁ቡና	-7326
▁ባሳ	-7327
▁ባን	-7328
▁ብሔ	-7329
▁ብዕ	-7330
▁ብድ	-7331
▁ተሽ	-7332
▁ተኖ	-7333
▁ተኛ	-7334
▁ተኮ	-7335
▁ተዓ	-7336
▁ተጣ	-7337
▁ተጫ	-7338
▁ተጸ	-7339
▁ተፋ	-7340
▁ታም	-7341
▁ታጅ	-7342
▁ትራ	-7343
▁ትስ	-7344
▁ቻሉ	-7345
▁ችላ	-7346
▁ችሎ	-7347
▁ነቃ	-7348
▁ነቅ	-7349
▁ነጋ	-7350
▁ነፋ	-7351
▁አሞ	-7352
▁አሥ	-7353
▁አቆ	-7354
▁አቤ	-7355
▁አዋ	-7356
▁አዙ	-7357
▁አጭ	-7358
▁እለ	-7359
▁እቆ	-7360
▁እደ	-7361
▁እጇ	-7362
▁እፊ	-7363
▁ኦፍ	-7364
▁ከሸ	-7365
▁ከቀ	-7366
▁ከጨ	-7367
▁ኩር	-7368
▁ካሬ	-7369
▁ካቀ	-7370
▁ካጌ	-7371
▁ክን	-7372
▁ክው	-7373
▁ወገ	-7374
▁ዋጋ	-7375
▁ዐሳ	-7376
▁ዕቃ	-7377
▁ዛፍ	-7378
▁ዜጎ	-7379
▁የሐ	-7380
▁የሩ	-7381
▁የሴ	-7382
▁የቅ	-7383
▁የች	-7384
▁የኅ	-7385
▁የያ	-7386
▁የዳ	-7387
▁የጣ	-7388
▁ያመ	-7389
▁ያቋ	-7390
▁ያዩ	-7391
▁ይመ	-7392
▁ይው	-7393
▁ዱብ	-7394
▁ጀመ	-7395
▁ገዥ	-7396
▁ገጸ	-7397
▁ጉራ	-7398
▁ጌጥ	-7399
▁ጌጦ	-7400
▁ግል	-7401
▁ጎረ	-7402
▁ጠር	-7403
▁ጠቃ	-7404
▁ጣጣ	-7405
▁ጥዬ	-7406
▁ጥፋ	-7407
▁ጦሩ	-7408
▁ጮሁ	-7409
▁ጻፍ	-7410
▁ፈጁ	-7411
▁ፊቱ	-7412
ሁቱትሲ	-7413
ሃል፡፡	-7414
ሆናቸው	-7415
ለሁበት	-7416
ለኝነት	-7417
ሉባቸው	-7418
ሉት፡፡	-7419
ሊዝኛው	-7420
ላለፉት	-7421
ላውያን	-7422
ልማትን	-7423
ልም፡፡	-7424
ሎባቸው	-7425
ሏቸውን	-7426
መላለሱ	-7427
መሰግን	-7428
መንበር	-7429
መንጃው	-7430
መጡበት	-7431
መጧቸው	-7432
ማማቾች	-7433
ማርቆስ	-7434
ማጽያን	-7435
ምርበት	-7436
ሞቻችን	-7437
ረዳንን	-7438
ርኩ፡፡	-7439
ሯቸውን	-7440
ሰቃየት	-7441
ሰቡትን	-7442
ሰዋል፤	-7443
ሰው፡፡	-7444
ሳችሁኝ	-7445
ሳካልኝ	-7446
ስተማር	-7447
ስታችን	-7448
ስደሳች	-7449
ስደስት	-7450
ሽም፡፡	-7451
ቀሰቅስ	-7452
ቀሰ፡፡	-7453
ቀበልም	-7454
ቂቃዎች	-7455
ቂያለሽ	-7456
ቃጥሉት	-7457
ቆየትን	-7458
በርካታ	-7459
በሳጨሁ	-7460
በሳጨት	-7461
ቢያችን	-7462
ባሉ፡፡	-7463
ባል፡፡	-7464
ብሰለሰ	-7465
ተረጉም	-7466
ተረፋት	-7467
ተች፡፡	-7468
ተነፍሱ	-7469
ተናል፤	-7470
ተዋወቃ	-7471
ታውቂው	-7472
ታዘብኩ	-7473
ቶች፡፡	-7474
ቻለሁ፤	-7475
ችን፡፡	-7476
ኅረትን	-7477
ኅበረሰ	-7478
ነቀ፡፡	-7479
ነቶቹን	-7480
ነገሩን	-7481
ነግረው	-7482
ናፈቀኝ	-7483
ንስሳት	-7484
ንበትን	-7485
ንዳንድ	-7486
ኖረኝም	-7487
አዎን፣	-7488
ከላቸው	-7489
ከፍለው	-7490
ክረምት	-7491
ኮታኮተ	-7492
ወስደን	-7493
ወያየት	-7494
ወደፊቱ	-7495
ወጠ፡፡	-7496
ወጣቶች	-7497
ውም፡፡	-7498
ዎት፡፡	-7499
ዓምራዊ	-7500
ዓምድር	-7501
ዘኔታና	-7502
ዘገጃጅ	-7503
ይቅርታ	-7504
ደራጀት	-7505
ደርሰን	-7506
ደርጉም	-7507
ደበቁት	-7508
ዱዜንጄ	-7509
ድያለሁ	-7510
ገላገል	-7511
ገልገል	-7512
ገናኝም	-7513
ገኙበት	-7514
ገዛችሁ	-7515
ገዳዩን	-7516
ገድሉት	-7517
ገድሉን	-7518
ገድሉኝ	-7519
ጋት፡፡	-7520
ጋቸውን	-7521
ግራችን	-7522
ጓት፡፡	-7523
ጓደኞቼ	-7524
ጠለያው	-7525
ጠለጠለ	-7526
ጠበቀው	-7527
ጠየቀኝ	-7528
ጠየቅን	-7529
ጠይቀኝ	-7530
ጣል፡፡	-7531
ጽናናኝ	-7532
ጽንፈኛ	-7533
ፈላልግ	-7534
ፈልጋት	-7535
ፈተ፡፡	-7536
ፈጸመው	-7537
▁150	-7538
▁400	-7539
▁ሁለቴ	-7540
▁ሁካታ	-7541
▁ሃፍረ	-7542
▁ህያው	-7543
▁ለመሰ	-7544
▁ለመሸ	-7545
▁ለመቀ	-7546
▁ለመብ	-7547
▁ለመነ	-7548
▁ለሚያ	-7549
▁ለአን	-7550
▁ለእጅ	-7551
▁ለውጦ	-7552
▁ለየት	-7553
▁ሊሆኑ	-7554
▁ሊኖር	-7555
▁ሊያግ	-7556
▁ላንተ	-7557
▁ልሆን	-7558
▁ልባዊ	-7559
▁ልብን	-7560
▁ልተር	-7561
▁ልከኛ	-7562
▁ልጅም	-7563
▁ልግስ	-7564
▁ሐዘን	-7565
▁ሕልሜ	-7566
▁ሕመሙ	-7567
▁መሄዴ	-7568
▁መሆኔ	-7569
▁መልሼ	-7570
▁መልክ	-7571
▁መርዝ	-7572
▁መሳይ	-7573
▁መቅረ	-7574
▁መቆየ	-7575
▁መብት	-7576
▁መታው	-7577
▁መቻል	-7578
▁መኖራ	-7579
▁መአት	-7580
▁መገን	-7581
▁መገኛ	-7582
▁መገደ	-7583
▁መጠቀ	-7584
▁መጣር	-7585
▁መጥቼ	-7586
▁መጻፍ	-7587
▁መፈን	-7588
▁ማለቴ	-7589
▁ማራቅ	-7590
▁ማየቱ	-7591
▁ምራቅ	-7592
▁ምቾት	-7593
▁ምንኛ	-7594
▁ሞቷል	-7595
▁ሠራተ	-7596
▁ሠራዊ	-7597
▁ሣጥን	-7598
▁ሥራም	-7599
▁ረዘም	-7600
▁ርዕስ	-7601
▁ሰምቻ	-7602
▁ሰቀቀ	-7603
▁ሰይጣ	-7604
▁ሲሞቱ	-7605
▁ሲባል	-7606
▁ሲያዩ	-7607
▁ሲደሰ	-7608
▁ሲገድ	-7609
▁ሲጋጭ	-7610
▁ሲጠሩ	-7611
▁ሲፋፋ	-7612
▁ሳቂታ	-7613
▁ሳቢያ	-7614
▁ሳንባ	-7615
▁ስለጥ	-7616
▁ስመጣ	-7617
▁ስማር	-7618
▁ስሜቴ	-7619
▁ስታወ	-7620
▁ስታድ	-7621
▁ስነቃ	-7622
▁ስንጥ	-7623
▁ስካፑ	-7624
▁ሸፈነ	-7625
▁ሸፍኖ	-7626
▁ሽያጭ	-7627
▁ቀንም	-7628
▁ቀንና	-7629
▁ቀንድ	-7630
▁ቄሶች	-7631
▁ቅርጽ	-7632
▁ቅጥር	-7633
▁ቆመና	-7634
▁በሆኑ	-7635
▁በላቀ	-7636
▁በላብ	-7637
▁በመመ	-7638
▁በመር	-7639
▁በመሰ	-7640
▁በመቻ	-7641
▁በመጡ	-7642
▁በመጣ	-7643
▁በመጥ	-7644
▁በምላ	-7645
▁በምር	-7646
▁በምት	-7647
▁በሮች	-7648
▁በስደ	-7649
▁በቀል	-7650
▁በቆየ	-7651
▁በባሰ	-7652
▁በቤቴ	-7653
▁በቤት	-7654
▁በተራ	-7655
▁በተሰ	-7656
▁በቶሎ	-7657
▁በአሉ	-7658
▁በአገ	-7659
▁በአጠ	-7660
▁በእና	-7661
▁በዚች	-7662
▁በየአ	-7663
▁በየጥ	-7664
▁በደጉ	-7665
▁በጊዜ	-7666
▁በግሌ	-7667
▁በፊቱ	-7668
▁ቡድኑ	-7669
▁ቢቀር	-7670
▁ባህል	-7671
▁ባሏን	-7672
▁ባሕር	-7673
▁ባንዴ	-7674
▁ባንድ	-7675
▁ቤቴን	-7676
▁ቤትም	-7677
▁ቤት፣	-7678
▁ብርቱ	-7679
▁ብዛት	-7680
▁ብዬም	-7681
▁ቦምብ	-7682
▁ቦምቦ	-7683
▁ቦርሳ	-7684
▁ተሞላ	-7685
▁ተረጋ	-7686
▁ተራው	-7687
▁ተሰም	-7688
▁ተሰጥ	-7689
▁ተከበ	-7690
▁ተኩስ	-7691
▁ተወዳ	-7692
▁ተዋር	-7693
▁ተደሰ	-7694
▁ተደበ	-7695
▁ተገል	-7696
▁ተገድ	-7697
▁ተጋብ	-7698
▁ተፈና	-7699
▁ታሪኩ	-7700
▁ታዳሚ	-7701
▁ቴሬሴ	-7702
▁ትልል	-7703
▁ትርፍ	-7704
▁ትኩሳ	-7705
▁ነህ፤	-7706
▁ንድፍ	-7707
▁ንገሪ	-7708
▁አለሽ	-7709
▁አለፈ	-7710
▁አሉና	-7711
▁አሉን	-7712
▁አላየ	-7713
▁አልቅ	-7714
▁አመለ	-7715
▁አመራ	-7716
▁አመቱ	-7717
▁አምል	-7718
▁አምር	-7719
▁አርቆ	-7720
▁አሳይ	-7721
▁አስባ	-7722
▁አስቦ	-7723
▁አሸማ	-7724
▁አቀድ	-7725
▁አቀፉ	-7726
▁አቅሙ	-7727
▁አቅፎ	-7728
▁አቆመ	-7729
▁አቋቁ	-7730
▁አብዳ	-7731
▁አትም	-7732
▁አትን	-7733
▁አትፍ	-7734
▁አንጀ	-7735
▁አውታ	-7736
▁አዛዥ	-7737
▁አያቴ	-7738
▁አያይ	-7739
▁አይ፣	-7740
▁አድኖ	-7741
▁አድጎ	-7742
▁አጀብ	-7743
▁አግዝ	-7744
▁አጎቴ	-7745
▁አጎቶ	-7746
▁አጥር	-7747
▁አጭር	-7748
▁አፌም	-7749
▁እለዋ	-7750
▁እመኑ	-7751
▁እመዘ	-7752
▁እመጣ	-7753
▁እራት	-7754
▁እቅፍ	-7755
▁እባብ	-7756
▁እነሱ	-7757
▁እናስ	-7758
▁እንፈ	-7759
▁እኝህ	-7760
▁እኩለ	-7761
▁እየወ	-7762
▁እየደ	-7763
▁እያደ	-7764
▁እያዳ	-7765
▁እጅና	-7766
▁እጆቹ	-7767
▁እጠቀ	-7768
▁ከላይ	-7769
▁ከሌላ	-7770
▁ከልጅ	-7771
▁ከመስ	-7772
▁ከመኝ	-7773
▁ከመጣ	-7774
▁ከመፍ	-7775
▁ከማስ	-7776
▁ከምሽ	-7777
▁ከሳራ	-7778
▁ከቄስ	-7779
▁ከበው	-7780
▁ከተራ	-7781
▁ከታት	-7782
▁ከነሱ	-7783
▁ከክፉ	-7784
▁ከፍቶ	-7785
▁ከፍቼ	-7786
▁ኩራት	-7787
▁ካለው	-7788
▁ካሉት	-7789
▁ካቶሊ	-7790
▁ካደረ	-7791
▁ኬንዛ	-7792
▁ክፍፍ	-7793
▁ኮርኒ	-7794
▁ኮከብ	-7795
▁ወስጄ	-7796
▁ወይስ	-7797
▁ወደም	-7798
▁ወደድ	-7799
▁ወዳድ	-7800
▁ወዴት	-7801
▁ወጥቼ	-7802
▁ዋነኛ	-7803
▁ውለታ	-7804
▁ውሸት	-7805
▁ውጊያ	-7806
▁ዑደት	-7807
▁ዓለማ	-7808
▁ዓመቱ	-7809
▁ዓመቴ	-7810
▁ዓይነ	-7811
▁ዓይኑ	-7812
▁ዕለት	-7813
▁ዕድሉ	-7814
▁ዘላቂ	-7815
▁ዘመድ	-7816
▁ዘረጋ	-7817
▁ዘጋቢ	-7818
▁ዘግቼ	-7819
▁ዘጠኝ	-7820
▁ዝናብ	-7821
▁የሄይ	-7822
▁የሄደ	-7823
▁የለኝ	-7824
▁የሌለ	-7825
▁የሕግ	-7826
▁የመል	-7827
▁የሚን	-7828
▁የሞት	-7829
▁የሠራ	-7830
▁የሩአ	-7831
▁የሴት	-7832
▁የቀሩ	-7833
▁የቆሙ	-7834
▁የቆሰ	-7835
▁የቆዳ	-7836
▁የተሸ	-7837
▁የተሻ	-7838
▁የተከ	-7839
▁የተዛ	-7840
▁የታሰ	-7841
▁የአን	-7842
▁የእኔ	-7843
▁የክፍ	-7844
▁የዜና	-7845
▁የየራ	-7846
▁የያዘ	-7847
▁የደብ	-7848
▁የገደ	-7849
▁የጊዜ	-7850
▁ያለሁ	-7851
▁ያለም	-7852
▁ያለና	-7853
▁ያሉን	-7854
▁ያመለ	-7855
▁ያቃጭ	-7856
▁ያቆም	-7857
▁ያበጅ	-7858
▁ያወራ	-7859
▁ያገኟ	-7860
▁ይሁና	-7861
▁ይሄኔ	-7862
▁ይሄን	-7863
▁ይመር	-7864
▁ይሰጡ	-7865
▁ይሰጣ	-7866
▁ይሻለ	-7867
▁ይቆያ	-7868
▁ይቆጠ	-7869
▁ይታይ	-7870
▁ይናፍ	-7871
▁ይንገ	-7872
▁ይከብ	-7873
▁ይዞኝ	-7874
▁ይደረ	-7875
▁ይደብ	-7876
▁ይጨፈ	-7877
▁ይጮሃ	-7878
▁ደመና	-7879
▁ደርሼ	-7880
▁ደነገ	-7881
▁ደክሞ	-7882
▁ደፍሮ	-7883
▁ዳየር	-7884
▁ድምጽ	-7885
▁ጀምሬ	-7886
▁ገለጹ	-7887
▁ገለጽ	-7888
▁ገልጾ	-7889
▁ገመት	-7890
▁ገረመ	-7891
▁ገደል	-7892
▁ገጾች	-7893
▁ጉንጮ	-7894
▁ጊዜው	-7895
▁ግምት	-7896
▁ግርሻ	-7897
▁ግብዣ	-7898
▁ግዙፍ	-7899
▁ግዴታ	-7900
▁ግድም	-7901
▁ግፊት	-7902
▁ጠባብ	-7903
▁ጣፋጭ	-7904
▁ጥለው	-7905
▁ጥረት	-7906
▁ጥሩና	-7907
▁ጥርሱ	-7908
▁ጥይት	-7909
▁ጥጋት	-7910
▁ጨረቃ	-7911
▁ጨርቅ	-7912
▁ጨበጥ	-7913
▁ጭቃና	-7914
▁ጭጋግ	-7915
▁ጸልዪ	-7916
▁ጸሎቴ	-7917
▁ጸሐፊ	-7918
▁ጻፈል	-7919
▁ጽናት	-7920
▁ፈለገ	-7921
▁ፈለግ	-7922
▁ፈርቼ	-7923
▁ፍላጎ	-7924
▁ፍራን	-7925
▁ፍቃድ	-7926
▁ፖልና	-7927
...››	-7928
ሆንኩበት	-7929
ለትም፡፡	-7930
ሏቸው፡፡	-7931
መስለውን	-7932
መጣም፡፡	-7933
ምሯል፡፡	-7934
ምንድነው	-7935
ሞቻችንን	-7936
ረፈው፡፡	-7937
ርበደበድ	-7938
ሳለች፡፡	-7939
ስታውሰኝ	-7940
ሶቻቸውን	-7941
ቀመጡበት	-7942
ቀስኩ፡፡	-7943
ቁጠሪያው	-7944
ቆለፉብን	-7945
ቆማቸውም	-7946
በረሮዎች	-7947
ታቸውንና	-7948
ቶኛል፡፡	-7949
ችሁም፡፡	-7950
ችላቸውን	-7951
ነግራቸው	-7952
ናገኛቸው	-7953
አትጨነቂ	-7954
አቸው፡፡	-7955
ከላከሉን	-7956
ከባክበን	-7957
ኩለት፡፡	-7958
ወስዳችሁ	-7959
ወዳድነት	-7960
ዋለች፡፡	-7961
ውለበለቡ	-7962
ደርጉልኝ	-7963
ዲያቢሎስ	-7964
ዲያብሎስ	-7965
ጀመራቸው	-7966
ጆቻቸውን	-7967
ገረኝ፡፡	-7968
ገሳችሁኝ	-7969
ግደሏቸው	-7970
ጠልኝ፡፡	-7971
ጠቀምበት	-7972
ጨናነቀው	-7973
ጸልይበት	-7974
ፋለን፡፡	-7975
ፍንበትን	-7976
▁2008	-7977
▁2012	-7978
▁ሁቱውን	-7979
▁ለመያዝ	-7980
▁ለመጡት	-7981
▁ለመጣል	-7982
▁ለመጮህ	-7983
▁ለሚያስ	-7984
▁ለሚጠጋ	-7985
▁ለምሳሌ	-7986
▁ለቤተሰ	-7987
▁ለአሁኑ	-7988
▁ለእናቴ	-7989
▁ለዓይን	-7990
▁ለጸሎቴ	-7991
▁ሊከሰት	-7992
▁ላለፉት	-7993
▁ሌሊትም	-7994
▁ሌላኛው	-7995
▁ልናገኝ	-7996
▁ልጆችም	-7997
▁ሐሳቤን	-7998
▁ሐሳቦቼ	-7999
▁መልአክ	-8000
▁መልካሙ	-8001
▁መልዕክ	-8002
▁መምህሩ	-8003
▁መሰናክ	-8004
▁መስለው	-8005
▁መቀበል	-8006
▁መቅድም	-8007
▁መቋቋም	-8008
▁መብረቅ	-8009
▁መኖርን	-8010
▁መኝታዬ	-8011
▁መዘመር	-8012
▁መድኃኒ	-8013
▁መጀመር	-8014
▁መጣችሁ	-8015
▁ማላባና	-8016
▁ማርያም	-8017
▁ማሳለፍ	-8018
▁ማናገር	-8019
▁ማውጣት	-8020
▁ማየቴን	-8021
▁ማዳመጥ	-8022
▁ሜዲካል	-8023
▁ምስሎች	-8024
▁ምስክር	-8025
▁ምክሩን	-8026
▁ምክርና	-8027
▁ምግብም	-8028
▁ራሳችን	-8029
▁ርኩሳን	-8030
▁ሰንጥቆ	-8031
▁ሰጥተው	-8032
▁ሲመለስ	-8033
▁ሲሞክር	-8034
▁ሲቆራር	-8035
▁ሲታረዱ	-8036
▁ሲናገሩ	-8037
▁ሲናገር	-8038
▁ሲያዩኝ	-8039
▁ሲያጠፉ	-8040
▁ሲጀምር	-8041
▁ሳለቅስ	-8042
▁ሳስበው	-8043
▁ሳያልቅ	-8044
▁ሳደርግ	-8045
▁ሴትዮዋ	-8046
▁ሴቶችን	-8047
▁ስለነካ	-8048
▁ስለወጣ	-8049
▁ስላወቅ	-8050
▁ስሜቶች	-8051
▁ስትወጣ	-8052
▁ስንገባ	-8053
▁ስኬታማ	-8054
▁ስደተኛ	-8055
▁ስጠብቅ	-8056
▁ስጸልይ	-8057
▁ቀናትን	-8058
▁ቅዝቃዜ	-8059
▁ቅድስት	-8060
▁ቆመ፡፡	-8061
▁ቆየ፡፡	-8062
▁በሀገር	-8063
▁በሌላው	-8064
▁በሐይቁ	-8065
▁በመላው	-8066
▁በመጭው	-8067
▁በሚያን	-8068
▁በሚገኝ	-8069
▁በማመን	-8070
▁በማወቄ	-8071
▁በማይታ	-8072
▁በማድረ	-8073
▁በምሽቱ	-8074
▁በራችን	-8075
▁በሰማይ	-8076
▁በሰፊው	-8077
▁በቀልን	-8078
▁በቀዳዳ	-8079
▁በቁመት	-8080
▁በቆሻሻ	-8081
▁በበኩሏ	-8082
▁በቤልጅ	-8083
▁በብረቱ	-8084
▁በብዛት	-8085
▁በቪያኒ	-8086
▁በተለየ	-8087
▁በታሪክ	-8088
▁በታደሰ	-8089
▁በትንሿ	-8090
▁በነበሩ	-8091
▁በነዚህ	-8092
▁በአንዱ	-8093
▁በአንጻ	-8094
▁በአጭር	-8095
▁በዘለለ	-8096
▁በዘውጉ	-8097
▁በዚህች	-8098
▁በግንቡ	-8099
▁በጫካው	-8100
▁ቢኖረኝ	-8101
▁ቢገድሏ	-8102
▁ባየሁት	-8103
▁ቤልጅዬ	-8104
▁ቤተሰቧ	-8105
▁ብላችሁ	-8106
▁ብርቅዬ	-8107
▁ብርታት	-8108
▁ብርግድ	-8109
▁ብትሆን	-8110
▁ብቸኛዋ	-8111
▁ብዙሃን	-8112
▁ቦጎሶራ	-8113
▁ቪክተር	-8114
▁ቪያኒም	-8115
▁ቪያኒ፤	-8116
▁ተልዕኮ	-8117
▁ተማርኮ	-8118
▁ተርጓሚ	-8119
▁ተሸሽጌ	-8120
▁ተቀምጣ	-8121
▁ተቃቀፍ	-8122
▁ተበሳጭ	-8123
▁ተባርኬ	-8124
▁ተብለው	-8125
▁ተነሥቶ	-8126
▁ተናገረ	-8127
▁ተንጠራ	-8128
▁ተንፍሼ	-8129
▁ተአምር	-8130
▁ተከተል	-8131
▁ተከታት	-8132
▁ተወያይ	-8133
▁ተዋናይ	-8134
▁ተደብቆ	-8135
▁ተጠያቂ	-8136
▁ተጨፍጭ	-8137
▁ታላላቅ	-8138
▁ታሪኩን	-8139
▁ታሪክና	-8140
▁ታሪኳም	-8141
▁ትልልቅ	-8142
▁ትርጉሙ	-8143
▁ትተውን	-8144
▁ትንሹ፣	-8145
▁ችግርና	-8146
▁ነህ፡፡	-8147
▁ነቀነቁ	-8148
▁ነበር፣	-8149
▁ነባራዊ	-8150
▁ነፍሶች	-8151
▁ንሴንጄ	-8152
▁ንዴቴን	-8153
▁አልቀረ	-8154
▁አልቀር	-8155
▁አልባት	-8156
▁አልፈን	-8157
▁አመስግ	-8158
▁አምሽቶ	-8159
▁አምጥቶ	-8160
▁አሠራር	-8161
▁አረፍተ	-8162
▁አሳሳቢ	-8163
▁አስወጥ	-8164
▁አስገባ	-8165
▁አቀረቡ	-8166
▁አቋረጥ	-8167
▁አቋርጦ	-8168
▁አብሬው	-8169
▁አብሮን	-8170
▁አብሮኝ	-8171
▁አብዛኛ	-8172
▁አቧራማ	-8173
▁አናውቅ	-8174
▁አንተም	-8175
▁አንዱና	-8176
▁አንዴም	-8177
▁አካሄድ	-8178
▁አክስቴ	-8179
▁አክብሮ	-8180
▁አኰቴት	-8181
▁አወቅሁ	-8182
▁አውቀነ	-8183
▁አውቀን	-8184
▁አዕምሯ	-8185
▁አያልቅ	-8186
▁አያገጣ	-8187
▁አይሆኑ	-8188
▁አይመጣ	-8189
▁አይግባ	-8190
▁አዳራሹ	-8191
▁አድነኸ	-8192
▁አድነው	-8193
▁አግባብ	-8194
▁አጠገቤ	-8195
▁አጽናፍ	-8196
▁አፍጥጬ	-8197
▁ኢብራሂ	-8198
▁እህቶቼ	-8199
▁እማማ፣	-8200
▁እምነቴ	-8201
▁እሞክራ	-8202
▁እስረኛ	-8203
▁እናቴና	-8204
▁እናቶች	-8205
▁እናገኛ	-8206
▁እንሄዳ	-8207
▁እንሆና	-8208
▁እንዳቀ	-8209
▁እንዳታ	-8210
▁እንጭጭ	-8211
▁እኮ፡፡	-8212
▁እወስዳ	-8213
▁እየበረ	-8214
▁እየወጋ	-8215
▁እየወጣ	-8216
▁እየጎላ	-8217
▁እየጠራ	-8218
▁እየጠየ	-8219
▁እየፈተ	-8220
▁እያሰብ	-8221
▁እጠብቅ	-8222
▁እጸልይ	-8223
▁ከሄድን	-8224
▁ከልጆቹ	-8225
▁ከመሄዱ	-8226
▁ከረጅም	-8227
▁ከበፊቱ	-8228
▁ከተቻለ	-8229
▁ከነበር	-8230
▁ከእራት	-8231
▁ከእንግ	-8232
▁ከኪጋሊ	-8233
▁ከክፍሌ	-8234
▁ከዕለት	-8235
▁ከጀመር	-8236
▁ከገባሁ	-8237
▁ከገነት	-8238
▁ከግማሽ	-8239
▁ከግምት	-8240
▁ከጓደኛ	-8241
▁ከፈለግ	-8242
▁ከፍተው	-8243
▁ካለፈው	-8244
▁ካናዳዊ	-8245
▁ካየሁት	-8246
▁ኬላዎች	-8247
▁ክስተቱ	-8248
▁ክፍሉን	-8249
▁ኮሎኔሉ	-8250
▁ወደምት	-8251
▁ወደየቤ	-8252
▁ወጣቶች	-8253
▁ወጣ፡፡	-8254
▁ወጥተው	-8255
▁ዋለ፡፡	-8256
▁ውበትና	-8257
▁ውንጀላ	-8258
▁ውፍረት	-8259
▁ዓለምን	-8260
▁ዓይኖቿ	-8261
▁ዕንጨት	-8262
▁ዘመናት	-8263
▁ዘበኛው	-8264
▁ዘበኞቹ	-8265
▁ዘወትር	-8266
▁ዘውግን	-8267
▁ዘግተው	-8268
▁ዞረ፡፡	-8269
▁ዣኔትና	-8270
▁የሁቱው	-8271
▁የለበት	-8272
▁የልደት	-8273
▁የመልስ	-8274
▁የሚለብ	-8275
▁የሚበቃ	-8276
▁የሚከት	-8277
▁የሚያዩ	-8278
▁የሚገፋ	-8279
▁የሚጠቀ	-8280
▁የሚጥል	-8281
▁የምለው	-8282
▁የምታስ	-8283
▁የምታው	-8284
▁የምኖር	-8285
▁የምወዳ	-8286
▁የሦስት	-8287
▁የሰቆቃ	-8288
▁የሰባት	-8289
▁የስቃይ	-8290
▁የቀረኝ	-8291
▁የቀረው	-8292
▁የበቀል	-8293
▁የተመሠ	-8294
▁የተረፍ	-8295
▁የተተረ	-8296
▁የተጻፈ	-8297
▁የቻለው	-8298
▁የአንድ	-8299
▁የአየሩ	-8300
▁የእማማ	-8301
▁የወንጌ	-8302
▁የደረሰ	-8303
▁የደረሱ	-8304
▁የጅምላ	-8305
▁የገዳይ	-8306
▁የጠየቅ	-8307
▁የፈለግ	-8308
▁ያለብኝ	-8309
▁ያለነው	-8310
▁ያለዚያ	-8311
▁ያላችሁ	-8312
▁ያሳየኝ	-8313
▁ያስገድ	-8314
▁ያበረታ	-8315
▁ያነሳሳ	-8316
▁ያደረገ	-8317
▁ያደረጉ	-8318
▁ያግዘኝ	-8319
▁ይለናል	-8320
▁ይለያየ	-8321
▁ይመስላ	-8322
▁ይናገር	-8323
▁ይኖራል	-8324
▁ይዘውት	-8325
▁ይገድሏ	-8326
▁ይጠይቃ	-8327
▁ይፈጸም	-8328
▁ደብዛዛ	-8329
▁ደግመን	-8330
▁ደግነው	-8331
▁ዳንኤል	-8332
▁ድምጹም	-8333
▁ዶቃዎች	-8334
▁ዶቅዶቄ	-8335
▁ጀመር፤	-8336
▁ጀርመን	-8337
▁ገብተን	-8338
▁ገጠመኝ	-8339
▁ጉራውን	-8340
▁ጉሮሮዬ	-8341
▁ጊዜውን	-8342
▁ጊዜዬን	-8343
▁ግለሰብ	-8344
▁ግርማ፣	-8345
▁ግቢውን	-8346
▁ግደሉት	-8347
▁ጠረጴዛ	-8348
▁ጠቅላይ	-8349
▁ጠንክሬ	-8350
▁ጠንክሮ	-8351
▁ጠየኩት	-8352
▁ጥላቻና	-8353
▁ጥልቀት	-8354
▁ጥርጥር	-8355
▁ጥገኞች	-8356
▁ጸጉሩን	-8357
▁ጽሑፉን	-8358
▁ፍላጎት	-8359
▁ፍሬንች	-8360
▁ፍቅሩን	-8361
▁ፍቅርህ	-8362
▁ፍቅርን	-8363
▁ፍጥረት	-8364
▁ፎጣዬን	-8365
......	-8366
ህንነታችን	-8367
ምረናል፡፡	-8368
ስተምርበት	-8369
በታለን፡፡	-8370
ኋቸውም፡፡	-8371
ነበሩም፡፡	-8372
ናገርኩ፡፡	-8373
ኢማኪዩሌ፣	-8374
ኤሌክትሪክ	-8375
ኩላቸው፡፡	-8376
ክራለሁ፡፡	-8377
የፈረንሳይ	-8378
▁ሀገራችን	-8379
▁ሄደዋል፤	-8380
▁ሄድን፡፡	-8381
▁ለመለየት	-8382
▁ለመርሳት	-8383
▁ለመቀመጥ	-8384
▁ለመቅሰም	-8385
▁ለመክፈት	-8386
▁ለመውጣት	-8387
▁ለመግለጽ	-8388
▁ለመጠበቅ	-8389
▁ለመፍታት	-8390
▁ለሚቆጠሩ	-8391
▁ለማምጣት	-8392
▁ለማሳካት	-8393
▁ለማጥናት	-8394
▁ለሰላምታ	-8395
▁ለወትሮው	-8396
▁ለዓመታት	-8397
▁ለዘላለሙ	-8398
▁ልብሶቹን	-8399
▁ልነግረው	-8400
▁ልጃገረድ	-8401
▁ልጆቿንና	-8402
▁ሐዘኔታና	-8403
▁ሕንጻዎች	-8404
▁መሆናችን	-8405
▁መምህራን	-8406
▁መሣሪያና	-8407
▁መርፌዎች	-8408
▁መሰለ፡፡	-8409
▁መቃብሮች	-8410
▁መተማመን	-8411
▁መነሻነት	-8412
▁መነኩሲት	-8413
▁መንገድም	-8414
▁መንፈሴን	-8415
▁መኖራቸው	-8416
▁መከላከል	-8417
▁መከፋፈል	-8418
▁መድረኮች	-8419
▁መጣች፡፡	-8420
▁መጨረሻም	-8421
▁መጻሕፍት	-8422
▁መፈራረስ	-8423
▁ሚኒስትር	-8424
▁ማለታቸው	-8425
▁ማስገባት	-8426
▁ማጥፋትና	-8427
▁ሠራተኛው	-8428
▁ርህሩህና	-8429
▁ሰለባዎች	-8430
▁ሰቆቃዎች	-8431
▁ሰውዬውን	-8432
▁ሰጠኝ፡፡	-8433
▁ሰጡኝ፡፡	-8434
▁ሲጠይቁት	-8435
▁ስለሆንሽ	-8436
▁ስለሚችል	-8437
▁ስለሚያስ	-8438
▁ስለማውቅ	-8439
▁ስለሰጠኝ	-8440
▁ስለወንድ	-8441
▁ስላደረጉ	-8442
▁ስምምነት	-8443
▁ስትናገር	-8444
▁ስናደርግ	-8445
▁ስንመለስ	-8446
▁ሹክሹክታ	-8447
▁ሽልማትን	-8448
▁ቁልቁለት	-8449
▁ቁምሳጥኑ	-8450
▁ቆምኩ፡፡	-8451
▁ቋንቋዎች	-8452
▁በሃፍረት	-8453
▁በመንደሬ	-8454
▁በመኖሪያ	-8455
▁በመግደል	-8456
▁በመጠቀም	-8457
▁በሚያስደ	-8458
▁በምስጢር	-8459
▁በራችንን	-8460
▁በሰውነቴ	-8461
▁በሳምንት	-8462
▁በስተቀረ	-8463
▁በቤተሰቡ	-8464
▁በቤታቸው	-8465
▁በተለያዩ	-8466
▁በተግባር	-8467
▁በትምህር	-8468
▁በነበሩት	-8469
▁በአሰቃቂ	-8470
▁በአግባቡ	-8471
▁በእምነት	-8472
▁በከተማው	-8473
▁በዕውቀት	-8474
▁በዳማሲን	-8475
▁በድጋሚም	-8476
▁በጎረቤት	-8477
▁በጦርነቱ	-8478
▁ባላውቅም	-8479
▁ባልንጀሮ	-8480
▁ቤተሰቡን	-8481
▁ብርያንና	-8482
▁ብርያንን	-8483
▁ብትሆንም	-8484
▁ብናውቅም	-8485
▁ብዙዎቹን	-8486
▁ብፈልግም	-8487
▁ቪያኒንና	-8488
▁ተቀብለው	-8489
▁ተዋጠ፡፡	-8490
▁ተደናግጬ	-8491
▁ታደርግል	-8492
▁ትችያለሽ	-8493
▁ትንፋሼን	-8494
▁ትውልዶች	-8495
▁ትዕይንቱ	-8496
▁ትዝታዎቼ	-8497
▁ችሏል፡፡	-8498
▁ኃላፊነት	-8499
▁አለን፡፡	-8500
▁አሉታዊው	-8501
▁አልሰጠኝ	-8502
▁አልተቻለ	-8503
▁አረጋግቼ	-8504
▁አስመስሎ	-8505
▁አስቀመጠ	-8506
▁አስቀምጣ	-8507
▁አስቀምጦ	-8508
▁አስበልጣ	-8509
▁አስተላል	-8510
▁አስደማሚ	-8511
▁አቀራረብ	-8512
▁አባቴንና	-8513
▁አብሬያት	-8514
▁አታድርግ	-8515
▁አትክልት	-8516
▁አትጨነቁ	-8517
▁አንቀጠቀ	-8518
▁አንባቢው	-8519
▁አንቺንም	-8520
▁አንችልም	-8521
▁አንደኛዋ	-8522
▁አንዲትም	-8523
▁አካባቢው	-8524
▁አወጣሁና	-8525
▁አውጥተው	-8526
▁አዎንታዊ	-8527
▁አዛውንት	-8528
▁አዩኝ፡፡	-8529
▁አይተዋል	-8530
▁አይችልም	-8531
▁አይፈልጉ	-8532
▁አደንዛዥ	-8533
▁እምነትና	-8534
▁እባክዎት	-8535
▁እባክዎን	-8536
▁እቤታቸው	-8537
▁እነርሱም	-8538
▁እናደርጋ	-8539
▁እንስሶች	-8540
▁እንደመጣ	-8541
▁እንደሚመ	-8542
▁እንደሞተ	-8543
▁እንደቆመ	-8544
▁እንደኔው	-8545
▁እንደገባ	-8546
▁እንዲሄዱ	-8547
▁እንዲቆሙ	-8548
▁እንዲተው	-8549
▁እንዲወስ	-8550
▁እንዳለሁ	-8551
▁እንዳላይ	-8552
▁እንዳስተ	-8553
▁እንዳገኝ	-8554
▁እንድማር	-8555
▁እንድናይ	-8556
▁እየሄድኩ	-8557
▁እየተዋጉ	-8558
▁እየዘመሩ	-8559
▁እየጨመረ	-8560
▁ከሁለተኛ	-8561
▁ከሆናችሁ	-8562
▁ከራሳችሁ	-8563
▁ከሰዓታት	-8564
▁ከስድስት	-8565
▁ከተለያዩ	-8566
▁ከኋላችን	-8567
▁ከአልጋው	-8568
▁ከአንደኛ	-8569
▁ከአእምሮ	-8570
▁ከእምነቴ	-8571
▁ከእነዚህ	-8572
▁ከዮሃንስ	-8573
▁ከደረስኩ	-8574
▁ከጓደኞቹ	-8575
▁ከጠየቅን	-8576
▁ከፊታችን	-8577
▁ከፖለቲካ	-8578
▁ካየኋቸው	-8579
▁ክሌሜንት	-8580
▁ክፍላቸው	-8581
▁ወረቀቶች	-8582
▁ወንበሮች	-8583
▁ወንዶችን	-8584
▁ወጣቶችን	-8585
▁ውርጅብኝ	-8586
▁ዓይኖቹን	-8587
▁ዝርዝሩን	-8588
▁የሃዘኔታ	-8589
▁የሌሎቹን	-8590
▁የሕይወቴ	-8591
▁የሕይወት	-8592
▁የመንገድ	-8593
▁የሚሆነው	-8594
▁የሚሆኑት	-8595
▁የሚያሠራ	-8596
▁የሚያስብ	-8597
▁የሚያስጨ	-8598
▁የሚያጠፋ	-8599
▁የሚደርስ	-8600
▁የሚፈነዳ	-8601
▁የማዋየው	-8602
▁የማይችል	-8603
▁የማገገም	-8604
▁የምትዪው	-8605
▁የሰውነት	-8606
▁የተሸበሩ	-8607
▁የተደረገ	-8608
▁የተደበቅ	-8609
▁የተገደሉ	-8610
▁የትንሣኤ	-8611
▁የነገሰው	-8612
▁የአምስት	-8613
▁የእንግዳ	-8614
▁የወንድሜ	-8615
▁የዛየርን	-8616
▁የዮሃንስ	-8617
▁የደረሰብ	-8618
▁የጀርመን	-8619
▁የገዳዩን	-8620
▁የጥላቻና	-8621
▁የጻፍኩት	-8622
▁የፈረንሳ	-8623
▁የፍርሃት	-8624
▁ያለምንም	-8625
▁ያላቸውን	-8626
▁ያሰብኩት	-8627
▁ያስገነዝ	-8628
▁ያስፈልገ	-8629
▁ያዝን፡፡	-8630
▁ያደረገው	-8631
▁ያገኙትን	-8632
▁ይመስለኝ	-8633
▁ይመስገን	-8634
▁ይመጣሉ፤	-8635
▁ይሰማኛል	-8636
▁ይቻለኛል	-8637
▁ይችላል፤	-8638
▁ይዘዋወራ	-8639
▁ይገባኛል	-8640
▁ደርዘኖች	-8641
▁ደጋግመን	-8642
▁ዳማሲንም	-8643
▁ዳማሲን፣	-8644
▁ድርጅቶች	-8645
▁ዶክተር፣	-8646
▁ጀርባዬን	-8647
▁ጆሮዎቼን	-8648
▁ገዳዮቹም	-8649
▁ገድለውት	-8650
▁ገድያለሁ	-8651
▁ግንዛቤው	-8652
▁ግድያዎቹ	-8653
▁ግጥምጥም	-8654
▁ጎረፉ፡፡	-8655
▁ጓደኛዬና	-8656
▁ጓደኞቼና	-8657
▁ጠበቅሁት	-8658
▁ጨለማውን	-8659
▁ጭንቅላት	-8660
▁ጽንፈኞቹ	-8661
▁ፌሊሲንን	-8662
▁‹‹399	-8663
ቶባቸዋል፡፡	-8664
ናደድኩባቸው	-8665
ከርካሪያችን	-8666
ያንዳንዳችን	-8667
▁ሁኔታዎችን	-8668
▁ሃይማኖታዊ	-8669
▁ሄደዋል፡፡	-8670
▁ለመቆጣጠር	-8671
▁ለመተዋወቅ	-8672
▁ለመዘጋጀት	-8673
▁ለመጎብኘት	-8674
▁ለማረጋገጥ	-8675
▁ለማረጋጋት	-8676
▁ለማስተማር	-8677
▁ለማናቸውም	-8678
▁ለትምህርት	-8679
▁ለኤይማብል	-8680
▁ለወታደሮቹ	-8681
▁ሊቀመንበር	-8682
▁ሊኦናርድ፣	-8683
▁ልብሶቻችን	-8684
▁ልጃገረዶች	-8685
▁ሕይወታችን	-8686
▁መሆናችንን	-8687
▁መሣሪያውን	-8688
▁መስተጋብር	-8689
▁መጻሕፍቴን	-8690
▁መጻሕፍትም	-8691
▁ሲያቃጥሉት	-8692
▁ሲያናግረኝ	-8693
▁ስለሚፈልጉ	-8694
▁ስለተሰማኝ	-8695
▁ስለነበረው	-8696
▁ስላበረታታ	-8697
▁ስሜታቸውን	-8698
▁ቀጠለች፡፡	-8699
▁ቀጠልኩ፡፡	-8700
▁ቁምሳጥኑን	-8701
▁ቆይቷል፡፡	-8702
▁በሀገራችን	-8703
▁በመሥራትና	-8704
▁በመጠለያው	-8705
▁በማንኛዋም	-8706
▁በማንኛውም	-8707
▁በተባበሩት	-8708
▁በተከታታይ	-8709
▁በትከሻቸው	-8710
▁በአስቸጋሪ	-8711
▁በአንደኛው	-8712
▁በዓለማችን	-8713
▁በደረሰባት	-8714
▁ባይኖረኝም	-8715
▁ብንሞክርም	-8716
▁ብያለሁ፡፡	-8717
▁ተመለሰ፡፡	-8718
▁ተንቀሳቃሽ	-8719
▁ተከፈተ፡፡	-8720
▁ተግባራትን	-8721
▁ታወቀኝ፡፡	-8722
▁ትዕይንቶች	-8723
▁ችላለች፡፡	-8724
▁ነገረን፡፡	-8725
▁አለማክበር	-8726
▁አለምኩ፡፡	-8727
▁አልቀበልም	-8728
▁አልቻልኩም	-8729
▁አልኳት፡፡	-8730
▁አልገባቸው	-8731
▁አሎይዜንና	-8732
▁አመመኝ፡፡	-8733
▁አምላክንም	-8734
▁አረመኔያዊ	-8735
▁አረፈው፡፡	-8736
▁አሰቃቂዎቹ	-8737
▁አስቀድመው	-8738
▁አስቸጋሪና	-8739
▁አባታችንን	-8740
▁አነባሁ፡፡	-8741
▁አንሾካሾከ	-8742
▁አንጠልጣይ	-8743
▁አዋቂዎችን	-8744
▁አያለሁ፡፡	-8745
▁አይቀርም፤	-8746
▁አይነቶቹን	-8747
▁አይደለም፣	-8748
▁ኢስፔራንስ	-8749
▁እላቸዋለሁ	-8750
▁እርዳኝ፡፡	-8751
▁እስኪያልቅ	-8752
▁እስኪጨርስ	-8753
▁እንተዋወቃ	-8754
▁እንደሌለው	-8755
▁እንደሚቻል	-8756
▁እንደሚኖር	-8757
▁እንደሚያን	-8758
▁እንደምችል	-8759
▁እንደተኛሁ	-8760
▁እንደተገደ	-8761
▁እንደነገሩ	-8762
▁እንዲኖረን	-8763
▁እንዲያመጣ	-8764
▁እንዲያቆም	-8765
▁እንዳልቻለ	-8766
▁እንዳይቀሩ	-8767
▁እንዳይገባ	-8768
▁እንድታገኚ	-8769
▁እየተካሄደ	-8770
▁እየጸለይኩ	-8771
▁እያደረግሽ	-8772
▁እጆቻችንን	-8773
▁እግሮቻችን	-8774
▁ከሁለተኛው	-8775
▁ከሁላችንም	-8776
▁ከመሄዳችን	-8777
▁ከሰማኋቸው	-8778
▁ከቁምሳጥኑ	-8779
▁ከቆለፉብን	-8780
▁ከእንግዲህ	-8781
▁ከወንድሞቼ	-8782
▁ካገኘኋቸው	-8783
▁ክርስቲያን	-8784
▁ወላጆቻችን	-8785
▁ወሰደኝ፡፡	-8786
▁ወንድሞቼን	-8787
▁ወንድሞችሽ	-8788
▁ዘገባዎችን	-8789
▁የሀገራችን	-8790
▁የመጨረሻው	-8791
▁የሚረዳንን	-8792
▁የሚያሰማው	-8793
▁የሚያናውጥ	-8794
▁የሚያወሩት	-8795
▁የሚፈልገው	-8796
▁የሚፈልጉት	-8797
▁የማስተማር	-8798
▁የማይነገር	-8799
▁የማደርገው	-8800
▁የምችለውን	-8801
▁የምንሄደው	-8802
▁የምንችለው	-8803
▁የምከፍለው	-8804
▁የምወደውን	-8805
▁የሥነጽሑፍ	-8806
▁የራሳችንን	-8807
▁የተረፉትን	-8808
▁የተባለችው	-8809
▁የተባበሩት	-8810
▁የተከሰተው	-8811
▁የተደረገው	-8812
▁የተገደለው	-8813
▁የነበራትን	-8814
▁የነበራቸው	-8815
▁የዘላለማዊ	-8816
▁የገዳዮቹን	-8817
▁የጻፈችውን	-8818
▁የፈጸሙትን	-8819
▁ያስከትላል	-8820
▁ይሄዳሉ፡፡	-8821
▁ይሄዳል፡፡	-8822
▁ይለኛል፡፡	-8823
▁ይመስገነው	-8824
▁ይዘዋል፡፡	-8825
▁ይገድሉኛል	-8826
▁ደርቋል፡፡	-8827
▁ገጀራቸውን	-8828
▁ጠላቶቻችን	-8829
▁ጠየቀው፡፡	-8830
▁ጠየቁን፡፡	-8831
▁ጸሎታችንን	-8832
▁ጻፈልኝ፡፡	-8833
▁ለመንከባከብ	-8834
▁ለእያንዳንዱ	-8835
▁መለሰልኝ፡፡	-8836
▁መጥተዋል፡፡	-8837
▁ማስጠንቀቂያ	-8838
▁ሰማናቸው፡፡	-8839
▁ሰውነታችንን	-8840
▁ስለማበሳጨት	-8841
▁በሕይወታቸው	-8842
▁በተሸከርካሪ	-8843
▁በእያንዳንዱ	-8844
▁ተስማማሁ፡፡	-8845
▁ተንከባክበን	-8846
▁ተገናኘሁ፡፡	-8847
▁ታውቃለህ፡፡	-8848
▁ታውቆኛል፡፡	-8849
▁ነበራቸው፡፡	-8850
▁አለቀስኩ፡፡	-8851
▁አልነበራቸው	-8852
▁አልፈለግሁም	-8853
▁አሰብኩት፡፡	-8854
▁አስከሬኖችን	-8855
▁አብደዋል፡፡	-8856
▁አትጨነቂ፡፡	-8857
▁አካባቢያችን	-8858
▁አየዋለሁ፡፡	-8859
▁አይመስልህም	-8860
▁አይችሉም፡፡	-8861
▁አደረስን፡፡	-8862
▁አደረገች፡፡	-8863
▁አገኘኋት፡፡	-8864
▁አጥንቶቻችን	-8865
▁እመኛለሁ፡፡	-8866
▁እናፍቅሃለሁ	-8867
▁እንደሌለብኝ	-8868
▁እንደሚከሰት	-8869
▁እንደሚገባኝ	-8870
▁እንደሚፈልጉ	-8871
▁እንደሚፈልግ	-8872
▁እንደምትችል	-8873
▁እንደምፈልግ	-8874
▁እንዲያነበው	-8875
▁እንዲያገኙኝ	-8876
▁እንዳልሆንኩ	-8877
▁እንዳልነበር	-8878
▁እንጸልይ፡፡	-8879
▁እንፈልጋለን	-8880
▁እፈልጋሁ፡፡	-8881
▁ከዩኒቨርሲቲ	-8882
▁ኪንያሩዋንዳ	-8883
▁ወረደበት፡፡	-8884
▁ወደነበረበት	-8885
▁የመጀመሪያዬ	-8886
▁የሚናገሩትን	-8887
▁የሚከተለውን	-8888
▁የሚወስደውን	-8889
▁የተሳተፉትን	-8890
▁የተንቀሳቃሽ	-8891
▁የነበረችውን	-8892
▁የእጓለማውታ	-8893
▁የወላጆቼንና	-8894
▁ያለፍንበትን	-8895
▁ያቃጭላል፡፡	-8896
▁ይመስላሉ፡፡	-8897
▁ይናገራል፡፡	-8898
▁ይከተላል፡፡	-8899
▁ይግባችሁ፡፡	-8900
▁ይፈልጋሉ፡፡	-8901
▁ይፈጸማል፡፡	-8902
▁ጠመንጃቸውን	-8903
▁ጠመንጃዎችን	-8904
▁ሞክሬያለሁ፡፡	-8905
▁በተሸከርካሪው	-8906
▁በአቅራቢያችን	-8907
▁በአውሮፓውያን	-8908
▁በኢንተርሃምዌ	-8909
▁በዩኒቨርሲቲው	-8910
▁ቤተሰቦቻቸውን	-8911
▁ቤተክርስቲያኑ	-8912
▁ተሽከርካሪዎች	-8913
▁ታደርጋለች፡፡	-8914
▁አልረሳውም፡፡	-8915
▁አልነበሩም፡፡	-8916
▁አስወጥቷል፡፡	-8917
▁አውርተናል፡፡	-8918
▁አይመስልም፡፡	-8919
▁አይደለሁም፡፡	-8920
▁አድርጋቸው፡፡	-8921
▁እሞክራለሁ፡፡	-8922
▁እንደሚያደርጉ	-8923
▁እንዲያደርጉኝ	-8924
▁እየተዘዋወረች	-8925
▁እያንዳንዳችን	-8926
▁ከተሸከርካሪው	-8927
▁የመጀመሪያዋን	-8928
▁የመጀመሪያውን	-8929
▁የምናደርገውን	-8930
▁የወንጌላውያን	-8931
▁የፈረንሳውያኑ	-8932
▁ይለያየናል፡፡	-8933
▁ፈልጌያለሁ፡፡	-8934
..........	-8935
▁መለስኩላቸው፡፡	-8936
▁ሰምቻቸዋለሁ፡፡	-8937
▁ተጨፍጭፈዋል፡፡	-8938
▁አልነበረንም፡፡	-8939
▁አልጠራጠርም፡፡	-8940
▁አስደነገጠኝ፡፡	-8941
▁እንገናኛለን፡፡	-8942
▁ያስፈልገኛል፡፡	-8943
▁ይነግራቸዋል፡፡	-8944
▁ታደርግልኛለች፡፡	-8945
▁እንደማያደርጉልኝ	-8946
▁የሚንጸባረቅባቸው	-8947
▁ያስፈልጋቸዋል፡፡	-8948
▁እንደሚያስፈልጋቸው	-8949
09	-8950
10	-8951
50	-8952
70	-8953
Cl	-8954
Ex	-8955
Le	-8956
Sy	-8957
Te	-8958
as	-8959
co	-8960
ez	-8961
fi	-8962
ft	-8963
hu	-8964
il	-8965
lo	-8966
mb	-8967
si	-8968
to	-8969
ሁሉ	-8970
ሁቱ	-8971
ሁ፣	-8972
ሃተ	-8973
ሄሬ	-8974
ህቅ	-8975
ህ፣	-8976
ሆሳ	-8977
ሆድ	-8978
ለሹ	-8979
ለቄ	-8980
ለቆ	-8981
ለጫ	-8982
ለጻ	-8983
ሉኝ	-8984
ሉ፣	-8985
ሊሹ	-8986
ላሰ	-8987
ላቴ	-8988
ላኩ	-8989
ላጭ	-8990
ልላ	-8991
ልቆ	-8992
ልቤ	-8993
ልታ	-8994
ልኛ	-8995
ልዶ	-8996
ልጣ	-8997
ሎው	-8998
ሐሴ	-8999
ህሊ	-9000
ሐን	-9001
ሔት	-9002
ሕፍ	-9003
መች	-9004
መኑ	-9005
መኙ	-9006
መደ	-9007
መዱ	-9008
መዶ	-9009
ሙቀ	-9010
ሙዝ	-9011
ማሙ	-9012
ማራ	-9013
ማሬ	-9014
ሜኑ	-9015
ሜጋ	-9016
ምሰ	-9017
ምኩ	-9018
ምፒ	-9019
ምፓ	-9020
ሞሉ	-9021
ሞታ	-9022
ሞቺ	-9023
ሞከ	-9024
ሞክ	-9025
ሟላ	-9026
ሟሟ	-9027
ሟን	-9028
ሠሡ	-9029
ሣ፣	-9030
ረሬ	-9031
ረሽ	-9032
ረኸ	-9033
ረጂ	-9034
ረጭ	-9035
ረፉ	-9036
ሩብ	-9037
ሩና	-9038
ሪል	-9039
ሪኬ	-9040
ሪጎ	-9041
ሪ፣	-9042
ራሪ	-9043
ራስ	-9044
ራቱ	-9045
ራቴ	-9046
ራፊ	-9047
ሬያ	-9048
ርቁ	-9049
ርቼ	-9050
ርኮ	-9051
ሮቼ	-9052
ሮኒ	-9053
ሮዝ	-9054
ሮድ	-9055
ሮጡ	-9056
ሰህ	-9057
ሰሳ	-9058
ሰቄ	-9059
ሰቅ	-9060
ሰፋ	-9061
ሰ፤	-9062
ሱኝ	-9063
ሲቃ	-9064
ሲቷ	-9065
ሲያ	-9066
ሳሳ	-9067
ሳተ	-9068
ሳየ	-9069
ሳፈ	-9070
ስራ	-9071
ስሶ	-9072
ሶቼ	-9073
ሸና	-9074
ሹን	-9075
ሺው	-9076
ሻም	-9077
ሼ፣	-9078
ሽክ	-9079
ሽ፤	-9080
ሾች	-9081
ቀህ	-9082
ቀባ	-9083
ቀያ	-9084
ቃላ	-9085
ቃማ	-9086
ቃረ	-9087
ቃቂ	-9088
ቃቴ	-9089
ቃች	-9090
ቃው	-9091
ቅለ	-9092
ቅላ	-9093
ቅሬ	-9094
ቅዴ	-9095
ቆራ	-9096
ቆሮ	-9097
ቆቿ	-9098
ቋን	-9099
ቋጫ	-9100
በበ	-9101
በቶ	-9102
በኩ	-9103
በየ	-9104
በድ	-9105
በጀ	-9106
በግ	-9107
ቡም	-9108
ባለ	-9109
ባቂ	-9110
ባታ	-9111
ባዶ	-9112
ቤቴ	-9113
ቤው	-9114
ብሉ	-9115
ብሮ	-9116
ብስ	-9117
ብቃ	-9118
ብቆ	-9119
ብቸ	-9120
ብደ	-9121
ቦቿ	-9122
ቦገ	-9123
ቧት	-9124
ተላ	-9125
ተሸ	-9126
ተካ	-9127
ተጉ	-9128
ተፊ	-9129
ቲም	-9130
ቴል	-9131
ትታ	-9132
ትቶ	-9133
ትነ	-9134
ትዋ	-9135
ት፡	-9136
ቶማ	-9137
ቷት	-9138
ቸሩ	-9139
ቸኩ	-9140
ቻት	-9141
ቻቻ	-9142
ችሎ	-9143
ችዪ	-9144
ኃን	-9145
ነች	-9146
ነክ	-9147
ነጩ	-9148
ኒን	-9149
ኒኪ	-9150
ናቷ	-9151
ናዊ	-9152
ናጋ	-9153
ንሼ	-9154
ንቼ	-9155
ንጋ	-9156
ኖሪ	-9157
ኖን	-9158
ኖፍ	-9159
ኗም	-9160
ኘሁ	-9161
ኙ፣	-9162
አላ	-9163
አል	-9164
አብ	-9165
አዊ	-9166
ኤች	-9167
እባ	-9168
እና	-9169
እኛ	-9170
እየ	-9171
ኦሬ	-9172
ኦፖ	-9173
ከሬ	-9174
ከቻ	-9175
ከኝ	-9176
ኩ፡	-9177
ኪራ	-9178
ካም	-9179
ካቤ	-9180
ካኝ	-9181
ካዜ	-9182
ካድ	-9183
ክኑ	-9184
ክና	-9185
ኮሳ	-9186
ኳይ	-9187
ወረ	-9188
ወቀ	-9189
ወት	-9190
ወን	-9191
ወዱ	-9192
ዊሚ	-9193
ዋሉ	-9194
ዋስ	-9195
ዋው	-9196
ዋዕ	-9197
ውላ	-9198
ውል	-9199
ውጣ	-9200
ዎ፣	-9201
ዐዛ	-9202
ዑል	-9203
ዓል	-9204
ዓቱ	-9205
ዕም	-9206
ዕተ	-9207
ዘራ	-9208
ዘቱ	-9209
ዘኑ	-9210
ዘኛ	-9211
ዘዙ	-9212
ዘጉ	-9213
ዚል	-9214
ዛሬ	-9215
ዛቢ	-9216
ዜም	-9217
ዝቤ	-9218
ዝዎ	-9219
ዞረ	-9220
ዞሩ	-9221
ዞሽ	-9222
ዟዟ	-9223
ዠቅ	-9224
ዠት	-9225
ዥን	-9226
የሌ	-9227
የል	-9228
የሟ	-9229
የሱ	-9230
የብ	-9231
የቱ	-9232
የና	-9233
የዋ	-9234
ዩኔ	-9235
ዩ፣	-9236
ያል	-9237
ያዜ	-9238
ያዬ	-9239
ዬሙ	-9240
ይሬ	-9241
ይር	-9242
ይና	-9243
ይዙ	-9244
ዮቿ	-9245
ደኑ	-9246
ደኛ	-9247
ደዳ	-9248
ደጎ	-9249
ዲዮ	-9250
ዲ፣	-9251
ዳድ	-9252
ዳፊ	-9253
ድም	-9254
ድኚ	-9255
ድግ	-9256
ዶ፣	-9257
ዷል	-9258
ዷን	-9259
ጀው	-9260
ጄኖ	-9261
ጅቶ	-9262
ጅና	-9263
ገሣ	-9264
ገገ	-9265
ገጽ	-9266
ጉሟ	-9267
ጉረ	-9268
ጊ፤	-9269
ጋበ	-9270
ጋታ	-9271
ጌን	-9272
ጌጥ	-9273
ግሥ	-9274
ግቢ	-9275
ግቶ	-9276
ግጄ	-9277
ጓሮ	-9278
ጓዙ	-9279
ጠሯ	-9280
ጠቂ	-9281
ጠቱ	-9282
ጠጠ	-9283
ጠጣ	-9284
ጡም	-9285
ጢል	-9286
ጢጥ	-9287
ጣሉ	-9288
ጣረ	-9289
ጣኔ	-9290
ጣዊ	-9291
ጣጠ	-9292
ጤፍ	-9293
ጥሞ	-9294
ጥቼ	-9295
ጥኝ	-9296
ጥኩ	-9297
ጦት	-9298
ጧን	-9299
ጧጡ	-9300
ጨቅ	-9301
ጨው	-9302
ጩም	-9303
ጩን	-9304
ጫት	-9305
ጫጫ	-9306
ጬን	-9307
ጭስ	-9308
ጮኸ	-9309
ጸና	-9310
ጹና	-9311
ጽኖ	-9312
ፅኦ	-9313
ፅዖ	-9314
ፈሌ	-9315
ፈዋ	-9316
ፈጠ	-9317
ፉና	-9318
ፊል	-9319
ፋር	-9320
ፋፉ	-9321
ፍነ	-9322
ፍያ	-9323
ፍ፣	-9324
ፏት	-9325
ፐሬ	-9326
ፖል	-9327
▁R	-9328
▁m	-9329
▁ሀ	-9330
▁ኡ	-9331
▁ዌ	-9332
▁ዴ	-9333
▁ፒ	-9334
▁፪	-9335
▁፫	-9336
log	-9337
ሃቸው	-9338
ህላዊ	-9339
ህነት	-9340
ሆነም	-9341
ሆንና	-9342
ለመን	-9343
ለመድ	-9344
ለበል	-9345
ለቱን	-9346
ለትና	-9347
ለት፤	-9348
ለኛው	-9349
ለኝና	-9350
ለውም	-9351
ለው፤	-9352
ለዬን	-9353
ለፍን	-9354
ሉልኝ	-9355
ሉትም	-9356
ሉን፤	-9357
ሊቱን	-9358
ላለን	-9359
ልሞች	-9360
ልቅቆ	-9361
ልንና	-9362
ልፎች	-9363
መልክ	-9364
መረመ	-9365
መስላ	-9366
መስኮ	-9367
መስገ	-9368
መቻቸ	-9369
መንት	-9370
መጡን	-9371
ሙበት	-9372
ማመና	-9373
ማመኔ	-9374
ማረው	-9375
ማቱን	-9376
ማይሌ	-9377
ምረን	-9378
ምርና	-9379
ምንት	-9380
ሞትም	-9381
ሟገት	-9382
ሠራፋ	-9383
ሥራው	-9384
ረሰብ	-9385
ረበት	-9386
ረንም	-9387
ረውት	-9388
ረዳቱ	-9389
ሩበት	-9390
ሩት፤	-9391
ራመር	-9392
ራመድ	-9393
ራራት	-9394
ራገብ	-9395
ሬ፡፡	-9396
ርጉሞ	-9397
ሮችና	-9398
ሯል፤	-9399
ላክና	-9400
ልፍም	-9401
መትና	-9402
ሜቴን	-9403
ረጃው	-9404
ርኩ፣	-9405
ሰማም	-9406
ሰበኝ	-9407
ሰበው	-9408
ሱልኝ	-9409
ሳምም	-9410
ሳቸዋ	-9411
ሳችው	-9412
ሴቶች	-9413
ስተኝ	-9414
ስተካ	-9415
ስቸገ	-9416
ስገድ	-9417
ሶቹን	-9418
ሷል፤	-9419
ሷቸው	-9420
ሸራት	-9421
ሸነቁ	-9422
ሸጋገ	-9423
ሺዎች	-9424
ሻውን	-9425
ሻጊው	-9426
ሽምግ	-9427
ሽውን	-9428
ቀለች	-9429
ቀልዱ	-9430
ቀሰች	-9431
ቀሴን	-9432
ቀስም	-9433
ቀብር	-9434
ቀትና	-9435
ቀናጀ	-9436
ቀንና	-9437
ቀኛል	-9438
ቀኝም	-9439
ቀደል	-9440
ቁሮች	-9441
ቅምት	-9442
ቅርት	-9443
ቅስና	-9444
ቅጥጥ	-9445
ቆረጡ	-9446
ቆንጆ	-9447
ቋቋሙ	-9448
በል፣	-9449
በረው	-9450
በረግ	-9451
በርድ	-9452
በሰበ	-9453
በቀል	-9454
በብኩ	-9455
በንን	-9456
በኝን	-9457
በከው	-9458
ቡታሬ	-9459
ቡትን	-9460
ቡድኑ	-9461
ባለም	-9462
ባል፤	-9463
ባባሪ	-9464
ባት፤	-9465
ባክን	-9466
ብርም	-9467
ብር፣	-9468
ብደባ	-9469
ቦቹን	-9470
ቦንን	-9471
ተርክ	-9472
ተሰብ	-9473
ተትና	-9474
ተነሥ	-9475
ተኛች	-9476
ተኛና	-9477
ተውሽ	-9478
ተውቱ	-9479
ተው፣	-9480
ቱንም	-9481
ቱን፣	-9482
ቲንግ	-9483
ታታታ	-9484
ታኑን	-9485
ቴሌቪ	-9486
ቴንና	-9487
ቴን፣	-9488
ትንሽ	-9489
ቶሊክ	-9490
ቶችም	-9491
ቸውም	-9492
ቸግሩ	-9493
ቹን፣	-9494
ቻለም	-9495
ችሁና	-9496
ችኝ፤	-9497
ነትም	-9498
ነትሽ	-9499
ላውቅ	-9500
ልልቅ	-9501
መነው	-9502
መኔና	-9503
መጣኝ	-9504
ቀምሩ	-9505
ቀው፣	-9506
ቅቀው	-9507
ቆኛል	-9508
በረኩ	-9509
ታወሰ	-9510
ነታተ	-9511
ነውን	-9512
ነዝር	-9513
ነግሩ	-9514
ነፍሴ	-9515
ኑትን	-9516
ናልፍ	-9517
ናትሽ	-9518
ናት፣	-9519
ኔታው	-9520
ንቆች	-9521
ንብዬ	-9522
ንተረ	-9523
ንችል	-9524
ንናጥ	-9525
ንክች	-9526
ንኳን	-9527
ንዴም	-9528
ንግድ	-9529
ኖር፣	-9530
ኛለሁ	-9531
ኛለሽ	-9532
ኝም፣	-9533
አንተ	-9534
አዬ፣	-9535
ኦቶማ	-9536
ከሰቱ	-9537
ከቸኩ	-9538
ከንና	-9539
ከፍቱ	-9540
ኩርና	-9541
ኩትም	-9542
ካሂዶ	-9543
ካቶች	-9544
ካችን	-9545
ካከር	-9546
ካክ፣	-9547
ክስት	-9548
ክስና	-9549
ክፈል	-9550
ኳችሁ	-9551
ኳችው	-9552
ወሰና	-9553
ወሰድ	-9554
ወቀኝ	-9555
ወደስ	-9556
ወደቀ	-9557
ወደኝ	-9558
ወጡት	-9559
ወጣቱ	-9560
ዋዎች	-9561
ዋደዱ	-9562
ዕይን	-9563
ዕድል	-9564
ዘርዝ	-9565
ዘገየ	-9566
ዘጋጅ	-9567
ዘጋጇ	-9568
ዛወሩ	-9569
ዛዘን	-9570
ዛገበ	-9571
ዜማው	-9572
ዝርዝ	-9573
ዣበበ	-9574
የትና	-9575
የዘር	-9576
ያል፤	-9577
ያትን	-9578
ያንም	-9579
ዬ፡፡	-9580
ይሻና	-9581
ይትድ	-9582
ይኸው	-9583
ይይት	-9584
ዮችን	-9585
ደሰተ	-9586
ደብና	-9587
ደችው	-9588
ደድ፣	-9589
ደ፡፡	-9590
ዲሶቹ	-9591
ዳማሲ	-9592
ዳዮች	-9593
ድመት	-9594
ድርጉ	-9595
ድብና	-9596
ድፈው	-9597
ዶቹም	-9598
ዷል፣	-9599
ለበሰ	-9600
ላሩን	-9601
ማማር	-9602
ረመው	-9603
ረት፣	-9604
ሪዎቹ	-9605
ስቲቭ	-9606
ቀረት	-9607
ቂት፣	-9608
ቋጦው	-9609
ኩት፡	-9610
ኪዳን	-9611
ወድም	-9612
ደብቅ	-9613
ዳዩን	-9614
ዷል፤	-9615
ጀመሬ	-9616
ጀምሩ	-9617
ጀውን	-9618
ጂዎች	-9619
ጅቱን	-9620
ገረም	-9621
ገረን	-9622
ገርሜ	-9623
ገባባ	-9624
ገባደ	-9625
ገብና	-9626
ገብግ	-9627
ገተኛ	-9628
ገናኙ	-9629
ገናዊ	-9630
ገኘሁ	-9631
ገኘኝ	-9632
ገደድ	-9633
ገዳደ	-9634
ገ፡፡	-9635
ጉት፣	-9636
ጉዳት	-9637
ጋራዋ	-9638
ጋነን	-9639
ግህም	-9640
ግለጻ	-9641
ግሮቼ	-9642
ግሮች	-9643
ግስ፣	-9644
ግንቡ	-9645
ግደል	-9646
ጎስራ	-9647
ጎበኝ	-9648
ጎብኘ	-9649
ጎተት	-9650
ጎትና	-9651
ጠሉት	-9652
ጠራሩ	-9653
ጠራና	-9654
ጠቀች	-9655
ጠቢያ	-9656
ጠናቅ	-9657
ጠውና	-9658
ጠውን	-9659
ጠያየ	-9660
ጡንቻ	-9661
ጣት፣	-9662
ጣችን	-9663
ጣኝ፤	-9664
ጥረው	-9665
ጥተዋ	-9666
ጧት፣	-9667
ጨብጥ	-9668
ጨፍጨ	-9669
ጫረስ	-9670
ጭራሽ	-9671
ጭዎቹ	-9672
ጯቸው	-9673
ጸውን	-9674
ጹሐን	-9675
ጻጻፍ	-9676
ጽሔት	-9677
ጾችን	-9678
ፈለጋ	-9679
ፈልጊ	-9680
ፈሩም	-9681
ፈራች	-9682
ፈወስ	-9683
ፈጠር	-9684
ፈጥሩ	-9685
ፋለን	-9686
ፋችሁ	-9687
ፍረው	-9688
ፍራቱ	-9689
ፍቀር	-9690
ፍታቻ	-9691
ፍቶች	-9692
▁(1	-9693
▁41	-9694
▁47	-9695
▁49	-9696
▁64	-9697
▁75	-9698
▁ሁላ	-9699
ለችም	-9700
ለች፣	-9701
ሉልን	-9702
ሣቅን	-9703
ረምት	-9704
ሰሙት	-9705
በላና	-9706
ነኞቹ	-9707
ናገረ	-9708
ኞችሽ	-9709
ኞችና	-9710
ከለላ	-9711
ከሰል	-9712
ድኑት	-9713
ጥለቅ	-9714
▁ሄዱ	-9715
▁ለቤ	-9716
▁ለን	-9717
▁ለጨ	-9718
▁ለፍ	-9719
▁ሊል	-9720
▁ሊሴ	-9721
▁ሊጎ	-9722
▁ላም	-9723
▁ላስ	-9724
▁ላባ	-9725
▁ላጣ	-9726
▁ልል	-9727
▁ልቡ	-9728
▁ልደ	-9729
▁ሐብ	-9730
▁ሕገ	-9731
▁ሕግ	-9732
▁መሄ	-9733
▁መሞ	-9734
▁መሽ	-9735
▁መባ	-9736
▁መት	-9737
▁መች	-9738
▁መዳ	-9739
▁መፈ	-9740
▁ማሪ	-9741
▁ማሸ	-9742
▁ማሽ	-9743
▁ማቅ	-9744
▁ማቆ	-9745
▁ማተ	-9746
▁ማዶ	-9747
▁ምት	-9748
▁ምኑ	-9749
▁ምድ	-9750
▁ሞላ	-9751
▁ሞቃ	-9752
▁ሞኝ	-9753
▁ረጋ	-9754
▁ራይ	-9755
▁ርቃ	-9756
▁ርቦ	-9757
▁ሮጥ	-9758
▁ሰሚ	-9759
▁ሰፋ	-9760
▁ሲሸ	-9761
▁ሲከ	-9762
▁ሲዘ	-9763
▁ሲጥ	-9764
▁ሳህ	-9765
▁ሳታ	-9766
▁ሳና	-9767
▁ሳግ	-9768
▁ስመ	-9769
▁ስሟ	-9770
▁ስራ	-9771
▁ስቴ	-9772
▁ስቶ	-9773
▁ሽታ	-9774
▁ሾር	-9775
▁ቀለ	-9776
▁ቀኑ	-9777
▁ቀዬ	-9778
▁ቀደ	-9779
▁ቁና	-9780
▁ቁጡ	-9781
▁ቃጣ	-9782
▁ቅል	-9783
▁ቅድ	-9784
▁ቅጠ	-9785
▁ቆረ	-9786
▁ቆሳ	-9787
▁ቆስ	-9788
▁በቸ	-9789
▁በኅ	-9790
▁በክ	-9791
▁በያ	-9792
▁በጄ	-9793
▁በፋ	-9794
▁ቢል	-9795
▁ቢሳ	-9796
▁ቢጣ	-9797
▁ቢፈ	-9798
▁ባስ	-9799
rep	-9800
ማማቾ	-9801
ረዳኝ	-9802
ረግብ	-9803
ሳይድ	-9804
ቆጥር	-9805
በላም	-9806
ድነን	-9807
ገል፣	-9808
ገቡት	-9809
ገኝቷ	-9810
ገኝ፣	-9811
ግብረ	-9812
ግብና	-9813
ፈተሽ	-9814
▁80	-9815
▁ባታ	-9816
▁ብሄ	-9817
▁ብዥ	-9818
▁ቦስ	-9819
▁ተላ	-9820
▁ተሣ	-9821
▁ተተ	-9822
▁ተያ	-9823
▁ተጀ	-9824
▁ተገ	-9825
▁ተግ	-9826
▁ተጎ	-9827
▁ተፍ	-9828
▁ታመ	-9829
▁ታማ	-9830
▁ታቅ	-9831
▁ታዝ	-9832
▁ታዩ	-9833
▁ታድ	-9834
▁ታፍ	-9835
▁ቴል	-9836
▁ትም	-9837
▁ነቀ	-9838
▁ነዋ	-9839
▁ናዚ	-9840
▁ንቀ	-9841
▁ንፋ	-9842
▁ኖሬ	-9843
▁አሾ	-9844
▁አዎ	-9845
▁አዞ	-9846
▁አጮ	-9847
▁አፋ	-9848
▁ኢተ	-9849
▁ኢን	-9850
▁ኤል	-9851
▁ኤፕ	-9852
▁እሥ	-9853
▁እሺ	-9854
▁እወ	-9855
▁እዩ	-9856
▁እዪ	-9857
▁እይ	-9858
▁እጁ	-9859
▁ከሃ	-9860
▁ከላ	-9861
▁ከሲ	-9862
▁ከቁ	-9863
▁ከቶ	-9864
▁ከኢ	-9865
▁ካር	-9866
▁ካየ	-9867
▁ካጡ	-9868
▁ክላ	-9869
▁ክም	-9870
▁ወክ	-9871
▁ወግ	-9872
▁ወጭ	-9873
▁ወፍ	-9874
▁ዋል	-9875
▁ውል	-9876
▁ውሻ	-9877
▁ውቤ	-9878
▁ውዴ	-9879
▁ዎች	-9880
▁ዘለ	-9881
▁ዘፈ	-9882
▁ዜጋ	-9883
▁ዝጊ	-9884
▁የህ	-9885
▁የሮ	-9886
▁የሽ	-9887
▁የኮ	-9888
▁የዝ	-9889
▁የይ	-9890
▁የጉ	-9891
▁የጋ	-9892
▁የጨ	-9893
▁የጫ	-9894
▁የፊ	-9895
▁የፎ	-9896
▁ያሸ	-9897
▁ያይ	-9898
▁ያገ	-9899
መኖች	-9900
ርኩ፤	-9901
በሉን	-9902
በልጡ	-9903
በቡም	-9904
በቱና	-9905
ተዋሃ	-9906
ጀራዬ	-9907
ገኙታ	-9908
ገጠመ	-9909
▁85	-9910
▁ሃቅ	-9911
▁ሥጋ	-9912
▁ረቂ	-9913
▁ዣኒ	-9914
▁ያጋ	-9915
▁ያጡ	-9916
▁ያፈ	-9917
▁ይሉ	-9918
▁ይረ	-9919
▁ይራ	-9920
▁ይሽ	-9921
▁ይቁ	-9922
▁ይኩ	-9923
▁ይኸ	-9924
▁ይጥ	-9925
▁ይጨ	-9926
▁ደበ	-9927
▁ደን	-9928
▁ደከ	-9929
▁ደጋ	-9930
▁ድል	-9931
▁ድው	-9932
▁ድፍ	-9933
▁ገሃ	-9934
▁ገቡ	-9935
▁ገጥ	-9936
▁ጉባ	-9937
▁ጋል	-9938
▁ጋዝ	-9939
▁ግም	-9940
▁ግባ	-9941
▁ግጭ	-9942
▁ግፍ	-9943
▁ጠቢ	-9944
▁ጠጋ	-9945
▁ጠፍ	-9946
▁ጥሻ	-9947
▁ጥቃ	-9948
▁ጦስ	-9949
▁ጨፍ	-9950
▁ጫና	-9951
▁ጭኖ	-9952
▁ጸጋ	-9953
▁ጸጸ	-9954
▁ጽዋ	-9955
▁ፈሪ	-9956
▁ፈታ	-9957
▁ፈክ	-9958
▁ፈጀ	-9959
▁ፈጽ	-9960
▁ፊዚ	-9961
▁ፍም	-9962
1999	-9963
Clas	-9964
Left	-9965
Prep	-9966
mbol	-9967
ሀላችን	-9968
ሀገር፣	-9969
ሁሉንም	-9970
ሁባቸው	-9971
ሄደውን	-9972
ህሊናው	-9973
ህንነት	-9974
ሆናችን	-9975
ሆንልኝ	-9976
ሆንን፣	-9977
ለማመን	-9978
ለምለም	-9979
ለምሳሌ	-9980
ለቄታው	-9981
ለቆዎቿ	-9982
ለበለበ	-9983
ለባቸው	-9984
ለብሰው	-9985
ለዩትን	-9986
ለያየን	-9987
ሉም፡፡	-9988
ሉኝ፡፡	-9989
ላለቅስ	-9990
ላላቆቼ	-9991
ላቸውና	-9992
ላቸው፤	-9993
ላችሁን	-9994
ላችሁ፣	-9995
ላችሁ፤	-9996
ላው፡፡	-9997
ላጆችን	-9998
ልቅልቅ	-9999
ላውስ	-10000
በሳጩ	-10001
በነገ	-10002
ነሡን	-10003
ውቃት	-10004
ዝን፣	-10005
ጠፈው	-10006
ፈውና	-10007
▁ኃጢ	-10008
▁ናፈ	-10009
ለያየት	-10010
ልቅበት	-10011
ልና፡፡	-10012
ልንበት	-10013
ልክልኝ	-10014
ልኳቸው	-10015
ልደውን	-10016
ልጣንና	-10017
መለሱም	-10018
መልህቅ	-10019
መስማት	-10020
መንገዱ	-10021
መኗቸው	-10022
መዘግብ	-10023
ማርበት	-10024
ማውያን	-10025
ምራቸው	-10026
ምጣትና	-10027
ረን፡፡	-10028
ረውብኝ	-10029
ረግጠው	-10030
ሩኝ፡፡	-10031
ራል፡፡	-10032
ራርሰው	-10033
ራርተው	-10034
ራቸውም	-10035
ራዊትን	-10036
ሬንስና	-10037
ርፉበት	-10038
ሮበሎች	-10039
ሰቅሰቄ	-10040
ሰበልኝ	-10041
ሰበሰበ	-10042
ሰባሰብ	-10043
ሰባችን	-10044
ሰናበት	-10045
ሰጣችሁ	-10046
ሳለፍኩ	-10047
ሳምንቱ	-10048
ሴቶቹም	-10049
ሴኔጋል	-10050
ስባቸው	-10051
ስቱንም	-10052
ስታውሰ	-10053
ስትነት	-10054
ሻለሁ፤	-10055
ቀላቀሉ	-10056
ቀበለው	-10057
ቀባቸው	-10058
ቀኛል፤	-10059
ቀዋል፤	-10060
ቀጥለው	-10061
ቀጥሉት	-10062
ቂኝ፡፡	-10063
ቃላችሁ	-10064
ቆጣጠሩ	-10065
በላቸው	-10066
በረታቻ	-10067
በረከት	-10068
በሬድዮ	-10069
በርታት	-10070
በታቸው	-10071
በዋል፣	-10072
ቢያቸው	-10073
ባበረው	-10074
ባቢውን	-10075
ባታችን	-10076
ባቸውም	-10077
ባቸው፤	-10078
ቤተሰቦ	-10079
ብሔሩን	-10080
ተላለፍ	-10081
ተረፈሽ	-10082
ተኛውን	-10083
ተኞቹን	-10084
ተዋቸው	-10085
ቱት፡፡	-10086
ቱኝ፡፡	-10087
ታተፉት	-10088
ታቸውና	-10089
ታደራዊ	-10090
ቷቸዋል	-10091
ቸዋለን	-10092
ቻለሁ፣	-10093
ቻል፡፡	-10094
ቻት፡፡	-10095
ቻቸውና	-10096
ቼዋለሁ	-10097
ችኋለን	-10098
ኋቸውን	-10099
ለህም	-10100
መሰረ	-10101
ረፍት	-10102
ሳይና	-10103
ስብም	-10104
ሻሻለ	-10105
ንብሼ	-10106
ኪጋሊ	-10107
ካካይ	-10108
ወድሶ	-10109
ደፈሩ	-10110
ጨፍሩ	-10111
ጸልዩ	-10112
ጸልያ	-10113
▁ኤም	-10114
▁ጌጤ	-10115
ሏቸው፤	-10116
ሪያለሽ	-10117
ራሳችን	-10118
ሰማኝም	-10119
ቀላቀለ	-10120
ቀረቀረ	-10121
ቂያቸው	-10122
ቢያለሽ	-10123
ተሰሜን	-10124
ነሳውን	-10125
ነበሩም	-10126
ነበራት	-10127
ነብበት	-10128
ነትሽን	-10129
ነግሩን	-10130
ነግራት	-10131
ኑት፡፡	-10132
ናሁ፡፡	-10133
ናገርም	-10134
ናፍቆት	-10135
ንተገተ	-10136
ንናገር	-10137
ንዛኒያ	-10138
ንፈኞች	-10139
ኖራትና	-10140
ኗቸውን	-10141
ኝቻለሁ	-10142
አሎይዜ	-10143
አእምሮ	-10144
አይዞሽ	-10145
እቤትሽ	-10146
እየገደ	-10147
ከለሉት	-10148
ከለክል	-10149
ከለክን	-10150
ከላዊት	-10151
ከብረው	-10152
ከተልም	-10153
ከናውን	-10154
ኩበትን	-10155
ካታቸው	-10156
ክርስቶ	-10157
ክብካቤ	-10158
ኳቸውና	-10159
ወለደው	-10160
ወሰኝም	-10161
ወሰደብ	-10162
ወሰደው	-10163
ወሰድን	-10164
ወቅጠው	-10165
ወንድሙ	-10166
ወዳደር	-10167
ዊሚንስ	-10168
ዎትም፣	-10169
ዎቼንና	-10170
ዘላለሙ	-10171
ዘው፡፡	-10172
ዝቃዛው	-10173
የሰውን	-10174
የሱስን	-10175
ዩት፡፡	-10176
ዩኔስት	-10177
ዩዋቸው	-10178
ያለሁ፣	-10179
ያትተው	-10180
ያቸውን	-10181
ያውነት	-10182
ይታችን	-10183
ደረጉት	-10184
ደረጉን	-10185
ደራጀና	-10186
ደርስና	-10187
ደርገን	-10188
ደርጉት	-10189
ደበቂያ	-10190
ደናገጡ	-10191
ዳል፡፡	-10192
ዳምጭኝ	-10193
ድረግም	-10194
ድኑናል	-10195
ጀታቸው	-10196
ጁበትን	-10197
ገላበጥ	-10198
ገልጸው	-10199
Org	-10200
ለቱም	-10201
ሠቀጥ	-10202
ረመል	-10203
ረቱም	-10204
ሰት፣	-10205
ቆምና	-10206
ባባስ	-10207
ተኝና	-10208
ካም፣	-10209
ወርዳ	-10210
የውም	-10211
የውና	-10212
ግም፣	-10213
ጠርም	-10214
ጠናሁ	-10215
ጡኝን	-10216
ጸዳዳ	-10217
ጹም፣	-10218
▁ሸር	-10219
▁ሸሸ	-10220
▁ሸክ	-10221
▁ዶፍ	-10222
▁ጤዛ	-10223
▁ፖት	-10224
Orga	-10225
መስልም	-10226
ሳሰበም	-10227
ንጋጠጥ	-10228
ወርወር	-10229
ወደውና	-10230
ዣበብኩ	-10231
ገረንና	-10232
ገባበት	-10233
ገባኛል	-10234
ገናኘች	-10235
ገናዘብ	-10236
ገንባት	-10237
ገኙ፡፡	-10238
ገኛችሁ	-10239
ገኝለት	-10240
ገኝልኝ	-10241
ገኝቷል	-10242
ገዛችው	-10243
ገደለው	-10244
ገደሉን	-10245
ገድልም	-10246
ጉም፡፡	-10247
ጉሟል፤	-10248
ጉድጓዱ	-10249
ጋለሁ፤	-10250
ጋል፡፡	-10251
ጋብዝዎ	-10252
ጋን፡፡	-10253
ግባባት	-10254
ግንነት	-10255
ጎምኩት	-10256
ጎቻችን	-10257
ጓል፡፡	-10258
ጠረውን	-10259
ጠራቀም	-10260
ጠራቸው	-10261
ጠራጥር	-10262
ጠሯትም	-10263
ጠች፡፡	-10264
ጠናከር	-10265
ጠን፡፡	-10266
ጠይቀው	-10267
ጡን፡፡	-10268
ጣንበት	-10269
ጥርበት	-10270
ጥን፡፡	-10271
ጥፋተኛ	-10272
ጨረሰው	-10273
ጨናነቀ	-10274
ጨናነቁ	-10275
ጭራቆች	-10276
ጭነት፣	-10277
ጽሕፈት	-10278
ጽናናት	-10279
ጽያንና	-10280
ጾቻቸው	-10281
ፈለገው	-10282
ፈልገዋ	-10283
ፈልግሽ	-10284
ፈሰፈሱ	-10285
ፈበረኩ	-10286
ፈበትና	-10287
ፋቸውና	-10288
▁101	-10289
▁114	-10290
▁115	-10291
▁119	-10292
▁129	-10293
▁143	-10294
▁165	-10295
▁170	-10296
▁183	-10297
▁198	-10298
▁215	-10299
ሞከረ	-10300
ረብሽ	-10301
ረብታ	-10302
ርክዬ	-10303
ቀዋል	-10304
በታል	-10305
ባልታ	-10306
ባርና	-10307
ብሱኑ	-10308
ቦችና	-10309
ደብድ	-10310
ገዛዙ	-10311
ጠዋቱ	-10312
ጠጋቷ	-10313
ፈጣሪ	-10314
▁40	-10315
▁ጌሾ	-10316
በቃችሁ	-10317
ኛችንም	-10318
ከላቴን	-10319
ከላከላ	-10320
ጓውያን	-10321
ጠናሁና	-10322
ጠገቡት	-10323
▁219	-10324
▁225	-10325
▁229	-10326
▁236	-10327
▁?››	-10328
▁mez	-10329
▁ሁሴን	-10330
▁ሁቱዋ	-10331
▁ሁቱው	-10332
▁ሁከት	-10333
▁ህጎች	-10334
▁ሆቴል	-10335
▁ሆነሽ	-10336
▁ሆነኝ	-10337
▁ለመተ	-10338
▁ለመጋ	-10339
▁ለመጥ	-10340
▁ለማል	-10341
▁ለማም	-10342
▁ለማዋ	-10343
▁ለማጽ	-10344
▁ለሞት	-10345
▁ለሥራ	-10346
▁ለቅን	-10347
▁ለብሶ	-10348
▁ለነሱ	-10349
▁ለአም	-10350
▁ለውድ	-10351
▁ለያይ	-10352
▁ለጽሑ	-10353
▁ሊመጣ	-10354
▁ሊሞት	-10355
▁ሊስቡ	-10356
▁ሊኖሩ	-10357
▁ላሞች	-10358
▁ላውቅ	-10359
▁ላዩን	-10360
▁ላይ፣	-10361
▁ላገኝ	-10362
▁ልመና	-10363
▁ልምድ	-10364
▁ልስት	-10365
▁ልባጥ	-10366
▁ልብሴ	-10367
▁ልኑር	-10368
▁ልጅ፣	-10369
▁ሐረግ	-10370
▁ሕያው	-10371
▁ሕፃን	-10372
▁መላላ	-10373
▁መመስ	-10374
▁መሣቅ	-10375
▁መራር	-10376
▁መሳል	-10377
▁መስሎ	-10378
▁መስሏ	-10379
▁መስቀ	-10380
▁መስኮ	-10381
▁መሻት	-10382
▁መቀስ	-10383
▁መቁረ	-10384
▁መቆም	-10385
▁መተው	-10386
▁መታጠ	-10387
▁መናፍ	-10388
▁መንታ	-10389
▁መኖሩ	-10390
▁መወሰ	-10391
▁መውጫ	-10392
▁መዐዛ	-10393
▁መደብ	-10394
▁መገም	-10395
▁ማለም	-10396
▁ማረኝ	-10397
▁ማወጁ	-10398
▁ማውራ	-10399
Ext	-10400
ሉኝ፤	-10401
ማመር	-10402
ረፉት	-10403
ቀዱን	-10404
ቁኝ፤	-10405
ነቀች	-10406
ነፍኩ	-10407
ከፍት	-10408
ክስቴ	-10409
ዋትሊ	-10410
ዘገይ	-10411
ደሰት	-10412
ጡት፤	-10413
ፈንታ	-10414
▁52	-10415
▁ሠጋ	-10416
ለየለት	-10417
ከባበሩ	-10418
ዳዮቿን	-10419
ጠነቀቅ	-10420
ፋፍለው	-10421
▁138	-10422
▁ሕጻን	-10423
▁ማገዙ	-10424
▁ማጣት	-10425
▁ማጽዳ	-10426
▁ምሁር	-10427
▁ምርም	-10428
▁ምሽቱ	-10429
▁ምታት	-10430
▁ምንጩ	-10431
▁ምግባ	-10432
▁ሥራና	-10433
▁ሥፍራ	-10434
▁ረገም	-10435
▁ራሴም	-10436
▁ሰላሳ	-10437
▁ሰማሁ	-10438
▁ሰማሄ	-10439
▁ሰማዩ	-10440
▁ሰርብ	-10441
▁ሰርግ	-10442
▁ሰባኪ	-10443
▁ሰፈር	-10444
▁ሲለኝ	-10445
▁ሲሠራ	-10446
▁ሲራኬ	-10447
▁ሲታይ	-10448
▁ሲነሣ	-10449
▁ሲኖሩ	-10450
▁ሲኖር	-10451
▁ሲያይ	-10452
▁ሲያድ	-10453
▁ሲያጎ	-10454
▁ሳህን	-10455
▁ሳልፍ	-10456
▁ሳነሳ	-10457
▁ሳንዳ	-10458
▁ሳገኝ	-10459
▁ሳጠና	-10460
▁ስለበ	-10461
▁ስለቱ	-10462
▁ስለኔ	-10463
▁ስለአ	-10464
▁ስለው	-10465
▁ስምር	-10466
▁ስታይ	-10467
▁ስናይ	-10468
▁ስንል	-10469
▁ስገባ	-10470
▁ስፈራ	-10471
▁ሸፍና	-10472
▁ሻንጣ	-10473
▁ሽታው	-10474
▁ቀረብ	-10475
▁ቀሪው	-10476
▁ቀብር	-10477
▁ቀጣና	-10478
▁ቁልፉ	-10479
▁ቁመና	-10480
▁ቁርስ	-10481
▁ቄሱና	-10482
▁ቅዳሜ	-10483
▁ቆዳው	-10484
▁በሄሬ	-10485
▁በሄደ	-10486
▁በሄድ	-10487
▁በልጦ	-10488
▁በመነ	-10489
▁በመጻ	-10490
▁በማር	-10491
▁በማሳ	-10492
▁በማው	-10493
▁በምህ	-10494
▁በሠራ	-10495
▁በሣቅ	-10496
▁በራፉ	-10497
▁በሰኔ	-10498
▁በቀን	-10499
ለበሱ	-10500
ለታል	-10501
ረድኩ	-10502
ባበጡ	-10503
ብረር	-10504
ቦገቦ	-10505
ነካና	-10506
ወለሉ	-10507
ዎታል	-10508
ያየን	-10509
▁ኒኪ	-10510
ለችምና	-10511
ምና፡፡	-10512
ረጋገጠ	-10513
ሰበውም	-10514
ስተዳዳ	-10515
ቀውታል	-10516
ተኝነት	-10517
ኖራችሁ	-10518
ገናኘን	-10519
ገኟቸዋ	-10520
ግራሞት	-10521
ጨነቅሁ	-10522
ፈጽሙ፣	-10523
▁208	-10524
▁232	-10525
▁600	-10526
▁ማሰቡ	-10527
▁ሜትር	-10528
▁ቀስቅ	-10529
▁በቀይ	-10530
▁በቁር	-10531
▁በቁጥ	-10532
▁በቂዬ	-10533
▁በበሽ	-10534
▁በበጎ	-10535
▁በባሏ	-10536
▁በተሳ	-10537
▁በኛና	-10538
▁በአመ	-10539
▁በአሳ	-10540
▁በአታ	-10541
▁በእኛ	-10542
▁በከረ	-10543
▁በወገ	-10544
▁በየዕ	-10545
▁በያዙ	-10546
▁በደመ	-10547
▁በደፈ	-10548
▁በገደ	-10549
▁በጋት	-10550
▁በግም	-10551
▁በግድ	-10552
▁በጎበ	-10553
▁በጣት	-10554
▁በፊቷ	-10555
▁በፍራ	-10556
▁ቢመጡ	-10557
▁ቢመጣ	-10558
▁ቢችሉ	-10559
▁ቢያዩ	-10560
▁ቢያጠ	-10561
▁ቢገኝ	-10562
▁ባህር	-10563
▁ባለማ	-10564
▁ባርኬ	-10565
▁ባቀረ	-10566
▁ባንተ	-10567
▁ባውቅ	-10568
▁ባደረ	-10569
▁ቤቱም	-10570
▁ብልህ	-10571
▁ብሎኝ	-10572
▁ብርክ	-10573
▁ብታዩ	-10574
▁ብትን	-10575
▁ብቻ፣	-10576
▁ብንራ	-10577
▁ብዙው	-10578
▁ቦታና	-10579
▁ተለው	-10580
▁ተሠራ	-10581
▁ተራራ	-10582
▁ተርታ	-10583
▁ተሰባ	-10584
▁ተሰኘ	-10585
▁ተሰው	-10586
▁ተስኖ	-10587
▁ተሸፍ	-10588
▁ተቃር	-10589
▁ተበሳ	-10590
▁ተባረ	-10591
▁ተነሡ	-10592
▁ተነጥ	-10593
▁ተኝታ	-10594
▁ተወራ	-10595
▁ተዋን	-10596
▁ተውጬ	-10597
▁ተደስ	-10598
▁ተደግ	-10599
ለብት	-10600
መረዙ	-10601
ሪጎሪ	-10602
ራው፣	-10603
ሲያዊ	-10604
ሳየኝ	-10605
ቀደና	-10606
ቶቼና	-10607
የሁቱ	-10608
ያይሮ	-10609
ደገም	-10610
ጮኸው	-10611
▁83	-10612
▁94	-10613
ሂድ፡፡	-10614
ለብኩና	-10615
ሳቁል፣	-10616
ስታወት	-10617
ናንተን	-10618
ክልልና	-10619
▁153	-10620
▁ሌፍት	-10621
▁ልጄን	-10622
▁መርህ	-10623
▁ሚስቱ	-10624
▁በሙቀ	-10625
▁በቁም	-10626
▁ባልተ	-10627
▁ተኩል	-10628
▁ተገለ	-10629
▁ተገደ	-10630
▁ተጓዝ	-10631
▁ተጠም	-10632
▁ተጠቂ	-10633
▁ተጠን	-10634
▁ታትመ	-10635
▁ታክል	-10636
▁ታየኝ	-10637
▁ታጅቦ	-10638
▁ትሁት	-10639
▁ትሰማ	-10640
▁ትተን	-10641
▁ትተው	-10642
▁ትኖራ	-10643
▁ትኩር	-10644
▁ትደር	-10645
▁ትፈል	-10646
▁ቻልሽ	-10647
▁ቻድ፣	-10648
▁ችግሮ	-10649
▁ነሽ፣	-10650
▁ነኝ፣	-10651
▁ነውር	-10652
▁ነውና	-10653
▁ነዳጅ	-10654
▁ነጠላ	-10655
▁ንጋት	-10656
▁አለህ	-10657
▁አለና	-10658
▁አለን	-10659
▁አላቀ	-10660
▁አላባ	-10661
▁አልቆ	-10662
▁አልደ	-10663
▁አልጨ	-10664
▁አልፈ	-10665
▁አመቷ	-10666
▁አመቺ	-10667
▁አምሮ	-10668
▁አምጥ	-10669
▁አረፍ	-10670
▁አስሬ	-10671
▁አስቆ	-10672
▁አስብ	-10673
▁አስካ	-10674
▁አቁሞ	-10675
▁አቃሰ	-10676
▁አቃጠ	-10677
▁አቅም	-10678
▁አቋረ	-10679
▁አበላ	-10680
▁አበራ	-10681
▁አባረ	-10682
▁አባዜ	-10683
▁አተኳ	-10684
▁አታው	-10685
▁አታዪ	-10686
▁አትና	-10687
▁አትጠ	-10688
▁አነብ	-10689
▁አናሳ	-10690
▁አንጓ	-10691
▁አክት	-10692
▁አዙሮ	-10693
▁አየሩ	-10694
▁አያሻ	-10695
▁አያቶ	-10696
▁አይቀ	-10697
▁አደር	-10698
▁አዳም	-10699
ልጅየ	-10700
ረመሩ	-10701
ሳዊት	-10702
ሸፍን	-10703
ተያይ	-10704
ዋደድ	-10705
ጋይና	-10706
ጸዳጃ	-10707
ልኩትም	-10708
ቸገርን	-10709
ከፋውን	-10710
ክለኛው	-10711
ገዳገድ	-10712
▁113	-10713
▁189	-10714
▁228	-10715
▁ሁናቴ	-10716
▁ሃሳብ	-10717
▁ማከና	-10718
▁ራስን	-10719
▁ሲጨፈ	-10720
▁ቁስል	-10721
▁በኪቩ	-10722
▁ተያይ	-10723
▁ተገነ	-10724
▁ታስሮ	-10725
▁አዳሪ	-10726
▁አዳኜ	-10727
▁አገሬ	-10728
▁አገና	-10729
▁አግዘ	-10730
▁አጎት	-10731
▁አጠር	-10732
▁አጣም	-10733
▁አጣን	-10734
▁አጥታ	-10735
▁አጥኚ	-10736
▁ኢንስ	-10737
▁ኢንዲ	-10738
▁እህቷ	-10739
▁እሆን	-10740
▁እለት	-10741
▁እላዩ	-10742
▁እልፍ	-10743
▁እመል	-10744
▁እራፊ	-10745
▁እስቲ	-10746
▁እቅድ	-10747
▁እበር	-10748
▁እተኛ	-10749
▁እችል	-10750
▁እነሆ	-10751
▁እናል	-10752
▁እናይ	-10753
▁እንቀ	-10754
▁እኛስ	-10755
▁እኛና	-10756
▁እዚሁ	-10757
▁እየሳ	-10758
▁እየሸ	-10759
▁እየቃ	-10760
▁እየታ	-10761
▁እየነ	-10762
▁እየዶ	-10763
▁እየጠ	-10764
▁እያስ	-10765
▁እያነ	-10766
▁እደብ	-10767
▁እጆቼ	-10768
▁እገም	-10769
▁እጠብ	-10770
▁ኦፍቴ	-10771
▁ከሁሉ	-10772
▁ከሄደ	-10773
▁ከልቡ	-10774
▁ከመሸ	-10775
▁ከመቆ	-10776
▁ከመካ	-10777
▁ከመክ	-10778
▁ከመጋ	-10779
▁ከመጡ	-10780
▁ከመጥ	-10781
▁ከማለ	-10782
▁ከምር	-10783
▁ከምና	-10784
▁ከሥራ	-10785
▁ከራሱ	-10786
▁ከራስ	-10787
▁ከሰል	-10788
▁ከሰሚ	-10789
▁ከበሩ	-10790
▁ከበቡ	-10791
▁ከተስ	-10792
▁ከተፍ	-10793
▁ከነጭ	-10794
▁ከነፍ	-10795
▁ከአካ	-10796
▁ከእብ	-10797
▁ከውጪ	-10798
▁ከዢን	-10799
Den	-10800
ልበስ	-10801
ልድም	-10802
መራን	-10803
ቀደሰ	-10804
ነሱት	-10805
ኰንኑ	-10806
ሆችንና	-10807
ቃችኋል	-10808
ባቢያን	-10809
ባችኋል	-10810
▁ለሌላ	-10811
▁ርኩሰ	-10812
▁ስጋዊ	-10813
▁ቀልድ	-10814
▁ተወኝ	-10815
▁ታውሮ	-10816
▁አሰቀ	-10817
▁አጉል	-10818
▁እሷን	-10819
▁እቤቱ	-10820
▁ከራሴ	-10821
▁ከራሷ	-10822
▁ከባዱ	-10823
▁ከዳር	-10824
▁ከግፍ	-10825
▁ከጠራ	-10826
▁ከጨረ	-10827
▁ከፈፀ	-10828
▁ኩበት	-10829
▁ካልተ	-10830
▁ካሬራ	-10831
▁ካርድ	-10832
▁ካንተ	-10833
▁ካጌዮ	-10834
▁ክርኖ	-10835
▁ክሱን	-10836
▁ኮተት	-10837
▁ኮፍያ	-10838
▁ወለድ	-10839
▁ወርዶ	-10840
▁ወሰነ	-10841
▁ወንዙ	-10842
▁ወንጌ	-10843
▁ወደመ	-10844
▁ወደቀ	-10845
▁ወዳለ	-10846
▁ወድቄ	-10847
▁ወድጄ	-10848
▁ወገቡ	-10849
▁ውሃው	-10850
▁ውሱን	-10851
▁ዓይና	-10852
▁ዓይኔ	-10853
▁ዘመኔ	-10854
▁ዘረኝ	-10855
▁ዘጠኛ	-10856
▁ዝነኛ	-10857
▁ዝናቡ	-10858
▁የለፋ	-10859
▁የለ፣	-10860
▁የሉም	-10861
▁የመነ	-10862
▁የመጤ	-10863
▁የሙዝ	-10864
▁የሚበ	-10865
▁የሚነ	-10866
▁የሚዘ	-10867
▁የማታ	-10868
▁የማት	-10869
▁የማው	-10870
▁የማጉ	-10871
▁የማጣ	-10872
▁የሞላ	-10873
▁የሞቱ	-10874
▁የሥም	-10875
▁የራሱ	-10876
▁የሬሳ	-10877
▁የሰብ	-10878
▁የስም	-10879
▁የቁም	-10880
▁የበታ	-10881
▁የብር	-10882
▁የተጣ	-10883
▁የታሉ	-10884
▁የቻል	-10885
▁የኔም	-10886
▁የኖር	-10887
▁የአት	-10888
▁የአና	-10889
▁የአዲ	-10890
▁የአገ	-10891
▁የዚች	-10892
▁የዚያ	-10893
▁የዢን	-10894
▁የያዝ	-10895
▁የደም	-10896
▁የደግ	-10897
▁የድም	-10898
▁የድረ	-10899
ልከው	-10900
ሳሌት	-10901
ቀየረ	-10902
ቧደነ	-10903
ዊቷን	-10904
ልሽ፡፡	-10905
መልሰኝ	-10906
ሚያዩን	-10907
ቀየረች	-10908
ቀየሩት	-10909
ቸግሩኝ	-10910
ከራከር	-10911
ጓቸው፣	-10912
ፈርጁና	-10913
▁ሊትረ	-10914
▁ቆዳዬ	-10915
▁ተብዬ	-10916
▁ነበራ	-10917
▁ከሳች	-10918
▁ከስም	-10919
▁ውረዱ	-10920
▁የድኅ	-10921
▁የድን	-10922
▁የጄኖ	-10923
▁የጆሮ	-10924
▁የገረ	-10925
▁የገቡ	-10926
▁የገባ	-10927
▁የገነ	-10928
▁የገፋ	-10929
▁የግን	-10930
▁የግድ	-10931
▁የጠቀ	-10932
▁የጠየ	-10933
▁የጠፋ	-10934
▁የጣት	-10935
▁የጥቃ	-10936
▁የጭስ	-10937
▁የጽድ	-10938
▁የፈሩ	-10939
▁ያሉና	-10940
▁ያመን	-10941
▁ያመጡ	-10942
▁ያሠራ	-10943
▁ያርዳ	-10944
▁ያሰኘ	-10945
▁ያሰጥ	-10946
▁ያሳል	-10947
▁ያሳስ	-10948
▁ያሳየ	-10949
▁ያቀረ	-10950
▁ያቆማ	-10951
▁ያበቃ	-10952
▁ያባረ	-10953
▁ያትር	-10954
▁ያችን	-10955
▁ያንተ	-10956
▁ያንቺ	-10957
▁ያኮራ	-10958
▁ያወደ	-10959
▁ያዩዋ	-10960
▁ያድን	-10961
▁ያጠቃ	-10962
▁ያጠፋ	-10963
▁ያፈራ	-10964
▁ይሂዱ	-10965
▁ይሄዱ	-10966
▁ይለግ	-10967
▁ይላሉ	-10968
▁ይልና	-10969
▁ይሰሙ	-10970
▁ይሰብ	-10971
▁ይሰው	-10972
▁ይሰጠ	-10973
▁ይሻሻ	-10974
▁ይቀር	-10975
▁ይቀየ	-10976
▁ይቆጣ	-10977
▁ይችሉ	-10978
▁ይነበ	-10979
▁ይኖረ	-10980
▁ይወድ	-10981
▁ይዞ፣	-10982
▁ይድነ	-10983
▁ይጎዳ	-10984
▁ይጓጓ	-10985
▁ይጠራ	-10986
▁ይፈራ	-10987
▁ደካክ	-10988
▁ደደብ	-10989
▁ደገፍ	-10990
▁ደግና	-10991
▁ደግ፣	-10992
▁ዳርፉ	-10993
▁ዳኞቹ	-10994
▁ዳዊት	-10995
▁ድህረ	-10996
▁ድርሰ	-10997
▁ድርድ	-10998
▁ድቅን	-10999
ሸንፍ	-11000
ሻሽሉ	-11001
ቆርጡ	-11002
ተኮሬ	-11003
ትዋዛ	-11004
ችኝ፡	-11005
ነዘረ	-11006
ወቁና	-11007
ረናል፤	-11008
ሳሰረና	-11009
ሸማቀቁ	-11010
ቀየርሽ	-11011
ባችሁም	-11012
ብዛልን	-11013
ትዋዛን	-11014
ናችሁና	-11015
ዕድሜው	-11016
ደምጡኝ	-11017
ጠቀሙት	-11018
ጠይቀዋ	-11019
ፋፋለች	-11020
▁ለልጇ	-11021
▁መቀበ	-11022
▁መዘዝ	-11023
▁መጡና	-11024
▁ማወቁ	-11025
▁ሞትኩ	-11026
▁ሰዋስ	-11027
▁ቀጣዩ	-11028
▁ቆሻሻ	-11029
▁በኒው	-11030
▁ትግል	-11031
▁እቤቴ	-11032
▁ከርመ	-11033
▁ከሴት	-11034
▁ያቀና	-11035
▁ያተኮ	-11036
▁ይዟት	-11037
▁ደሴት	-11038
▁ድብቅ	-11039
▁ድግስ	-11040
▁ዶክት	-11041
▁ጀምራ	-11042
▁ገላጭ	-11043
▁ገማመ	-11044
▁ገረፍ	-11045
▁ገባች	-11046
▁ገባን	-11047
▁ገንቢ	-11048
▁ገድለ	-11049
▁ገድዬ	-11050
▁ጉልበ	-11051
▁ጉብኝ	-11052
▁ጋርቪ	-11053
▁ጋር፤	-11054
▁ጋሼ፣	-11055
▁ጋናዊ	-11056
▁ግላዊ	-11057
▁ግራና	-11058
▁ግርፋ	-11059
▁ግቢና	-11060
▁ግንድ	-11061
▁ግዳይ	-11062
▁ጠላቻ	-11063
▁ጠርጥ	-11064
▁ጠቃሚ	-11065
▁ጠቋሚ	-11066
▁ጠንቃ	-11067
▁ጠንቅ	-11068
▁ጣቶቼ	-11069
▁ጥበብ	-11070
▁ጥናት	-11071
▁ጦርና	-11072
▁ጦር፣	-11073
▁ጨረስ	-11074
▁ጭኖች	-11075
▁ጭፍን	-11076
▁ጸጉሩ	-11077
▁ጽናቷ	-11078
▁ጽፈው	-11079
▁ፈርጆ	-11080
▁ፈጠጡ	-11081
▁ፊቷን	-11082
▁ፋሪን	-11083
▁ፋሪ፣	-11084
▁ፍልስ	-11085
▁ፍጠኑ	-11086
▁ፖለቲ	-11087
▁ፖሊሲ	-11088
ሁትም፡፡	-11089
ሄድበትን	-11090
ሄድኩበት	-11091
ለችም፡፡	-11092
ላውቀውን	-11093
ልላል፡፡	-11094
ልንም፡፡	-11095
ልካቸውን	-11096
መለሰችው	-11097
መልጥበት	-11098
መሰረተና	-11099
ሮጌው	-11100
ሸነፈ	-11101
ዬዬም	-11102
ድመጥ	-11103
ጠነክ	-11104
ፈላጊ	-11105
ማሩንና	-11106
ስተምሩ	-11107
ታይምስ	-11108
ንድስና	-11109
አምስት	-11110
ዋጋትና	-11111
ጠራጠሩ	-11112
ጠነከር	-11113
▁ቆርጦ	-11114
▁አሻራ	-11115
▁እሱም	-11116
▁እሱው	-11117
▁ይዋጋ	-11118
▁ይፈጃ	-11119
▁ጉልህ	-11120
19592	-11121
መሰጥበት	-11122
መስላቸው	-11123
መድኩ፡፡	-11124
መጣባቸው	-11125
መጨረሻው	-11126
ማለች፡፡	-11127
ምቷል፡፡	-11128
ምናልባት	-11129
ምንም፡፡	-11130
ሞላባቸው	-11131
ሞቻችንና	-11132
ረችኝ፡፡	-11133
ረናል፡፡	-11134
ረኝም፡፡	-11135
ረጃሉ፡፡	-11136
ሩልን፡፡	-11137
ሩዋንዳው	-11138
ሯታል፡፡	-11139
ሰምኩበት	-11140
ሰቅሰቄም	-11141
ሰበኝ፡፡	-11142
ስተምሩን	-11143
ስታውቅም	-11144
ሸነቁጠኝ	-11145
ሻለን፡፡	-11146
ሽምግልና	-11147
ቀሰቅሳት	-11148
ቀነባበር	-11149
ቁትም፡፡	-11150
ቋቋምበት	-11151
በሀገሪቱ	-11152
በናል፡፡	-11153
ባለን፡፡	-11154
ባረሯቸው	-11155
ባረቀ፡፡	-11156
ብላላት፣	-11157
ብሔራችን	-11158
ብሽም፡፡	-11159
ተማመንና	-11160
ተኛባቸው	-11161
ተዋሃደኝ	-11162
ቱትሲዎቹ	-11163
ታለን፡፡	-11164
ታቸው፡፡	-11165
ታይባቸው	-11166
ቸገርበት	-11167
ቻሉም፡፡	-11168
ቻቸው፡፡	-11169
ቻችንን፣	-11170
ችኋለሁ፣	-11171
ነሣሽም፤	-11172
ነቀኝ፡፡	-11173
ነበበልኝ	-11174
ነውም፡፡	-11175
ናታቸውን	-11176
ንቀበል፣	-11177
ንከባከባ	-11178
ንደራችን	-11179
ንጸባራቂ	-11180
አለሁ፡፡	-11181
እባክዎን	-11182
ከላከልና	-11183
ከባከበው	-11184
ከታተል፣	-11185
ከትለውን	-11186
ኩትም፡፡	-11187
ወላጆችሽ	-11188
ወደድኩም	-11189
ወጡን፡፡	-11190
ዋለን፡፡	-11191
ዋወቅሁት	-11192
ዓምድር፣	-11193
ዘዋል፡፡	-11194
የሁም፡፡	-11195
የዳማሲን	-11196
ያናችንን	-11197
ያንሸራት	-11198
ያውቅበት	-11199
ናወጥ	-11200
ጆቿና	-11201
▁ጓድ	-11202
በላሸት	-11203
ነዘሩት	-11204
ንቋሸሽ	-11205
አንድን	-11206
ካሂደው	-11207
ጫወትና	-11208
ፈስኩና	-11209
▁መቃቃ	-11210
▁ማቆያ	-11211
▁ረዳት	-11212
▁ቀድማ	-11213
▁ተማም	-11214
▁አራጆ	-11215
▁እድሉ	-11216
▁ውርር	-11217
▁ዝርያ	-11218
▁ዞረው	-11219
▁የቄስ	-11220
▁ያሰለ	-11221
▁ጮህኩ	-11222
▁ፀሐይ	-11223
ነሳሳትን	-11224
ነቶቻቸው	-11225
ንገታቸው	-11226
ያዝኩ፡፡	-11227
ይማብልም	-11228
ደረገልኝ	-11229
ደርሰውን	-11230
ደርገኝም	-11231
ደርግልኝ	-11232
ደርግበት	-11233
ዳቸው፡፡	-11234
ድርጉልን	-11235
ድንላቸው	-11236
ጃገረዶች	-11237
ገለጠልኝ	-11238
ገመትኩም	-11239
ገቡም፡፡	-11240
ገባሁበት	-11241
ገባንበት	-11242
ገናኘትና	-11243
ገኛል፡፡	-11244
ገኝባቸው	-11245
ገዋል፡፡	-11246
ገደላችሁ	-11247
ጉረመረመ	-11248
ጋቸው፡፡	-11249
ግራቸውን	-11250
ግራችንን	-11251
ግብረገብ	-11252
ግደላቸው	-11253
ጠሉት፡፡	-11254
ጠረጴዛው	-11255
ጠራል፡፡	-11256
ጠርኩ፡፡	-11257
ጠቀምኩት	-11258
ጠበቅብኝ	-11259
ጠብቅልኝ	-11260
ጠያየቅና	-11261
ጥናሉ፡፡	-11262
ጨነቁ፡፡	-11263
ጨነቅህን	-11264
ጨፍጫፊው	-11265
ጫፊዎችና	-11266
ጸልኝ፡፡	-11267
ፈኛል፡፡	-11268
ፈጥሯቸው	-11269
ፉልኝ፡፡	-11270
▁ሀገሩን	-11271
▁ሀገራዊ	-11272
▁ሀገሬን	-11273
▁ሁሉ፡፡	-11274
▁ሁኔታና	-11275
▁ሂዱ፡፡	-11276
▁ሃሳቡን	-11277
▁ሃሳቦች	-11278
▁ሃይሌን	-11279
▁ሃይሎች	-11280
▁ህመምን	-11281
▁ሆናችሁ	-11282
▁ለሌላው	-11283
▁ለሌሎች	-11284
▁ለመላክ	-11285
▁ለመሳም	-11286
▁ለመዳን	-11287
▁ለመጻፍ	-11288
▁ለሚለግ	-11289
▁ለሚቀር	-11290
▁ለማቀፍ	-11291
▁ለማኖር	-11292
▁ለማግኘ	-11293
▁ለማፈን	-11294
▁ለሩአግ	-11295
▁ለብሰው	-11296
▁ለተመድ	-11297
▁ለአዲሱ	-11298
▁ለእግር	-11299
ial	-11300
ረካኝ	-11301
ጆችህ	-11302
▁ሩጫ	-11303
ስቀጠል	-11304
ቀጠልሽ	-11305
ወለድኩ	-11306
ዓለማዊ	-11307
ዘገጃጁ	-11308
ደረግም	-11309
ግባባን	-11310
ጠቅላይ	-11311
▁ሮዝ፣	-11312
▁ነካው	-11313
▁ገበሬ	-11314
▁ገፋፍ	-11315
ገልጸውን	-11316
ገዳጅነት	-11317
▁ሂጂ፡፡	-11318
▁ህብረት	-11319
▁ህዝቡን	-11320
▁ህዝብን	-11321
▁ለወገን	-11322
▁ለያይቶ	-11323
▁ለይዘቱ	-11324
▁ለጅምላ	-11325
▁ለግሩም	-11326
▁ለጸሎት	-11327
▁ለፈጣሪ	-11328
▁ለፍጅት	-11329
▁ሊሰማኝ	-11330
▁ሊኖረኝ	-11331
▁ሊኖረው	-11332
▁ሊያልቅ	-11333
▁ሊያምን	-11334
▁ሊያናግ	-11335
▁ሊያገኙ	-11336
▁ሊገደሉ	-11337
▁ላስበው	-11338
▁ላደርግ	-11339
▁ላድርግ	-11340
▁ሌላኛዋ	-11341
▁ሌሎቹም	-11342
▁ልብሶቼ	-11343
▁ልብሽን	-11344
▁ልትመጪ	-11345
▁ልናገር	-11346
▁ልንሆን	-11347
▁ልንሞት	-11348
▁ልንረዳ	-11349
▁ልንስት	-11350
▁ልንናጥ	-11351
▁ልጆቼ፣	-11352
▁ልፈልግ	-11353
▁ሐሳቦች	-11354
▁ሐኪም፣	-11355
▁ሐይቁም	-11356
▁ሐይቆቿ	-11357
▁ሕልምም	-11358
▁ሕይወቱ	-11359
▁ሕፃኑን	-11360
▁መለወጥ	-11361
▁መላውን	-11362
▁መላዕክ	-11363
▁መልበስ	-11364
▁መማማር	-11365
▁መሥመር	-11366
▁መረዳት	-11367
▁መሬቱን	-11368
▁መርዘኛ	-11369
▁መስቀል	-11370
▁መቀጠል	-11371
▁መተላለ	-11372
▁መተያየ	-11373
▁መታረቅ	-11374
▁መታሰር	-11375
▁መታደል	-11376
▁መታጠብ	-11377
▁መትረፍ	-11378
▁መትተው	-11379
▁መንደሩ	-11380
▁መንደሬ	-11381
▁መንገዶ	-11382
▁መንፈሷ	-11383
▁መከላከ	-11384
▁መውደቅ	-11385
▁መውጣት	-11386
▁መዘርዝ	-11387
▁መዝሙሩ	-11388
▁መደረግ	-11389
▁መጋረጣ	-11390
▁መግለጽ	-11391
▁መጠቀም	-11392
▁መጥራት	-11393
▁መጥተን	-11394
▁መጨፍጨ	-11395
▁መጻፉን	-11396
▁መፈለግ	-11397
▁መፈጸሙ	-11398
▁ሚናውን	-11399
ቦምቦ	-11400
ተስፋ	-11401
ነጣጥ	-11402
ላከልኝ	-11403
በረከቱ	-11404
በሳጭም	-11405
ቸግረኝ	-11406
ቸግረው	-11407
አምላኬ	-11408
ኮታኮት	-11409
ደራጁና	-11410
▁ለይቶ	-11411
▁መቅሰ	-11412
▁መናደ	-11413
▁ምሬት	-11414
▁ሲጎት	-11415
▁ቀቡኝ	-11416
▁ብልጭ	-11417
▁ቱርኮ	-11418
▁አፌን	-11419
▁ወፎች	-11420
▁ውቧን	-11421
▁ያቅዱ	-11422
▁ይደግ	-11423
▁ደከም	-11424
▁ገነጣ	-11425
ሁላት፡፡	-11426
መግበንን	-11427
ምቦዲያው	-11428
ወነጅሉት	-11429
▁ልረዳው	-11430
▁መመሳሰ	-11431
▁መቅጨት	-11432
▁መትረየ	-11433
▁መኖሪያ	-11434
▁ማለቱን	-11435
▁ማመስገ	-11436
▁ማመኑን	-11437
▁ማምጣት	-11438
▁ማራቅና	-11439
▁ማርሽው	-11440
▁ማሰለፍ	-11441
▁ማቆየት	-11442
▁ማቋረጥ	-11443
▁ማእከል	-11444
▁ማኪዩሌ	-11445
▁ማውሳት	-11446
▁ማየቱን	-11447
▁ማድረስ	-11448
▁ማጋነን	-11449
▁ማጥናት	-11450
▁ማጥፋቱ	-11451
▁ማፍታቻ	-11452
▁ምሁራን	-11453
▁ምልልስ	-11454
▁ምስሉን	-11455
▁ምሽቱን	-11456
▁ምንድን	-11457
▁ሞቃት፣	-11458
▁ሞታቸው	-11459
▁ሠግተው	-11460
▁ሥራችሁ	-11461
▁ሥቃይና	-11462
▁ሦስተኛ	-11463
▁ረቂቁን	-11464
▁ራስሽን	-11465
▁ሰላምን	-11466
▁ሰማሁት	-11467
▁ሰማሁና	-11468
▁ሰምተው	-11469
▁ሰበሰብ	-11470
▁ሰብረው	-11471
▁ሰውነቱ	-11472
▁ሰዎች፣	-11473
▁ሰጡት፤	-11474
▁ሲመጣና	-11475
▁ሲሞከር	-11476
▁ሲሰማኝ	-11477
▁ሲወረው	-11478
▁ሲያልፉ	-11479
▁ሲያሳድ	-11480
▁ሲያየኝ	-11481
▁ሲያዩት	-11482
▁ሲያዩን	-11483
▁ሲገባኝ	-11484
▁ሲገደሉ	-11485
▁ሲጠቀም	-11486
▁ሲጨፍሩ	-11487
▁ሲፈጁና	-11488
▁ሲፈጽም	-11489
▁ሲፋፋም	-11490
▁ሳናውቅ	-11491
▁ሳንቲም	-11492
▁ሳያበላ	-11493
▁ሳያቸው	-11494
▁ሳይሰማ	-11495
▁ሳይሻል	-11496
▁ሳይጎዳ	-11497
▁ሳጥኖቹ	-11498
▁ሴቶቹን	-11499
ላካች	-11500
ሳለፈ	-11501
ነፈሰ	-11502
ናጨፉ	-11503
ድመቱ	-11504
ገሰግ	-11505
ላካቸው	-11506
ሞከርኩ	-11507
ሰፊነቱ	-11508
ቀንጥሮ	-11509
ታሰብም	-11510
ትናገሪ	-11511
ነዳኸው	-11512
ንገፈግ	-11513
▁ጠመጠ	-11514
ሳቢነትና	-11515
ንቀሳቀሱ	-11516
▁መምጣቱ	-11517
▁ማድረጌ	-11518
▁ሰጥቶኝ	-11519
▁ሲሄዱም	-11520
▁ሳትቀጣ	-11521
▁ስለሄዱ	-11522
▁ስለመዳ	-11523
▁ስለሚጎ	-11524
▁ስለሠራ	-11525
▁ስለሰማ	-11526
▁ስለቀረ	-11527
▁ስለቤቱ	-11528
▁ስለወደ	-11529
▁ስለዘር	-11530
▁ስለደረ	-11531
▁ስለፈሩ	-11532
▁ስላለኝ	-11533
▁ስላላት	-11534
▁ስማጠን	-11535
▁ስምረት	-11536
▁ስሞችን	-11537
▁ስርዓት	-11538
▁ስቀብር	-11539
▁ስቅጥጥ	-11540
▁ስብከት	-11541
▁ስታየኝ	-11542
▁ስናገር	-11543
▁ስንሰማ	-11544
▁ስንትና	-11545
▁ስካይን	-11546
▁ስወርድ	-11547
▁ስደርስ	-11548
▁ስጀምር	-11549
▁ስጋቱም	-11550
▁ስጋፈጥ	-11551
▁ስጨርስ	-11552
▁ሸርተት	-11553
▁ሹቲንግ	-11554
▁ሽብርና	-11555
▁ሽያጩም	-11556
▁ቀልዶች	-11557
▁ቀሪውን	-11558
▁ቀሰቀስ	-11559
▁ቀዳሚው	-11560
▁ቀድመው	-11561
▁ቀጣዩን	-11562
▁ቅንጣት	-11563
▁ቅዱሴን	-11564
▁ቅዱስህ	-11565
▁ቆርጠው	-11566
▁ቆንጆዋ	-11567
▁ቆንጆ፣	-11568
▁ቆይታዬ	-11569
▁ቋሚውን	-11570
▁በሀገሬ	-11571
▁በሁካታ	-11572
▁በላይም	-11573
▁በልሳን	-11574
▁በልቤም	-11575
▁በሐምሌ	-11576
▁በሐሳብ	-11577
▁በሕልም	-11578
▁በመሆን	-11579
▁በመላክ	-11580
▁በመትረ	-11581
▁በመቻሉ	-11582
▁በመንገ	-11583
▁በመከል	-11584
▁በመያዜ	-11585
▁በመጓዝ	-11586
▁በመጠነ	-11587
▁በመጨቃ	-11588
▁በመጻፍ	-11589
▁በሙቀጫ	-11590
▁በሚሆኑ	-11591
▁በሚለኝ	-11592
▁በሚስብ	-11593
▁በሚቻል	-11594
▁በሚኖር	-11595
▁በማንሃ	-11596
▁በማደጎ	-11597
▁በምላሹ	-11598
▁በምሽት	-11599
ዋዕት	-11600
ለታዎቼ	-11601
ራቢያው	-11602
ጠናቀቀ	-11603
▁ልማድ	-11604
▁ቀሚስ	-11605
▁ቀሚሷ	-11606
▁ቲሸር	-11607
▁ኒኪና	-11608
▁ውይይ	-11609
▁ግጭት	-11610
▁ጠፋ፣	-11611
ለፍብኛል	-11612
እንደምን	-11613
እንደዚያ	-11614
ያዘው፡፡	-11615
ጸትኩ፡፡	-11616
▁ሂደቶች	-11617
▁ህመሙን	-11618
▁ለዚህም	-11619
▁ሚስትና	-11620
▁ሰቀቀኑ	-11621
▁በሥቃይ	-11622
▁በሥጋት	-11623
▁በረብሻ	-11624
▁በረከት	-11625
▁በሰላም	-11626
▁በሰሜኑ	-11627
▁በሰቆቃ	-11628
▁በሰዓቱ	-11629
▁በሰፈነ	-11630
▁በሳዳም	-11631
▁በስጋት	-11632
▁በቀሎቹ	-11633
▁በቃላት	-11634
▁በቃ፡፡	-11635
▁በቡሆሮ	-11636
▁በተሞላ	-11637
▁በቸልታ	-11638
▁በችኮላ	-11639
▁በነበር	-11640
▁በነገር	-11641
▁በአባቷ	-11642
▁በአቧራ	-11643
▁በአካል	-11644
▁በእለቱ	-11645
▁በእናቴ	-11646
▁በእጆቹ	-11647
▁በእግር	-11648
▁በእግሯ	-11649
▁በከሰል	-11650
▁በከፊል	-11651
▁በውስጡ	-11652
▁በውጪው	-11653
▁በዓይኑ	-11654
▁በዘልማ	-11655
▁በዚያኑ	-11656
▁በዝምታ	-11657
▁በዝርዝ	-11658
▁በደረቅ	-11659
▁በደረቴ	-11660
▁በጉልህ	-11661
▁በጉዳዩ	-11662
▁በጉጉት	-11663
▁በግማሽ	-11664
▁በግሩም	-11665
▁በጠቅላ	-11666
▁በጠዋት	-11667
▁በጥልቅ	-11668
▁በጥቂት	-11669
▁በጭፍን	-11670
▁በፈገግ	-11671
▁በፈጠረ	-11672
▁በፈጣሪ	-11673
▁ቡሆሮን	-11674
▁ቡድኖቹ	-11675
▁ቢሆኑም	-11676
▁ቢላዋና	-11677
▁ቢኖርም	-11678
▁ቢከሰት	-11679
▁ቢያስብ	-11680
▁ባለችው	-11681
▁ባሕላዊ	-11682
▁ባስብም	-11683
▁ባሻገር	-11684
▁ባውቀው	-11685
▁ባዚልን	-11686
▁ባያሳዩ	-11687
▁ባይካድ	-11688
▁ባይገቡ	-11689
▁ቤቶች፣	-11690
▁ብሆንም	-11691
▁ብሆንስ	-11692
▁ብረቱን	-11693
▁ብርታቱ	-11694
▁ብትሆኚ	-11695
▁ብትኖር	-11696
▁ብቻውን	-11697
▁ብንሄድ	-11698
▁ብንቆይ	-11699
መኘቴ	-11700
ቃናና	-11701
ቴትስ	-11702
ነቡት	-11703
ንጌል	-11704
ዣበቡ	-11705
ጣጣር	-11706
▁ሱሪ	-11707
▁ሹካ	-11708
▁ዑደ	-11709
ሳድገው	-11710
ብሩኝም	-11711
ተረጎም	-11712
ትንፋስ	-11713
ትንፋሻ	-11714
እነዚያ	-11715
እናትሽ	-11716
ከራከሩ	-11717
ከተለና	-11718
ዶቅዶቄ	-11719
ጨነቀች	-11720
ፈልጊው	-11721
▁ሃውስ	-11722
▁ሃውሷ	-11723
▁ሒሳብ	-11724
▁መሸጥ	-11725
▁ቡናማ	-11726
▁አሸር	-11727
▁ከቁጥ	-11728
▁ፈታኝ	-11729
ስተዋወቅ	-11730
▁ለይተው	-11731
▁ሊሰጠው	-11732
▁መሆኗን	-11733
▁መረበሽ	-11734
▁መባረር	-11735
▁መገኘት	-11736
▁ሰነዘር	-11737
▁ስቴትስ	-11738
▁ቁጣዬን	-11739
▁በሕልሜ	-11740
▁በረጅሙ	-11741
▁በኢሜል	-11742
▁ባህላዊ	-11743
▁ብዙኃን	-11744
▁ቦስኒያ	-11745
▁ቦታዎች	-11746
▁ቦንቦች	-11747
▁ተለይቼ	-11748
▁ተመላል	-11749
▁ተመስጦ	-11750
▁ተሣሣቅ	-11751
▁ተሰናብ	-11752
▁ተስማሚ	-11753
▁ተስፈን	-11754
▁ተስፋዬ	-11755
▁ተሸበረ	-11756
▁ተሸበር	-11757
▁ተቀላቅ	-11758
▁ተቀምጠ	-11759
▁ተቀበል	-11760
▁ተቀባይ	-11761
▁ተቀብላ	-11762
▁ተቀብሎ	-11763
▁ተቀጥሬ	-11764
▁ተቆራም	-11765
▁ተቆራር	-11766
▁ተቋማዊ	-11767
▁ተቸገር	-11768
▁ተነሥና	-11769
▁ተነቃቅ	-11770
▁ተናግሮ	-11771
▁ተንከባ	-11772
▁ተከሰተ	-11773
▁ተዓምራ	-11774
▁ተዘጋጅ	-11775
▁ተያያዝ	-11776
▁ተገርሜ	-11777
▁ተገድለ	-11778
▁ተገጣጠ	-11779
▁ተጨንቃ	-11780
▁ተፈራረ	-11781
▁ቱትሲም	-11782
▁ታይምስ	-11783
▁ታገግም	-11784
▁ትልቁን	-11785
▁ትልቅና	-11786
▁ትሞክራ	-11787
▁ትስስር	-11788
▁ትታችሁ	-11789
▁ትከሻው	-11790
▁ትኩሳት	-11791
▁ትዋዎች	-11792
▁ቶሎውኑ	-11793
▁ቸርነት	-11794
▁ቻሉ፡፡	-11795
▁ኃይለኛ	-11796
▁ኃይሉና	-11797
▁ኋላቀር	-11798
▁ነበርኩ	-11799
Pol	-11800
emi	-11801
min	-11802
ረፈም	-11803
በዛበት	-11804
የሌላን	-11805
ጋጥመን	-11806
▁ልጇን	-11807
▁መፋቅ	-11808
▁ሰሞን	-11809
▁ሲዘፍ	-11810
▁ቅዠት	-11811
▁ቡራኬ	-11812
▁እሳቤ	-11813
▁ወልዳ	-11814
▁የቦን	-11815
▁የጌታ	-11816
▁ያነሰ	-11817
▁ገዳዩ	-11818
▁ጋብቻ	-11819
▁ጠራረ	-11820
▁ጭብጥ	-11821
Polar	-11822
ermin	-11823
ሰጣቸውም	-11824
ቁባት፡፡	-11825
ካሄደውና	-11826
▁ለማጎል	-11827
▁ሰለሞን	-11828
▁በታሪኩ	-11829
▁በከንፈ	-11830
▁ባያሌው	-11831
▁ተባባሪ	-11832
▁ተገረም	-11833
▁ትራኦሬ	-11834
▁ትንሿን	-11835
▁ነገረኝ	-11836
▁ነገር፣	-11837
▁ነገሮቹ	-11838
▁ኑሮውን	-11839
▁ናቸው፣	-11840
▁ንብረት	-11841
▁ንዋትሊ	-11842
▁ንዚማን	-11843
▁ንግግሩ	-11844
▁ንጹሕና	-11845
▁ንጹሕ፣	-11846
▁ንጽሕና	-11847
▁ኖርኩም	-11848
▁አሁንስ	-11849
▁አለቀሰ	-11850
▁አለባበ	-11851
▁አለችና	-11852
▁አለችኝ	-11853
▁አለን፤	-11854
▁አለኝታ	-11855
▁አለኝና	-11856
▁አሉኝ፤	-11857
▁አላቆመ	-11858
▁አላቸው	-11859
▁አልሆን	-11860
▁አልሸሽ	-11861
▁አልቆይ	-11862
▁አልባብ	-11863
▁አልተኛ	-11864
▁አልኩና	-11865
▁አልገባ	-11866
▁አልጋም	-11867
▁አልጋዬ	-11868
▁አመቻቸ	-11869
▁አምጥታ	-11870
▁አራተኛ	-11871
▁አሳለፉ	-11872
▁አሳልፋ	-11873
▁አሳሳች	-11874
▁አሳቢና	-11875
▁አሳንሼ	-11876
▁አሳዛኝ	-11877
▁አሳዩኝ	-11878
▁አሳይቶ	-11879
▁አስመሰ	-11880
▁አስቀያ	-11881
▁አስቂኝ	-11882
▁አስወጣ	-11883
▁አስጠግ	-11884
▁አስጨነ	-11885
▁አስፈለ	-11886
▁አሸማቀ	-11887
▁አሸንፎ	-11888
▁አቀባይ	-11889
▁አቅቶት	-11890
▁አባባም	-11891
▁አባባና	-11892
▁አባታዊ	-11893
▁አብራኝ	-11894
▁አተረፈ	-11895
▁አተኩሬ	-11896
▁አተኩሮ	-11897
▁አትሂዱ	-11898
▁አትሆኚ	-11899
ነካካሁ	-11900
እርስዎ	-11901
ኮሳተር	-11902
ጨርሰው	-11903
▁ሲጎዱ	-11904
▁ስፍር	-11905
▁ቅዳሴ	-11906
▁በዱላ	-11907
▁በዱሮ	-11908
▁ተዪና	-11909
▁ተይዤ	-11910
▁ንዚማ	-11911
▁ያረጀ	-11912
▁ጎሳና	-11913
▁ጤናማ	-11914
ጭፋሉ፡፡	-11915
▁ሁነኛው	-11916
▁ሃብታም	-11917
▁ሆናለች	-11918
▁ሆዴ፡፡	-11919
▁ለችምና	-11920
▁ልርዳሽ	-11921
▁ምርምር	-11922
▁ሲከበኝ	-11923
▁ሲደድር	-11924
▁ሲገባና	-11925
▁ቆራርጦ	-11926
▁ቆዩ፡፡	-11927
▁በንጹሕ	-11928
▁አትግደ	-11929
▁አነሳሳ	-11930
▁አንተው	-11931
▁አንደማ	-11932
▁አንዳይ	-11933
▁አንዴት	-11934
▁አንድስ	-11935
▁አንዷና	-11936
▁አንጀት	-11937
▁አንጎል	-11938
▁አኳኋን	-11939
▁አውሬ፣	-11940
▁አውጥቼ	-11941
▁አዛኝ፣	-11942
▁አዝናኝ	-11943
▁አየኝና	-11944
▁አየ፡፡	-11945
▁አዩኝና	-11946
▁አያስቡ	-11947
▁አይተና	-11948
▁አይታወ	-11949
▁አደራጅ	-11950
▁አደጋን	-11951
▁አድራጊ	-11952
▁አድርጉ	-11953
▁አድነን	-11954
▁አገሪቱ	-11955
▁አገሮች	-11956
▁አገኘን	-11957
▁አጋማሽ	-11958
▁አጋጥሞ	-11959
▁አግዘው	-11960
▁አጎቶች	-11961
▁አጣመር	-11962
▁አጥተው	-11963
▁አጥንቴ	-11964
▁አፈሙዝ	-11965
▁አፈገፍ	-11966
▁አፍቃሪ	-11967
▁አፍጠው	-11968
▁ኤሌክት	-11969
▁ኤክስና	-11970
▁ኤፕሪል	-11971
▁እህትህ	-11972
▁እለምን	-11973
▁እመዝን	-11974
▁እማማን	-11975
▁እምነቱ	-11976
▁እረፍቴ	-11977
▁እርሷን	-11978
▁እሳትም	-11979
▁እስከመ	-11980
▁እስኪደ	-11981
▁እስክት	-11982
▁እቆጥራ	-11983
▁እባቦች	-11984
▁እነግራ	-11985
▁እነግር	-11986
▁እናሳል	-11987
▁እናትና	-11988
▁እንሄድ	-11989
▁እንለቅ	-11990
▁እንቆይ	-11991
▁እንችል	-11992
▁እንኖራ	-11993
▁እንደሰ	-11994
▁እንደቆ	-11995
▁እንደዋ	-11996
▁እንዲለ	-11997
▁እንዲሉ	-11998
▁እንዲሞ	-11999
com	-12000
ፋለሙ	-12001
ለዋወጥን	-12002
▁መግለጫ	-12003
▁ቁርኝት	-12004
▁በሃሳቤ	-12005
▁ባለሙያ	-12006
▁ተቀርጾ	-12007
▁ተተርኮ	-12008
▁አሳዛኙ	-12009
▁እንዲታ	-12010
▁እንዲከ	-12011
▁እንዳየ	-12012
▁እንዳጣ	-12013
▁እንድል	-12014
▁እንጀራ	-12015
▁እኛንም	-12016
▁እወስድ	-12017
▁እውቀት	-12018
▁እዚህ፣	-12019
▁እዚያች	-12020
▁እየሄደ	-12021
▁እየሆኑ	-12022
▁እየታወ	-12023
▁እየኖረ	-12024
▁እየኖር	-12025
▁እየከፋ	-12026
▁እየገቡ	-12027
▁እየጠሩ	-12028
▁እየጠፋ	-12029
▁እየጣረ	-12030
▁እየጮኹ	-12031
▁እያሰቡ	-12032
▁እያባበ	-12033
▁እያነሱ	-12034
▁እያነሳ	-12035
▁እያንቀ	-12036
▁እያዩን	-12037
▁እይታሽ	-12038
▁እድለኛ	-12039
▁እድሉን	-12040
▁እጅግም	-12041
▁እጆቿን	-12042
▁እገናኛ	-12043
▁እግሮቼ	-12044
▁እጠቀመ	-12045
▁ከላሞቹ	-12046
▁ከሌሊቱ	-12047
▁ከልጆቼ	-12048
▁ከሐይቁ	-12049
▁ከመሞቱ	-12050
▁ከመሬት	-12051
▁ከመዳን	-12052
▁ከሚያሳ	-12053
▁ከሚያስ	-12054
▁ከሚያው	-12055
▁ከሚጥሩ	-12056
▁ከማወቅ	-12057
▁ከማይዋ	-12058
▁ከምሽጉ	-12059
▁ከሞቱት	-12060
▁ከሩአግ	-12061
▁ከሬድዮ	-12062
▁ከሰዎቹ	-12063
▁ከስንት	-12064
▁ከቢቢሲ	-12065
▁ከባዱን	-12066
▁ከቪያኒ	-12067
▁ከተመታ	-12068
▁ከተኛሁ	-12069
▁ከታሪኩ	-12070
▁ከታሪኬ	-12071
▁ከታትፎ	-12072
▁ከታዩት	-12073
▁ከትከሻ	-12074
▁ከነበረ	-12075
▁ከአሁኑ	-12076
▁ከአሥር	-12077
▁ከአደጋ	-12078
▁ከአዲሱ	-12079
▁ከእኩለ	-12080
▁ከክፍል	-12081
▁ከክፍሏ	-12082
▁ከወለሉ	-12083
▁ከወጣን	-12084
▁ከየልም	-12085
▁ከያዘው	-12086
▁ከጀመሩ	-12087
▁ከገደሉ	-12088
▁ከግቢው	-12089
▁ከግድያ	-12090
▁ከጥላቻ	-12091
▁ከፈለጉ	-12092
▁ከፒየር	-12093
▁ካለነው	-12094
▁ካለዎት	-12095
▁ካባዪን	-12096
▁ካገኘሁ	-12097
▁ካጋሜ፣	-12098
▁ካጠገቤ	-12099
ቄላ፣	-12100
በአካ	-12101
በጄ፣	-12102
ንጭጩ	-12103
ዣብብ	-12104
ድኗት	-12105
መንኮስ	-12106
ሸክፈው	-12107
ቃቀርና	-12108
ቡሆሮን	-12109
ብኛለች	-12110
ድናቆት	-12111
ገነዘቡ	-12112
▁ቅጭም	-12113
▁ተችሏ	-12114
▁ኩሽና	-12115
▁ዌይን	-12116
▁ደወል	-12117
▁ዳኒዳ	-12118
▁ጋበዙ	-12119
ለምሳሌ፣	-12120
ረበችኝን	-12121
ረዱትንም	-12122
ርድሃል፣	-12123
ገፋፉትና	-12124
▁ለራይድ	-12125
▁ለስላሳ	-12126
▁ላንዴና	-12127
▁መሄዱን	-12128
▁መቀምር	-12129
▁መጎብኘ	-12130
▁ሙሬንጄ	-12131
▁ስለራሴ	-12132
▁በሰፈሬ	-12133
▁በንጋቷ	-12134
▁በጥሞና	-12135
▁ተማጸን	-12136
▁ተራምዶ	-12137
▁ተቃጥሎ	-12138
▁ተዛማጅ	-12139
▁ተጨንቄ	-12140
▁አልኮል	-12141
▁ከሕዝብ	-12142
▁ክህሎት	-12143
▁ክረምት	-12144
▁ክርኖች	-12145
▁ክብርም	-12146
▁ክብደት	-12147
▁ክፍልን	-12148
▁ክፍል፣	-12149
▁ኮስታራ	-12150
▁ወላፈን	-12151
▁ወረወሩ	-12152
▁ወሬዎች	-12153
▁ወርሃዊ	-12154
▁ወስደን	-12155
▁ወተትና	-12156
▁ወትሮው	-12157
▁ወንጀለ	-12158
▁ወዳለው	-12159
▁ወዳጄና	-12160
▁ወድቀው	-12161
▁ወገናዊ	-12162
▁ወጡ፡፡	-12163
▁ዋነኞቹ	-12164
▁ዋናውን	-12165
▁ውሰደን	-12166
▁ውስጣዊ	-12167
▁ውስጤን	-12168
▁ውስጥም	-12169
▁ውሸትን	-12170
▁ውሸቶች	-12171
▁ውይይት	-12172
▁ውድመት	-12173
▁ውድቅት	-12174
▁ዓለምም	-12175
▁ዓመቱን	-12176
▁ዓይኑን	-12177
▁ዕውቀት	-12178
▁ዕድሎች	-12179
▁ዕድሜዬ	-12180
▁ዕጣቸው	-12181
▁ዘመርኩ	-12182
▁ዘረኞች	-12183
▁ዘረገፍ	-12184
▁ዘውገኝ	-12185
▁ዘግናኝ	-12186
▁ዛየር፣	-12187
▁ዝርዝሩ	-12188
▁ዣኔትን	-12189
▁የሁለት	-12190
▁የሄዱት	-12191
▁የሆነች	-12192
▁የሆነን	-12193
▁የሆንኩ	-12194
▁የለም፤	-12195
▁የለበስ	-12196
▁የለኝም	-12197
▁የሌሊት	-12198
▁የሌሎች	-12199
ኮሎኔሉ	-12200
ደፍሩሽ	-12201
▁ሲሲሌ	-12202
▁ሲዳኙ	-12203
▁ነቅቼ	-12204
▁ነፋሻ	-12205
▁አቤል	-12206
▁የዳኘ	-12207
ክለኝነት	-12208
ወለዱበት	-12209
ወያየት፣	-12210
▁ላልቻል	-12211
▁ሠራተኞ	-12212
▁ረስቼው	-12213
▁ረድተው	-12214
▁ሲቃረብ	-12215
▁ሲደሰቱ	-12216
▁ሲጋጭና	-12217
▁ስታወራ	-12218
▁ቅስቀሳ	-12219
▁በቅጠል	-12220
▁ብሔራዊ	-12221
▁አሥረኛ	-12222
▁ኩርዶች	-12223
▁ካቀረብ	-12224
▁የልቤን	-12225
▁የልጆቹ	-12226
▁የሐሰት	-12227
▁የሕመም	-12228
▁የመሳሰ	-12229
▁የመንፈ	-12230
▁የመጣው	-12231
▁የሚመች	-12232
▁የሚመጣ	-12233
▁የሚሠራ	-12234
▁የሚበሉ	-12235
▁የሚባሉ	-12236
▁የሚተፋ	-12237
▁የሚነግ	-12238
▁የሚያዘ	-12239
▁የሚያጠ	-12240
▁የሚገኙ	-12241
▁የሚገዙ	-12242
▁የሚጠጉ	-12243
▁የሚጠጋ	-12244
▁የማወራ	-12245
▁የማየት	-12246
▁የማየው	-12247
▁የማያው	-12248
▁የማይረ	-12249
▁የማገዝ	-12250
▁የምሽቱ	-12251
▁የምችል	-12252
▁የሞቱት	-12253
▁የረዳት	-12254
▁የሩዝና	-12255
▁የራስህ	-12256
▁የራስሽ	-12257
▁የራስን	-12258
▁የሰዓት	-12259
▁የሳመኝ	-12260
▁የሳትኩ	-12261
▁የስሜት	-12262
▁የቀበረ	-12263
▁የቃላቱ	-12264
▁የቃላት	-12265
▁የቅዠት	-12266
▁የቆሻሻ	-12267
▁የበፊት	-12268
▁የብሔር	-12269
▁የቧንቧ	-12270
▁የተማሩ	-12271
▁የተሠራ	-12272
▁የተረዳ	-12273
▁የተረፈ	-12274
▁የተሰበ	-12275
▁የተባለ	-12276
▁የተቸሩ	-12277
▁የተኩስ	-12278
▁የተገለ	-12279
▁የተጻፉ	-12280
▁የታለመ	-12281
▁የታሪክ	-12282
▁የታሸገ	-12283
▁የታደነ	-12284
▁የትግል	-12285
▁የቻሉት	-12286
▁የችግሩ	-12287
▁የኅብረ	-12288
▁የንዴት	-12289
▁የንጹሕ	-12290
▁የአሊሹ	-12291
▁የአደን	-12292
▁የእርሷ	-12293
▁የእርሻ	-12294
▁የእባብ	-12295
▁የእኛን	-12296
▁የክብር	-12297
▁የክፍል	-12298
▁የኮንጎ	-12299
▁ተፈናቃ	-12300
▁አቅፎኝ	-12301
▁እየደማ	-12302
▁ኮርኒስ	-12303
▁ዘረጋሁ	-12304
▁የሩአጉ	-12305
▁የተዛቡ	-12306
▁የወርቅ	-12307
▁የወታደ	-12308
▁የወጣት	-12309
▁የውሰት	-12310
▁የውስጥ	-12311
▁የዚህች	-12312
▁የደበቅ	-12313
▁የድህረ	-12314
▁የጀመር	-12315
▁የገለጽ	-12316
▁የጌታዬ	-12317
▁የጠለቀ	-12318
▁የጠበቀ	-12319
▁የጥቁር	-12320
▁የጥያቄ	-12321
▁የፈራረ	-12322
▁የፈቀደ	-12323
▁የፈቀድ	-12324
▁የፍርድ	-12325
▁የፍቅሩ	-12326
▁ዩናሚር	-12327
▁ያህልም	-12328
▁ያለመተ	-12329
▁ያለብን	-12330
▁ያለችው	-12331
▁ያለውና	-12332
▁ያለው፤	-12333
▁ያለፈች	-12334
▁ያለፈው	-12335
▁ያልሆነ	-12336
▁ያስገቡ	-12337
▁ያስፈል	-12338
▁ያንተን	-12339
▁ያንተው	-12340
▁ያዘ፡፡	-12341
▁ያዙ፡፡	-12342
▁ያዝኩና	-12343
▁ያዝኩ፤	-12344
▁ያየነው	-12345
▁ያየውን	-12346
▁ያደራጁ	-12347
▁ያገኘው	-12348
▁ያጠናቀ	-12349
▁ይሏቸው	-12350
▁ይመጡና	-12351
▁ይሞክራ	-12352
▁ይሰማን	-12353
▁ይሰጡኝ	-12354
▁ይሸፍነ	-12355
▁ይሻላል	-12356
▁ይበርድ	-12357
▁ይባርክ	-12358
▁ይታገሣ	-12359
▁ይኖራሉ	-12360
▁ይከታተ	-12361
▁ይኩራሩ	-12362
▁ይካሄድ	-12363
▁ይወስድ	-12364
▁ይወነጅ	-12365
▁ይዘውን	-12366
▁ይዤ፡፡	-12367
▁ይደረግ	-12368
▁ይደርስ	-12369
▁ይጀምራ	-12370
▁ይገርም	-12371
▁ይጠርግ	-12372
▁ይጠቃቅ	-12373
▁ይፈልጉ	-12374
▁ይፈቅድ	-12375
▁ይፈጽማ	-12376
▁ይፈጽም	-12377
▁ደምስሶ	-12378
▁ደረቴን	-12379
▁ደርሰው	-12380
▁ደርሷል	-12381
▁ደነገጡ	-12382
▁ደጋግሜ	-12383
▁ዲሞክራ	-12384
▁ዳግመኛ	-12385
▁ዳግማዊ	-12386
▁ድምፅና	-12387
▁ድርቅር	-12388
▁ድርድር	-12389
▁ድኅነት	-12390
▁ድንጋጤ	-12391
▁ገለጻና	-12392
▁ገረመው	-12393
▁ገበየሁ	-12394
▁ገባሁ፤	-12395
▁ገባችሁ	-12396
▁ገነትን	-12397
▁ገደሉት	-12398
▁ገጀራው	-12399
fic	-12400
ሞከሩ	-12401
ሮድካ	-12402
ሳፈፍ	-12403
ሸናፊ	-12404
ትዋሊ	-12405
ኦሜጋ	-12406
ጨክኑ	-12407
▁Te	-12408
▁to	-12409
▁ዠቅ	-12410
▁ጢል	-12411
Dehu	-12412
mail	-12413
ሆሳስም	-12414
ሕፍት፣	-12415
ማራለሁ	-12416
ቃላቱን	-12417
ተጉተኝ	-12418
ተፊበት	-12419
ኦፖልድ	-12420
ከሬኖቹ	-12421
ወዱኝና	-12422
ግሥትና	-12423
ፐሬሽን	-12424
▁ሐውል	-12425
▁መረሬ	-12426
▁መቋጫ	-12427
▁ምጣኔ	-12428
▁ሰየሟ	-12429
▁ሲሮጡ	-12430
▁ቁጢጥ	-12431
▁ነጩን	-12432
▁አሠሡ	-12433
▁ወልዶ	-12434
▁ዝማሬ	-12435
▁ይተካ	-12436
▁ዳይሬ	-12437
▁ፈጅቶ	-12438
sific	-12439
ቀለችውና	-12440
▁Tell	-12441
▁ለምዕተ	-12442
▁ሥሜቴን	-12443
▁ቁልፎች	-12444
▁በራዲዮ	-12445
▁በነሐሴ	-12446
▁ተማጽኖ	-12447
▁ተርጉሞ	-12448
▁ተሰበኩ	-12449
▁ተቻችሎ	-12450
▁ተዋፅዖ	-12451
▁ትመስላ	-12452
▁ንትዋሊ	-12453
▁አለው፤	-12454
▁አትድኚ	-12455
▁አጥባቂ	-12456
▁እሴቶች	-12457
▁ከመጤፍ	-12458
▁ክራመር	-12459
▁የበቃች	-12460
▁የተጠቂ	-12461
▁የጎሣ፣	-12462
▁ጉዳይና	-12463
▁ጉዳዮች	-12464
▁ጌታቸው	-12465
▁ግርፋት	-12466
▁ግብዓት	-12467
▁ግንቦት	-12468
▁ግዙፍና	-12469
▁ግድያን	-12470
▁ጎረቤት	-12471
▁ጎራዎች	-12472
▁ጎትተው	-12473
▁ጎንበስ	-12474
▁ጓደኛም	-12475
▁ጓደኞቿ	-12476
▁ጠቆሙና	-12477
▁ጠበቅሁ	-12478
▁ጠንቆች	-12479
▁ጠይቀው	-12480
▁ጠፋ፡፡	-12481
▁ጠፍተው	-12482
▁ጥላቻ፣	-12483
▁ጥርቅም	-12484
▁ጥቅሶች	-12485
▁ጥፋተኛ	-12486
▁ጩኸቱን	-12487
▁ጩኸቶች	-12488
▁ጫካዎቿ	-12489
▁ጭራቆች	-12490
▁ጸለይኩ	-12491
▁ጸሎትም	-12492
▁ጽሕፈት	-12493
▁ጽናትና	-12494
▁ፈልቅቆ	-12495
▁ፈርተን	-12496
▁ፈቀደል	-12497
▁ፈንታዬ	-12498
▁ፈጣሪዬ	-12499
ቆንጆዋ	-12500
ታወሰኝ	-12501
▁ጡንቻ	-12502
ለቆዎቿና	-12503
ትነኳችው	-12504
ነጣጠቀች	-12505
ኦቶማኖች	-12506
▁ላውቃት	-12507
▁መጎተት	-12508
▁መጽሔት	-12509
▁ሙታኑን	-12510
▁ምድራዊ	-12511
▁ሲጫረስ	-12512
▁ሸነታተ	-12513
▁ሸንተረ	-12514
▁ቀያይሮ	-12515
▁ቀደምት	-12516
▁ቆሳስለ	-12517
▁በኅሊና	-12518
▁በፋክት	-12519
▁ባጎስራ	-12520
▁ተንብዬ	-12521
▁ተካሂዶ	-12522
▁ተጥለቅ	-12523
▁ታገኙታ	-12524
▁ችግሮች	-12525
▁አጠራሩ	-12526
▁ከስቲቭ	-12527
▁ከግንቡ	-12528
▁የቦንን	-12529
▁የጋቻቻ	-12530
▁ያዘጋጇ	-12531
▁ያፈጠጥ	-12532
▁ድድብና	-12533
▁ዶግስ፣	-12534
▁ጠገብና	-12535
▁ፊልሞች	-12536
▁ፊተኛው	-12537
▁ፊዚክስ	-12538
▁ፍራይስ	-12539
▁ፍራፍሬ	-12540
▁ፍትሃዊ	-12541
▁ፍንክች	-12542
▁ፍጅቶች	-12543
▁ፎሶሊያ	-12544
▁ፖልንና	-12545
Prepar	-12546
Symbol	-12547
ለዋለሁ፡፡	-12548
ላቀልኩ፡፡	-12549
ላችኋል፡፡	-12550
መኘሁም፡፡	-12551
መጥኩት፡፡	-12552
ረቤቶቻችን	-12553
ሩዋንዳዊቷ	-12554
ርበደበድኩ	-12555
ሰብዓዊነት	-12556
ሳሰቡበትና	-12557
ሳቸዋች፡፡	-12558
ስተዳዳሪው	-12559
ስታውሰኝ፣	-12560
ሻሽሉልኝን	-12561
ሽከርካሪው	-12562
ቀሰቅስብን	-12563
ቀዋለሁ፡፡	-12564
ቀዋለች፡፡	-12565
ቄያለሁ፡፡	-12566
ቆጥቁጠውና	-12567
በረከተላት	-12568
በረከትኳት	-12569
በነገራችን	-12570
በእግራችን	-12571
ባቢያችንን	-12572
ባቸውም፡፡	-12573
ቱትሲዎችን	-12574
ቸገርኳቸው	-12575
ቻለውም፡፡	-12576
ቼዋለሁ፡፡	-12577
ኖረኝም፡፡	-12578
አይፈጸምም	-12579
ኢስፔራንስ	-12580
ከላከልበት	-12581
ከባከባቸው	-12582
ከባከብበት	-12583
ከብድም፡፡	-12584
ካሄደባቸው	-12585
ክርስቲያን	-12586
ክርስቶፈር	-12587
ኮታኮተ፡፡	-12588
ዎቻቸውንና	-12589
የኢማኪዩሌ	-12590
የዘላለማዊ	-12591
የዳማሲንን	-12592
ደርስበትና	-12593
ደበቀችበት	-12594
ገርምም፡፡	-12595
ገናኘንበት	-12596
ጋራዋለን፣	-12597
ግለጻቸውን	-12598
ግባባቶችን	-12599
ልፈሰፈሱ	-12600
ርበደብድ	-12601
አዳምጭኝ	-12602
▁ለጽሑፉ	-12603
▁ሰርክዬ	-12604
▁አወድሶ	-12605
▁አገዛዙ	-12606
▁እወርዳ	-12607
▁ኮረብታ	-12608
▁ያጠናሁ	-12609
▁ይብሱኑ	-12610
▁ግሪጎሪ	-12611
አእምሮዬን	-12612
እየገደልን	-12613
ዘገይባችሁ	-12614
ግተዋል፡፡	-12615
ጠቀመባቸው	-12616
ጠናወታቸው	-12617
ጠይቃቸውም	-12618
ጧቸዋል፡፡	-12619
ጨነቁም፡፡	-12620
ጨፍጫፊውና	-12621
ፈለግሁበት	-12622
ፈልጋቸውን	-12623
ፈልግልኝ፣	-12624
ፈቀድሽልኝ	-12625
ፈጠርንበት	-12626
ፈጸመባቸው	-12627
▁ሀገሪቱን	-12628
▁ሁልጊዜም	-12629
▁ሁቱዎቹን	-12630
▁ሁቱዎችና	-12631
▁ሃሳቤንና	-12632
▁ሄዷል፡፡	-12633
▁ህልሞቼን	-12634
▁ህዝባችን	-12635
▁ሆነች፡፡	-12636
▁ለህሊናው	-12637
▁ለመረዳት	-12638
▁ለመሰሎቹ	-12639
▁ለመስፈር	-12640
▁ለመቀነስ	-12641
▁ለመቀጠል	-12642
▁ለመቅረብ	-12643
▁ለመቅበር	-12644
▁ለመብላት	-12645
▁ለመንገር	-12646
▁ለመወሰን	-12647
▁ለመዋጋት	-12648
▁ለመውሰድ	-12649
▁ለመጠቀም	-12650
▁ለመጸለይ	-12651
▁ለመጻጻፍ	-12652
▁ለመፋለም	-12653
▁ለሚወነጅ	-12654
▁ለማሳሰብ	-12655
▁ለማስፋት	-12656
▁ለማሻሻል	-12657
▁ለማቋቋም	-12658
▁ለማተኮር	-12659
▁ለማንበብ	-12660
▁ለማውራት	-12661
▁ለማገገም	-12662
▁ለማጥፋት	-12663
▁ለማፍሰስ	-12664
▁ለምሳሌም	-12665
▁ለምስጋና	-12666
▁ለራሳቸው	-12667
▁ለቅሶዬን	-12668
▁ለቅንጅቱ	-12669
▁ለቋንቋው	-12670
▁ለትዋዎች	-12671
▁ለአማርኛ	-12672
▁ለእነርሱ	-12673
▁ለክረምት	-12674
▁ለወደፊቱ	-12675
▁ለዮሃንስ	-12676
▁ለዱዜንጄ	-12677
▁ለዳማሲን	-12678
▁ለጓደኞቼ	-12679
▁ለጭፍጨፋ	-12680
▁ለፈረንሳ	-12681
▁ሊሰማቸው	-12682
▁ሊተላለፍ	-12683
▁ሊውጣቸው	-12684
▁ሊያሠራጭ	-12685
▁ሊገድለን	-12686
▁ሊገድለኝ	-12687
▁ሊገድሉኝ	-12688
▁ልማዳችን	-12689
▁ልብሶችና	-12690
▁ልብሶችን	-12691
▁ልቦቻችን	-12692
▁ልቦናዬን	-12693
▁ልተርጉም	-12694
▁ልታደርግ	-12695
▁ልዩነትን	-12696
▁ሐሳብሽን	-12697
▁ሐሳቦቼን	-12698
▁ሐብታቸው	-12699
▁ካወቁና	-12700
▁ይገሰግ	-12701
Denial	-12702
ሸፍንላቸው	-12703
ቦምቦችንና	-12704
▁ሕንጻዎቹ	-12705
▁ሕይወት፣	-12706
▁ሕጻናትን	-12707
▁መሄጃችን	-12708
▁መሆናቸው	-12709
▁መሆንሽን	-12710
▁መለስተኛ	-12711
▁መለኮታዊ	-12712
▁መለየትና	-12713
▁መለያዎች	-12714
▁መላዕክት	-12715
▁መመገቢያ	-12716
▁መማሩንና	-12717
▁መምህሬን	-12718
▁መምሬ፡፡	-12719
▁መምጣቱን	-12720
▁መርቷቸው	-12721
▁መሳጭነት	-12722
▁መስመሮች	-12723
▁መስተዋት	-12724
▁መስታወት	-12725
▁መቀያየር	-12726
▁መቁረጡን	-12727
▁መቃብርም	-12728
▁መተማመኔ	-12729
▁መተንፈስ	-12730
▁መታው፡፡	-12731
▁መነሳሳት	-12732
▁መነጋገር	-12733
▁መናፍስት	-12734
▁መንስኤው	-12735
▁መንደሩን	-12736
▁መኮሳተር	-12737
▁መኰንኑን	-12738
▁መዋቅርት	-12739
▁መውደቅን	-12740
▁መዘዋወር	-12741
▁መዘጋጀት	-12742
▁መዝሙሮች	-12743
▁መደረጉን	-12744
▁መደበቂያ	-12745
▁መድረቅና	-12746
▁መድኃኒት	-12747
▁መገናኘት	-12748
▁መገንዘብ	-12749
▁መገንፈሌ	-12750
▁መገዳደር	-12751
▁መግደልን	-12752
▁መጠቀሙም	-12753
▁መጠበቂያ	-12754
▁መጠባበቅ	-12755
▁መጥፎውን	-12756
▁መጨረሻው	-12757
▁መጸለዬን	-12758
▁መጽናናት	-12759
▁መፈለጉን	-12760
▁መፈንቅለ	-12761
▁ሙሪንዚም	-12762
▁ሚስቱንና	-12763
▁ሚኒስትሯ	-12764
▁ማልቀሴን	-12765
▁ማመስገን	-12766
▁ማረጋገጥ	-12767
▁ማስቀመጥ	-12768
▁ማስቀረት	-12769
▁ማኅበራዊ	-12770
▁ማናችንም	-12771
▁ማንበቡም	-12772
▁ማንኛውም	-12773
▁ማወዳደር	-12774
▁ማዕበሎች	-12775
▁ማደራጀት	-12776
▁ማግኘትም	-12777
▁ምልክቶች	-12778
▁ምርምሮች	-12779
▁ምስጢራዊ	-12780
▁ምኅረት፣	-12781
▁ምንጠራና	-12782
▁ምክርህና	-12783
▁ሞላው፡፡	-12784
▁ሠራዊትም	-12785
▁ሥልጣንና	-12786
▁ሥራችንን	-12787
▁ሥራዎችና	-12788
▁ረጃጅም፣	-12789
▁ሩዋንዳዋ	-12790
▁ሩዋንዳ፣	-12791
▁ራሶቻችን	-12792
▁ርዝመትና	-12793
▁ሰለባዎቹ	-12794
▁ሰላምንም	-12795
▁ሰቀቀኗም	-12796
▁ሰዓታትም	-12797
▁ሰይጣናት	-12798
▁ሰይጣኖች	-12799
Dehuma	-12800
▁ለኮሎኔሉ	-12801
▁ሊኦፖልድ	-12802
▁ሰጠሁ፡፡	-12803
▁ሰፋሪዎች	-12804
▁ሲመላለሱ	-12805
▁ሲሰነዘር	-12806
▁ሲታረዱና	-12807
▁ሲያስር፣	-12808
▁ሲያስቀም	-12809
▁ሲያቅተን	-12810
▁ሲያገል፣	-12811
▁ሲገድል፣	-12812
▁ሲጠራጠር	-12813
▁ሲጠይቀኝ	-12814
▁ሲጨባበጡ	-12815
▁ሲጨፈጭፉ	-12816
▁ሲፈልጉኝ	-12817
▁ሲፈጸምም	-12818
▁ሲፈጽሙ፣	-12819
▁ሳላለቅስ	-12820
▁ሳላላውስ	-12821
▁ሳይቃጠል	-12822
▁ሳይቆጠር	-12823
▁ሳይናገሩ	-12824
▁ሳይጨርሱ	-12825
▁ሳፈላልግ	-12826
▁ስለሆነና	-12827
▁ስለማመድ	-12828
▁ስለሰጠን	-12829
▁ስለተረዳ	-12830
▁ስለነገር	-12831
▁ስለዚህም	-12832
▁ስላላት፣	-12833
▁ስላልሆነ	-12834
▁ስላገኘኝ	-12835
▁ስሜታችን	-12836
▁ስምምነቱ	-12837
▁ስሰናበት	-12838
▁ስብዕናው	-12839
▁ስተረጉም	-12840
▁ስተነፍስ	-12841
▁ስታንተን	-12842
▁ስንመርጥ	-12843
▁ስንጥቁን	-12844
▁ስገዳደር	-12845
▁ቀልቷል፤	-12846
▁ቀልዶቹም	-12847
▁ቀስቃሽና	-12848
▁ቆመዋል፤	-12849
▁ቆምን፡፡	-12850
▁ቆይተናል	-12851
▁ቆይቷል፤	-12852
▁ቆይቻለሁ	-12853
▁ቋንቋችን	-12854
▁ቋንቋውን	-12855
▁በሁለተኛ	-12856
▁በሁለቱም	-12857
▁በህግም፣	-12858
▁በሆነችው	-12859
▁በለምለም	-12860
▁በለኝ፡፡	-12861
▁በለየለት	-12862
▁በላያችን	-12863
▁በልዩነቱ	-12864
▁በልጅነት	-12865
▁በልጆቿና	-12866
▁በሐዘኔታ	-12867
▁በሕይወቱ	-12868
▁በመመለስ	-12869
▁በመመኘቴ	-12870
▁በመማሪያ	-12871
▁በመሞከር	-12872
▁በመርጨት	-12873
▁በመሰረተ	-12874
▁በመስኮቱ	-12875
▁በመቀምሩ	-12876
▁በመቀጠል	-12877
▁በመቻቻል	-12878
▁በመንገር	-12879
▁በመንፈስ	-12880
▁በመንፈግ	-12881
▁በመወደስ	-12882
▁በመውጣት	-12883
▁በመግባት	-12884
▁በመግደያ	-12885
▁በመጠየቅ	-12886
▁በመጭዎቹ	-12887
▁በመጸለይ	-12888
▁በመጽሐፉ	-12889
▁በመጽሐፏ	-12890
▁በመፈጸም	-12891
▁በመፍራት	-12892
▁በመፍታት	-12893
▁በሚሊዮን	-12894
▁በሚሰማው	-12895
▁በሚነሣው	-12896
▁በሚገርም	-12897
▁በሚገባው	-12898
▁በማልከም	-12899
▁በማመኔና	-12900
▁በማርከስ	-12901
▁በማስቆም	-12902
▁በማቋቋም	-12903
▁በማተኮሬ	-12904
▁በማውጣት	-12905
▁በማይችሉ	-12906
▁በማድረጌ	-12907
▁በማግኘቴ	-12908
▁በማግኘት	-12909
▁በማግኘቷ	-12910
▁በምህረቱ	-12911
▁በምርጫው	-12912
▁በምታክል	-12913
▁በሥልጣን	-12914
▁በሦስተኛ	-12915
▁በራሳቸው	-12916
▁በርካቶች	-12917
▁በሰላምታ	-12918
▁በሰንበት	-12919
▁በቀልድም	-12920
▁በቀዳዳዋ	-12921
▁በቀጣዩም	-12922
▁በቤተሰቤ	-12923
▁በተለይም	-12924
▁በተመቻቸ	-12925
▁በተረፈች	-12926
▁በተቀመጥ	-12927
▁በተቀናጀ	-12928
▁በተቃራኒ	-12929
▁በተቻለን	-12930
▁በተቻላት	-12931
▁በተአምር	-12932
▁በተደረደ	-12933
▁በተፈጥሮ	-12934
▁በታቀደና	-12935
▁በትርጉሙ	-12936
▁በትከሻዬ	-12937
▁በነጻነት	-12938
▁በንጹሐን	-12939
▁በንጽሕና	-12940
▁በአሎይዜ	-12941
▁በአማርኛ	-12942
▁በአምላክ	-12943
▁በአእምሮ	-12944
▁በአገሪቱ	-12945
▁በአጠገቤ	-12946
▁በአፍሪካ	-12947
▁በአፍቃሪ	-12948
▁በእርስዎ	-12949
▁በእነርሱ	-12950
▁በእነዚያ	-12951
▁በእንጭጩ	-12952
▁በእጅዎት	-12953
▁በእግሮቼ	-12954
▁በኮርኒሱ	-12955
▁በወላጆቼ	-12956
▁በወንጌል	-12957
▁በዋዜማው	-12958
▁በውድቅት	-12959
▁በየሀገሩ	-12960
▁በየኬላው	-12961
▁በየወቅቱ	-12962
▁በየዕለቱ	-12963
▁በየዘውጉ	-12964
▁በደፈናው	-12965
▁በዳዮቿን	-12966
▁በድንበሩ	-12967
▁በገነትም	-12968
▁በገንዘብ	-12969
▁በጉልበቴ	-12970
▁በጊዜያዊ	-12971
▁በግንባር	-12972
▁በጥልቀት	-12973
▁በጥንካሬ	-12974
▁በጸሎትና	-12975
▁በፈራረሱ	-12976
▁በፊታችን	-12977
▁በፍጹም፣	-12978
▁ቢሆኑ፡፡	-12979
▁ቢሞክርም	-12980
▁ቢሰማኝም	-12981
▁ቢፈሉም፣	-12982
▁ባለማወቄ	-12983
▁ባላገኘው	-12984
▁ባልችልም	-12985
▁ባልጠበቅ	-12986
▁ባቀረቡት	-12987
▁ባትደርስ	-12988
▁ባካሄዱት	-12989
▁ባይነትና	-12990
▁ባይነትን	-12991
▁ቤተሰብሽ	-12992
▁ቤተሰብና	-12993
▁ቤቶችንና	-12994
▁ብሄራዊው	-12995
▁ብሏል፡፡	-12996
▁ብሞክርም	-12997
▁ብርታቱን	-12998
▁ብቸኛውን	-12999
▁ብንራብም	-13000
▁ብንገኝም	-13001
▁ቦምቦችን	-13002
▁ቦርሳዋን	-13003
▁ተለይተው	-13004
▁ተመለከት	-13005
▁ተመልሰሽ	-13006
▁ተመኘሁ፤	-13007
▁ተምሳሌት	-13008
▁ተሞላ፡፡	-13009
▁ተሞልተው	-13010
▁ተረጋገጠ	-13011
▁ተራሮቿ፣	-13012
▁ተራፊዎች	-13013
▁ተርጓሚው	-13014
▁ተሰነጣጥ	-13015
▁ተሰናበተ	-13016
▁ተሳፍረው	-13017
▁ተስማምቶ	-13018
▁ተስፋችን	-13019
▁ተቆጥሯል	-13020
▁ተባለ፡፡	-13021
▁ተቸከቸኩ	-13022
▁ተንቀጠቀ	-13023
▁ተንበረከ	-13024
▁ተንተገተ	-13025
▁ተከትለን	-13026
▁ተዋርዷል	-13027
▁ተዘጋ፡፡	-13028
▁ተደሰትኩ	-13029
▁ተደብቀው	-13030
▁ተገንዝቤ	-13031
▁ተገኙ፡፡	-13032
▁ተገኝቷል	-13033
▁ተገደልኩ	-13034
▁ተግባራቱ	-13035
▁ተጠራጠር	-13036
▁ተጠቅመው	-13037
▁ቱትሲዎቹ	-13038
▁ቲዩኔስት	-13039
▁ታመመ፡፡	-13040
▁ታሪክሽን	-13041
▁ታውቆኛል	-13042
▁ታይምስም	-13043
▁ታገኟቸዋ	-13044
▁ታጣቂዎች	-13045
▁ትልልቆቹ	-13046
▁ትችላለች	-13047
▁ትንፋሹን	-13048
▁ትወዳቸው	-13049
▁ትዕግሥት	-13050
▁ትዝብትና	-13051
▁ትዝብት፡	-13052
▁ትፋፋለች	-13053
▁ኃላፊውን	-13054
▁ነቃሁ፡፡	-13055
▁ነቅንቀው	-13056
▁ናችሁ፡፡	-13057
▁ንገረንና	-13058
▁ንግግሩን	-13059
▁አለህ፡፡	-13060
▁አለመቻሉ	-13061
▁አለማመኑ	-13062
▁አለፉ፡፡	-13063
▁አሉት፡፡	-13064
▁አላምንም	-13065
▁አላቀለለ	-13066
▁አላናደደ	-13067
▁አላደረገ	-13068
▁አልሄድም	-13069
▁አልባነት	-13070
▁አልደብቅ	-13071
▁አልፏል፤	-13072
▁አሎይዜና	-13073
▁አመላካች	-13074
▁አምስተኛ	-13075
▁አምሽተው	-13076
▁አምጥተኸ	-13077
▁አራታችን	-13078
▁አራዊት፣	-13079
▁አርመኖች	-13080
▁አሰብኩ፤	-13081
▁አሰካክ፣	-13082
▁አሳቢነት	-13083
▁አሳጣኝ፤	-13084
▁አሳጥተዋ	-13085
▁አስቀምጬ	-13086
▁አስቀያሚ	-13087
▁አስባለሁ	-13088
▁አስብለው	-13089
▁አስተማሪ	-13090
▁አስተናጋ	-13091
▁አስተዋው	-13092
▁አስታወሱ	-13093
▁አስታውስ	-13094
▁አስታውሼ	-13095
▁አስወግዳ	-13096
▁አስወግጄ	-13097
▁አስደሳቹ	-13098
▁አስገኝቷ	-13099
▁አስገድዶ	-13100
▁አስፈሪም	-13101
▁አስፈሪው	-13102
▁አሸማቆት	-13103
▁አቀማመጣ	-13104
▁አቀበቱና	-13105
▁አቅርቤው	-13106
▁አቆመ፡፡	-13107
▁አቆጣጠር	-13108
▁አባላትን	-13109
▁አባባ፡፡	-13110
▁አባብጠው	-13111
▁አባታችሁ	-13112
▁አባትሽማ	-13113
▁አብረዋት	-13114
▁አተኩረው	-13115
▁አትናሲያ	-13116
▁አትኩሮት	-13117
▁አነሳ፡፡	-13118
▁አናስገባ	-13119
▁አንበርክ	-13120
▁አንገብግ	-13121
▁አንግተው	-13122
▁አከላቴን	-13123
▁አካላቸው	-13124
▁አውቃለሁ	-13125
▁አውጭዎች	-13126
▁አየሁት፤	-13127
▁አዩት፡፡	-13128
▁አይተውኝ	-13129
▁አይቻቸው	-13130
▁አደረጉ፤	-13131
▁አደራችሁ	-13132
▁አደርግል	-13133
▁አድርጌው	-13134
▁አገላለጹ	-13135
▁አገላለጽ	-13136
▁አገናዛቢ	-13137
▁አግኝተው	-13138
▁አግኝቻት	-13139
▁አጎንብሼ	-13140
▁አጠቁ፡፡	-13141
▁አጥብቀው	-13142
▁አጥተዋል	-13143
▁አጽንኦት	-13144
▁ኢየሱስን	-13145
▁እላያችን	-13146
▁እልቂትን	-13147
▁እልቂት፣	-13148
▁እመዘግባ	-13149
▁እማራለሁ	-13150
▁እምነትም	-13151
▁እርሱንም	-13152
▁እርስዎን	-13153
▁እስከዳር	-13154
▁እስኪልና	-13155
▁እስኪወጣ	-13156
▁እስኪጠፋ	-13157
▁እስክተኛ	-13158
▁እቅዳቸው	-13159
▁እባካችሁ	-13160
▁እባክህን	-13161
▁እነዚህም	-13162
▁እናለቅስ	-13163
▁እናባርራ	-13164
▁እናቴንና	-13165
▁እናደርግ	-13166
▁እንስሳት	-13167
▁እንደሄዱ	-13168
▁እንደሚል	-13169
▁እንደሚቻ	-13170
▁እንደሚጠ	-13171
▁እንደርስ	-13172
▁እንደቆየ	-13173
▁እንደቆዩ	-13174
▁እንደበግ	-13175
▁እንደተን	-13176
▁እንደተጋ	-13177
▁እንደቻለ	-13178
▁እንደነሱ	-13179
▁እንደያዘ	-13180
▁እንደገጠ	-13181
▁እንደጌጥ	-13182
▁እንደፈጀ	-13183
▁እንዲሄድ	-13184
▁እንዲለይ	-13185
▁እንዲሞት	-13186
▁እንዲሳካ	-13187
▁እንዲድኑ	-13188
▁እንዲገባ	-13189
▁እንዲጠሉ	-13190
▁እንዲጠብ	-13191
▁እንዲጻፉ	-13192
▁እንዳለቀ	-13193
▁እንዳላየ	-13194
▁እንዳልን	-13195
▁እንዳመጣ	-13196
▁እንዳሰቡ	-13197
▁እንዳቀዱ	-13198
▁እንዳቆሙ	-13199
▁እንዳቆይ	-13200
▁እንዳይሻ	-13201
▁እንድመጣ	-13202
▁እንድታይ	-13203
▁እንድትም	-13204
▁እንድኖር	-13205
▁እንገደዳ	-13206
▁እንግዶች	-13207
▁እንጠብቅ	-13208
▁እንፈልግ	-13209
▁እንፈቅዳ	-13210
▁እወቂ፡፡	-13211
▁እውነትም	-13212
▁እየሠራች	-13213
▁እየሣቅን	-13214
▁እየቀረቡ	-13215
▁እየበሰበ	-13216
▁እየተሰቃ	-13217
▁እየተቆጣ	-13218
▁እየገደሉ	-13219
▁እየጎተቱ	-13220
▁እየጮሁና	-13221
▁እየፈለጉ	-13222
▁እያለፍን	-13223
▁እያሉ፡፡	-13224
▁እያሰብክ	-13225
▁እያሳየኝ	-13226
▁እያወራህ	-13227
▁እያየችኝ	-13228
▁እያደራጁ	-13229
▁እይታውን	-13230
▁እገባለሁ	-13231
▁እጋብዝዎ	-13232
▁እፎይታን	-13233
▁ከሁኔታው	-13234
▁ከሌላኛው	-13235
▁ከመምጣቱ	-13236
▁ከመቶዎች	-13237
▁ከመንደሬ	-13238
▁ከመጀመሬ	-13239
▁ከሚሏቸው	-13240
▁ከሚታየው	-13241
▁ከሚዋደዱ	-13242
▁ከማውቀው	-13243
▁ከምችለው	-13244
▁ከምንጊዜ	-13245
▁ከራሳቸው	-13246
▁ከሴምቤባ	-13247
▁ከቀየርሽ	-13248
▁ከቤተሰቡ	-13249
▁ከቤተሰቧ	-13250
▁ከተራሮቿ	-13251
▁ከተስማሙ	-13252
▁ከተቻለም	-13253
▁ከተጀመረ	-13254
▁ከተጻፉት	-13255
▁ከታተፉት	-13256
▁ከትልልቅ	-13257
▁ከነጭራሹ	-13258
▁ከአልጋዬ	-13259
▁ከአሎይዜ	-13260
▁ከአሜሪካ	-13261
▁ከአባቴና	-13262
▁ከአባትሽ	-13263
▁ከአንዲት	-13264
▁ከአንዴም	-13265
▁ከአክራሪ	-13266
▁ከአዳዲስ	-13267
▁ከአጠገቤ	-13268
▁ከእርሷና	-13269
▁ከኪሳቸው	-13270
▁ከወላጆቼ	-13271
▁ከወትሮው	-13272
▁ከወንድሙ	-13273
▁ከውድመቱ	-13274
▁ከውድመት	-13275
▁ከዓይኖቼ	-13276
▁ከዕድሜው	-13277
▁ከደስተኛ	-13278
▁ከደጃችን	-13279
▁ከጀመርኩ	-13280
▁ከገደሉት	-13281
▁ከገደልኩ	-13282
▁ከገዳዮቿ	-13283
▁ከጦርነት	-13284
▁ከጨለማው	-13285
▁ከጸለይኩ	-13286
▁ከፈለግሁ	-13287
▁ከፈለግሽ	-13288
▁ከፈልግሽ	-13289
▁ከፈፀሙት	-13290
▁ከፋፍለው	-13291
▁ካመጡበት	-13292
▁ካቶሊኮች	-13293
▁ካገኟችሁ	-13294
▁ካጋጠሙኝ	-13295
▁ክፍያዬን	-13296
▁ወላጆቼም	-13297
▁ወረዱ፡፡	-13298
▁ወሬዎችና	-13299
▁ወስነናል	-13300
▁ወስዷል፣	-13301
▁ወንበሯን	-13302
▁ወንድሜም	-13303
▁ወደሆነው	-13304
▁ወደኋላዬ	-13305
▁ወዳላቸው	-13306
▁ወዳጅነት	-13307
▁ወዳጆቼና	-13308
▁ወጣሁ፡፡	-13309
▁ውሳኔዎች	-13310
▁ዓይነቱን	-13311
▁ዓይነቶች	-13312
▁ዓይናቸው	-13313
▁ዓይንሽን	-13314
▁ዓይኖችም	-13315
▁ዘመቻዎች	-13316
▁ዘርግተው	-13317
▁ዘጉት፡፡	-13318
▁ዝርዝርም	-13319
▁የሁቱዎች	-13320
▁የሆነበት	-13321
▁የለብሽም	-13322
▁የሕክምና	-13323
▁የመረመሩ	-13324
▁የመራራት	-13325
▁የመሰለው	-13326
▁የመስጠቱ	-13327
▁የመጡትን	-13328
▁የመጣሁት	-13329
▁የመጽሐፍ	-13330
▁የመፈወስ	-13331
▁የሚመደቡ	-13332
▁የሚረብሽ	-13333
▁የሚሰማው	-13334
▁የሚሰሩት	-13335
▁የሚሰራው	-13336
▁የሚሰጠው	-13337
▁የሚሰጡት	-13338
▁የሚቆጠር	-13339
▁የሚተርክ	-13340
▁የሚችልን	-13341
▁የሚነሱት	-13342
▁የሚነካና	-13343
▁የሚከብድ	-13344
▁የሚያሳዩ	-13345
▁የሚያዳግ	-13346
▁የሚይዝና	-13347
▁የሚደርሱ	-13348
▁የሚገልጽ	-13349
▁የሚገርም	-13350
▁የሚገባው	-13351
▁የሚገደል	-13352
▁የሚጠሉና	-13353
▁የሚጠቀሱ	-13354
▁የሚጠብቁ	-13355
▁የሚፈልጉ	-13356
▁የሚፈጥሩ	-13357
▁የማለዳው	-13358
▁የማመሰግ	-13359
▁የማምለጫ	-13360
▁የማራገብ	-13361
▁የማይቻል	-13362
▁የማገኘው	-13363
▁የምሄደው	-13364
▁የምስጋና	-13365
▁የምሽጉን	-13366
▁የምትሆን	-13367
▁የምትለው	-13368
▁የምፈራው	-13369
▁የራሳቸው	-13370
▁የሰበከው	-13371
▁የሰብአዊ	-13372
▁የሰጡኝን	-13373
▁የስቃይዋ	-13374
▁የሸሚዙን	-13375
▁የቀሩትን	-13376
▁የቀጠፈው	-13377
▁የቋንቋው	-13378
▁የበርካታ	-13379
▁የቤተሰቧ	-13380
▁የቤታችን	-13381
▁የተለመደ	-13382
▁የተመዱን	-13383
▁የተመድን	-13384
▁የተምታታ	-13385
▁የተረኩት	-13386
▁የተሰበረ	-13387
▁የተሰኘው	-13388
▁የተሻለች	-13389
▁የተቀመጡ	-13390
▁የተቀደሰ	-13391
▁የተዘረጋ	-13392
▁የተፈጥሮ	-13393
▁የቱትሲዋ	-13394
▁የታለፈው	-13395
▁የታየበት	-13396
▁የትኛውም	-13397
▁የትዕይን	-13398
▁የነበረች	-13399
▁የነበረ፣	-13400
▁የነበርኩ	-13401
▁የነባርና	-13402
▁የአማርኛ	-13403
▁የአረፍተ	-13404
▁የአባባን	-13405
▁የአክስቴ	-13406
▁የአየሩም	-13407
▁የአዲሲቷ	-13408
▁የአፍሪካ	-13409
▁የኢየሱስ	-13410
▁የእርሷን	-13411
▁የእንኳን	-13412
▁የእፎይታ	-13413
▁የከፋውን	-13414
▁የክልልና	-13415
▁የወታደር	-13416
▁የውይይት	-13417
▁የዚህችን	-13418
▁የዜግነት	-13419
▁የደብዳቤ	-13420
▁የገባቸው	-13421
▁የጥርጣሬ	-13422
▁የጦርነት	-13423
▁የጨረሰው	-13424
▁የጭፍጨፋ	-13425
▁የጻፈችው	-13426
▁የፈራረሱ	-13427
▁የፍጅቱን	-13428
▁የፎሶሊያ	-13429
▁ዩናይትድ	-13430
▁ያለመኖር	-13431
▁ያለምኩት	-13432
▁ያለፍኩት	-13433
▁ያልሆኑት	-13434
▁ያመለጡት	-13435
▁ያሰበልኝ	-13436
▁ያስታውሰ	-13437
▁ያቃጠሉት	-13438
▁ያበረታቱ	-13439
▁ያበጅለት	-13440
▁ያብዛልን	-13441
▁ያተረፈሽ	-13442
▁ያነሳሳል	-13443
▁ያንጸባር	-13444
▁ያካሄደው	-13445
▁ያየኋቸው	-13446
▁ያደረጉት	-13447
▁ያደረግሁ	-13448
▁ያደረጓት	-13449
▁ያደርጋሉ	-13450
▁ያድኑናል	-13451
▁ያገኘሁት	-13452
▁ይህንንም	-13453
▁ይልቁንም	-13454
▁ይመስላል	-13455
▁ይሰማል፤	-13456
▁ይሻለኛል	-13457
▁ይቁጠረው	-13458
▁ይታዩኛል	-13459
▁ይናፍቁኝ	-13460
▁ይንገሩኝ	-13461
▁ይገባል፤	-13462
▁ይገባሻል	-13463
▁ይገባኝና	-13464
▁ይግባውና	-13465
▁ይጠብቁት	-13466
▁ይፈርጁና	-13467
▁ይፈጸማል	-13468
▁ደስታችን	-13469
▁ደብተሬን	-13470
▁ደብዳቤዬ	-13471
▁ደክሞን፣	-13472
▁ደጋግመው	-13473
▁ደግነት፣	-13474
▁ደፋሪዎች	-13475
▁ዲያቢሎስ	-13476
▁ዳርፉርም	-13477
▁ዳንኤልን	-13478
▁ድንገተኛ	-13479
▁ድንገትም	-13480
▁ዶክትሬት	-13481
▁ጀመሩ፡፡	-13482
▁ጀመርኩ፤	-13483
▁ጀርባውን	-13484
▁ገላዬ፡፡	-13485
▁ገንዘብም	-13486
▁ገዳይ፡፡	-13487
▁ገዳዮችም	-13488
▁ገዳዮችና	-13489
▁ገዳዮችን	-13490
▁ገድለዋል	-13491
▁ገጀራዎች	-13492
▁ጉራማይሌ	-13493
▁ጊዜያችን	-13494
▁ጋዜጠኛና	-13495
▁ግጭቶችን	-13496
▁ጓደኛዬ፣	-13497
▁ጓደኞቹን	-13498
▁ጓደኞችን	-13499
▁ጠመንጃና	-13500
▁ጠብቁኝ፤	-13501
▁ጠንካራም	-13502
▁ጥላቸውን	-13503
▁ጥሎባቸው	-13504
▁ጥርጣሬም	-13505
▁ጥንካሬው	-13506
▁ጥጋት፡፡	-13507
▁ጥፋትነቱ	-13508
▁ጦርነቱም	-13509
▁ጭፍጨፋና	-13510
▁ጸለይኩ፣	-13511
▁ጸለይኩ፤	-13512
▁ጸልዩ፡፡	-13513
▁ጸልዬበት	-13514
▁ጸሎቶቼን	-13515
▁ጽሑፎችን	-13516
▁ፈለግሁ፣	-13517
▁ፈራርሰው	-13518
▁ፈራን፡፡	-13519
▁ፈተናውን	-13520
▁ፈተናዎቼ	-13521
▁ፈተናዎች	-13522
▁ፈንታችን	-13523
▁ፈንታዬን	-13524
▁ፈንጂዎች	-13525
▁ፈጠጡ፡፡	-13526
▁ፊቶች፡፡	-13527
▁ፍልቅልቅ	-13528
▁ፍራንክን	-13529
▁ፍርሃትና	-13530
▁ፍቅራችን	-13531
▁ፍጅትንና	-13532
.......	-13533
ላችኋለሁ፡፡	-13534
ሰላስልበትና	-13535
ሰጣችሁኝ፡፡	-13536
ነጋገርበት፣	-13537
ከባበሩበት፣	-13538
ከናውንበትና	-13539
ያንሸራትተኝ	-13540
ደርገውም፡፡	-13541
▁mezemi	-13542
▁ሁለመናዬን	-13543
▁ሁላችሁንም	-13544
▁ሆኛለሁ፡፡	-13545
▁ለሀገራችን	-13546
▁ለሁቱዎችና	-13547
▁ለመሸጋገር	-13548
▁ለመቀላቀል	-13549
▁ለመበርታት	-13550
▁ለመተንፈስ	-13551
▁ለመነጋገር	-13552
▁ለመዋጋትና	-13553
▁ለመደበቅና	-13554
▁ለመገላገል	-13555
▁ለመገንባት	-13556
▁ለመገንዘብ	-13557
▁ለሚቀርጹና	-13558
▁ለሚያስፋፉ	-13559
▁ለማለያየት	-13560
▁ለማመስገን	-13561
▁ለማሳመንና	-13562
▁ለማስመሰል	-13563
▁ለማስታወስ	-13564
▁ለማይነጥፍ	-13565
▁ለማጠናከር	-13566
▁ለምትሰጡኝ	-13567
▁ለብሰዋል፤	-13568
▁ለብሷል፡፡	-13569
▁ለዘለቄታው	-13570
▁ለፈተናዎቼ	-13571
▁ሊኦናርድና	-13572
▁ሊወነጅሉት	-13573
▁ሊያደርጉን	-13574
▁ሊገድሏቸው	-13575
▁ሊጠይቋቸው	-13576
▁ላይሆንልኝ	-13577
▁ልብሳችንን	-13578
▁መሆናቸውን	-13579
▁መምህራችን	-13580
▁መምህርነት	-13581
▁መረጃቸውን	-13582
▁መሰሉኝ፡፡	-13583
▁መሰልኩ፡፡	-13584
▁መሰካታቸው	-13585
▁መቁጠሪያም	-13586
▁መታጠቢያው	-13587
▁መቻላችንን	-13588
▁መነሳሳትን	-13589
▁መነኩሲቶቹ	-13590
▁መነኩሲቶች	-13591
▁መንፈሳዊት	-13592
▁መዝሙሮችን	-13593
▁መጀመራቸው	-13594
▁መገምገምም	-13595
▁መግደላቸው	-13596
▁መጠለያውን	-13597
▁መጣብኝ፡፡	-13598
▁መጨፍጨፍ፣	-13599
▁መጸዳጃውን	-13600
▁ማመስገኔን	-13601
▁ማስተናገድ	-13602
▁ማስታወቂያ	-13603
▁ማሸጊያውን	-13604
▁ማበረታቻና	-13605
▁ማንኛችንም	-13606
▁ማእከላዊት	-13607
▁ማየታቸውን	-13608
▁ምህንድስና	-13609
▁ምክንያቴም	-13610
▁ምክንያቶች	-13611
▁ሞተውባቸው	-13612
▁ሠራተኛዬን	-13613
▁ሣልኩት፡፡	-13614
▁ሪፐብሊክና	-13615
▁ሪፐብሊክ፣	-13616
▁ራሳችንንም	-13617
▁ሰማሁት፡፡	-13618
▁ሰማነው፡፡	-13619
▁ሰርቷል፡፡	-13620
▁ሰየሟት፡፡	-13621
▁ሰፍሯል፡፡	-13622
▁ሲሸነቁጠኝ	-13623
▁ሲቆራርጠኝ	-13624
▁ሲንቀሳቀስ	-13625
▁ሲንኮታኮት	-13626
▁ሲያሳድድ፣	-13627
▁ሲያስነሡን	-13628
▁ሲያስገቡን	-13629
▁ሲያደርጉም	-13630
▁ሳምታይምስ	-13631
▁ሳቂታነትና	-13632
▁ሳነሳላችሁ	-13633
▁ሳያበላሹት	-13634
▁ሳይተነፍስ	-13635
▁ሴምቤባ፡፡	-13636
▁ስለሆነችና	-13637
▁ስለላከልኝ	-13638
▁ስለሌላቸው	-13639
▁ስለሚያሳይ	-13640
▁ስለሚያውቅ	-13641
▁ስለማናውቅ	-13642
▁ስለማድረግ	-13643
▁ስለሠራቸው	-13644
▁ስለሩዋንዳ	-13645
▁ስለታዘብኩ	-13646
▁ስለነካውና	-13647
▁ስለጥቁሮች	-13648
▁ስላወቅሁት	-13649
▁ስላደረጉኝ	-13650
▁ስሜታችንን	-13651
▁ስሜታዊነት	-13652
▁ስትናገርም	-13653
▁ስትጠብቀኝ	-13654
▁ስካፑላሩን	-13655
▁ሶላንዥ፡፡	-13656
▁ሸለቆዎቿና	-13657
▁ቀርበዋል፣	-13658
▁ቀርቧል፡፡	-13659
▁ቁርጠኝነት	-13660
▁ቆስሏል፡፡	-13661
▁በሄሬሮዎች	-13662
▁በሆንኩበት	-13663
▁በለሆሳስም	-13664
▁በሕያውነት	-13665
▁በሕይወትና	-13666
▁በመሀላችን	-13667
▁በመተሳሰብ	-13668
▁በመተባበር	-13669
▁በመከፋፈል	-13670
▁በመካለኛው	-13671
▁በመካከለኛ	-13672
▁በመዘዋወር	-13673
▁በመደበቅም	-13674
▁በሚስትነት	-13675
▁በሚቀጥለው	-13676
▁በሚከተለው	-13677
▁በሚወርደው	-13678
▁በሚያየውና	-13679
▁በሚገባበት	-13680
▁በማለት፡፡	-13681
▁በማላውቀው	-13682
▁በማሰቃየት	-13683
▁በማስመሰል	-13684
▁በማስወጣት	-13685
▁በማስጠጋቷ	-13686
▁በማንቋሸሽ	-13687
▁በማንበብና	-13688
▁በማንበብ፣	-13689
▁በማይስማማ	-13690
▁በማይበልጥ	-13691
▁በማይችሉት	-13692
▁በምሽጋችን	-13693
▁በምትገኘው	-13694
▁በምናባችን	-13695
▁በምጥርበት	-13696
▁በሠራሁበት	-13697
▁በሩዋንዳም	-13698
▁በሰፈራችን	-13699
▁በስተሰሜን	-13700
▁በሸፈናቸው	-13701
▁በቆየንበት	-13702
▁በቤልጅዬሙ	-13703
▁በብሔረሰብ	-13704
▁በተመለከተ	-13705
▁በተሰበሰበ	-13706
▁በተቃራኒው	-13707
▁በተቸገርን	-13708
▁በተዓምራዊ	-13709
▁በተደራጀና	-13710
▁በተጨናነቀ	-13711
▁በቱትሲነቴ	-13712
▁በአረንጓዴ	-13713
▁በአባታችን	-13714
▁በአንበሶች	-13715
▁በአንጻራዊ	-13716
▁በአግራሞት	-13717
▁በአጽንኦት	-13718
▁በእግራቸው	-13719
▁በኦቶማኖች	-13720
▁በወታደራዊ	-13721
▁በውበታቸው	-13722
▁በዜጎቻችን	-13723
▁በየመንገዱ	-13724
▁በየአህጉሩ	-13725
▁በደግነትና	-13726
▁በድንገትም	-13727
▁በጀግንነት	-13728
▁በገደላቸው	-13729
▁በጉልበቶቹ	-13730
▁በግቢያችን	-13731
▁በጎበኘሁት	-13732
▁በጠመንጃው	-13733
▁በጠቅላላው	-13734
▁በጽንፈኞች	-13735
▁ቢያጋጥመን	-13736
▁ቢያጠሉም፣	-13737
▁ቢገድሏችሁ	-13738
▁ባያሳዩንም	-13739
▁ባይካድም፣	-13740
▁ቤልጅየሞች	-13741
▁ቤተሰብሽን	-13742
▁ቤታችንንና	-13743
▁ተለወጠ፡፡	-13744
▁ተለያይተን	-13745
▁ተመስርተው	-13746
▁ተማሪዎችን	-13747
▁ተሳነኝ፡፡	-13748
▁ተስማሙ፡፡	-13749
▁ተነሣሁ፡፡	-13750
▁ተነፈስኩና	-13751
▁ተንቀጠቀጥ	-13752
▁ተንገዳገድ	-13753
▁ተንጠራርቼ	-13754
▁ተከታትለው	-13755
▁ተኩራርተው	-13756
▁ተወላጆችን	-13757
▁ተዋንያንን	-13758
▁ተዋጥን፡፡	-13759
▁ተውኩት፡፡	-13760
▁ተደሰቱ፡፡	-13761
▁ተደሰትኩ፤	-13762
▁ተደበቁ፡፡	-13763
▁ተጠንቅቀው	-13764
▁ተጨነቁ፡፡	-13765
▁ተጽፏል፡፡	-13766
▁ቱትሲዎችም	-13767
▁ቱትሲዎችና	-13768
▁ታስቢያለሽ	-13769
▁ታጣቂዎችም	-13770
▁ትምህርትም	-13771
▁ትምህርት፣	-13772
▁ትንንሾቹን	-13773
▁ትከሻዎቿን	-13774
▁ትውስታችን	-13775
▁ትውስታዎች	-13776
▁ትዕግሥትና	-13777
▁ነቀነቀ፡፡	-13778
▁ነበረኝ፡፡	-13779
▁ነበረው፡፡	-13780
▁ነበሩን፡፡	-13781
▁ነገረችኝ፡	-13782
▁ነገርኩት፤	-13783
▁ነግሷል፡፡	-13784
▁ኖራለች፡፡	-13785
▁ኖሬያለሁ፤	-13786
▁አለመቻሉን	-13787
▁አለቀሱ፡፡	-13788
▁አላሳሰበም	-13789
▁አላስፈላጊ	-13790
▁አላቆምኩም	-13791
▁አላውቅም፣	-13792
▁አላየኋቸው	-13793
▁አልቀረውም	-13794
▁አልተስማማ	-13795
▁አልተደረሰ	-13796
▁አልችልም፤	-13797
▁አልነበረም	-13798
▁አልነበሩም	-13799
▁አልወሰደብ	-13800
▁አልጠነከር	-13801
▁አሎይዜ፡፡	-13802
▁አማካሪነት	-13803
▁አምስቱንም	-13804
▁አምናለሁ፤	-13805
▁አረዳን፡፡	-13806
▁አሳሳቢነት	-13807
▁አሳቀኝ፡፡	-13808
▁አስመለከተ	-13809
▁አስተባባሪ	-13810
▁አስተካካይ	-13811
▁አስተዋፅኦ	-13812
▁አስከሬኑን	-13813
▁አስከፊነት	-13814
▁አስደሳችም	-13815
▁አስደሳችና	-13816
▁አስገብተው	-13817
▁አሽቀንጥሮ	-13818
▁አቀናሁ፡፡	-13819
▁አቀድኩ፡፡	-13820
▁አቀፈኝ፡፡	-13821
▁አብዛኛዎቹ	-13822
▁አትኩሮቴን	-13823
▁አናውቅም፣	-13824
▁አንሾካሾክ	-13825
▁አንባቢያን	-13826
▁አንዳቸውም	-13827
▁አንዳንዶቹ	-13828
▁አንድነትና	-13829
▁አእምሮዬም	-13830
▁አክስታችን	-13831
▁አወራረድና	-13832
▁አወቅን፡፡	-13833
▁አውቀውታል	-13834
▁አውቄዋለሁ	-13835
▁አውታሮች፣	-13836
▁አውዳሚነት	-13837
▁አያጠራጥር	-13838
▁አይሁን፡፡	-13839
▁አይሆንም፣	-13840
▁አይታሰብም	-13841
▁አይቷል፡፡	-13842
▁አይቻለሁ፤	-13843
▁አይደለሁም	-13844
▁አይደለህም	-13845
▁አይደሉም፤	-13846
▁አይደረግም	-13847
▁አደረገ፡፡	-13848
▁አድራጎትና	-13849
▁አድነኝ፡፡	-13850
▁አገራችንን	-13851
▁አገኙን፡፡	-13852
▁አግኝተዋል	-13853
▁አግኝተዋት	-13854
▁አጥንቶቹን	-13855
▁አፈጠጠ፡፡	-13856
▁አፍንጫቸው	-13857
▁ኢሊባጊዛ፣	-13858
▁ኢብራሂምን	-13859
▁ኢተርሃምዌ	-13860
▁ኢትዮጵያዊ	-13861
▁ኢንዲያንስ	-13862
▁ኤይማብል፣	-13863
▁እሄዳለሁ፤	-13864
▁እለዋለሁ፤	-13865
▁እላለሁ፡፡	-13866
▁እርምጃዎች	-13867
▁እርሳቸው፣	-13868
▁እርግጠኞች	-13869
▁እስትንፋስ	-13870
▁እስከአሁን	-13871
▁እስኪከብድ	-13872
▁እስኪያልፍ	-13873
▁እስኪያቆም	-13874
▁እስኪያገኝ	-13875
▁እስኪጀምር	-13876
▁እስክንቆም	-13877
▁እችላለሁ፤	-13878
▁እናታችሁን	-13879
▁እንሄዳለን	-13880
▁እንሆናለን	-13881
▁እንከላከላ	-13882
▁እንክብካቤ	-13883
▁እንደሆነም	-13884
▁እንደሆነው	-13885
▁እንደሆነ፣	-13886
▁እንደሆንሽ	-13887
▁እንደሆንክ	-13888
▁እንደመራኝ	-13889
▁እንደመጣሁ	-13890
▁እንደሚሆኑ	-13891
▁እንደሚለው	-13892
▁እንደሚሻል	-13893
▁እንደማያስ	-13894
▁እንደማይወ	-13895
▁እንደምምር	-13896
▁እንደምትም	-13897
▁እንደሰሙት	-13898
▁እንደተረዳ	-13899
▁እንደተገኙ	-13900
▁እንደነዚህ	-13901
▁እንደወደቀ	-13902
▁እንደዘገየ	-13903
▁እንደደበቁ	-13904
▁እንደገባሁ	-13905
▁እንደገባኝ	-13906
▁እንደገናም	-13907
▁እንደጻፉት	-13908
▁እንደፈለገ	-13909
▁እንዲሁ፡፡	-13910
▁እንዲለብሱ	-13911
▁እንዲሰጠኝ	-13912
▁እንዲሰጡኝ	-13913
▁እንዲቀለው	-13914
▁እንዲቀጥል	-13915
▁እንዲቆጣጠ	-13916
▁እንዲተውም	-13917
▁እንዲታጠቡ	-13918
▁እንዲከሰት	-13919
▁እንዲዛወሩ	-13920
▁እንዲያልቁ	-13921
▁እንዲያቆሙ	-13922
▁እንዲያቆይ	-13923
▁እንዲያዩን	-13924
▁እንዲደርሱ	-13925
▁እንዲደበቅ	-13926
▁እንዲጎነጩ	-13927
▁እንዳለንና	-13928
▁እንዳለኝም	-13929
▁እንዳልሆኑ	-13930
▁እንዳቀርብ	-13931
▁እንዳቃናና	-13932
▁እንዳተኩር	-13933
▁እንዳይገቡ	-13934
▁እንዳደርግ	-13935
▁እንድናሳይ	-13936
▁እንድናስብ	-13937
▁እንድናገር	-13938
▁እንድንኖር	-13939
▁እንድንጥር	-13940
▁እንገናኝም	-13941
▁እንጠይቀዋ	-13942
▁እንፈልገዋ	-13943
▁እወድሃለሁ	-13944
▁እውነተኛው	-13945
▁እየሞከርኩ	-13946
▁እየቀረቡን	-13947
▁እየበረበረ	-13948
▁እየተባለም	-13949
▁እየተቧደነ	-13950
▁እየተዘጋጀ	-13951
▁እየተያየን	-13952
▁እየተጫወቱ	-13953
▁እየተፈጸመ	-13954
▁እየነቀነቁ	-13955
▁እየነካካሁ	-13956
▁እየገደሉን	-13957
▁እየጠየኩህ	-13958
▁እየፈተነኝ	-13959
▁እያለቀሰች	-13960
▁እያለቀስኩ	-13961
▁እያልኳቸው	-13962
▁እያወናጨፉ	-13963
▁እያደረገን	-13964
▁እያጠናሁና	-13965
▁እገባለሁ፤	-13966
▁እግሮቻቸው	-13967
▁እግኝቻለሁ	-13968
▁እጓለማውታ	-13969
▁ከሀገራችን	-13970
▁ከልጆቻቸው	-13971
▁ከመቀመጫዬ	-13972
▁ከመኝታችን	-13973
▁ከሚታመኑና	-13974
▁ከሚያደርሱ	-13975
▁ከማስረዳቱ	-13976
▁ከማንኛውም	-13977
▁ከማውቃቸው	-13978
▁ከማይነጥፍ	-13979
▁ከምናውቀው	-13980
▁ከሩዋንዳው	-13981
▁ከተገናኘች	-13982
▁ከተጠቀሱት	-13983
▁ከተፈጸሙት	-13984
▁ከቱትሲዎች	-13985
▁ከነጨፍጫፊ	-13986
▁ከአስደሳች	-13987
▁ከአብዛኞቹ	-13988
▁ከአንድነቱ	-13989
▁ከአንድነት	-13990
▁ከአእምሮዬ	-13991
▁ከአውሬነት	-13992
▁ከኤይማብል	-13993
▁ከእርሳቸው	-13994
▁ከእይታችን	-13995
▁ከኦገስቲን	-13996
▁ከወታደሮቹ	-13997
▁ከደፋሪዎች	-13998
▁ከገዳዮችና	-13999
▁ከፈረንሳይ	-14000
▁ከፈቱት፡፡	-14001
▁ኪሎሜትሮች	-14002
▁ካለቀባቸው	-14003
▁ካላየኋቸው	-14004
▁ካልከለሉት	-14005
▁ካነበበልኝ	-14006
▁ካነበብኩት	-14007
▁ክርስቲያና	-14008
▁ክፍፍሎችን	-14009
▁ኮንጓውያን	-14010
▁ወረቀት፡፡	-14011
▁ወረድን፡፡	-14012
▁ወረድኩ፡፡	-14013
▁ወሰዱን፡፡	-14014
▁ወታደሮቹም	-14015
▁ወታደሮችና	-14016
▁ወንድማችን	-14017
▁ወንድሜንና	-14018
▁ወንድሜ፡፡	-14019
▁ወንድምሽን	-14020
▁ወደሚገኘው	-14021
▁ወደቅሁ፡፡	-14022
▁ወዳለሁበት	-14023
▁ወድሟል፡፡	-14024
▁ወጥተዋል፤	-14025
▁ወጪያቸውን	-14026
▁ውጫለሁ፡፡	-14027
▁ዓለማችንም	-14028
▁ዓላማቸውን	-14029
▁ዕድሜያቸው	-14030
▁ዘረኝነትና	-14031
▁ዘግናኝነት	-14032
▁ዜጎቻቸውን	-14033
▁የሃይማኖት	-14034
▁የለውም፡፡	-14035
▁የለዎትም፣	-14036
▁የሕይወቴን	-14037
▁የመልዕክት	-14038
▁የመጣው፡፡	-14039
▁የመጨረሻዋ	-14040
▁የሚመገቡ፣	-14041
▁የሚቀጥሉት	-14042
▁የሚበቃውን	-14043
▁የሚተረጎም	-14044
▁የሚታይበት	-14045
▁የሚችልበት	-14046
▁የሚከለክል	-14047
▁የሚከራከሩ	-14048
▁የሚከተሉት	-14049
▁የሚከትፈው	-14050
▁የሚወርደው	-14051
▁የሚወቅጠው	-14052
▁የሚወተውቱ	-14053
▁የሚያልቀው	-14054
▁የሚያምን፣	-14055
▁የሚያሳምም	-14056
▁የሚያውለው	-14057
▁የሚያውቀው	-14058
▁የሚያውቁት	-14059
▁የሚያድኗት	-14060
▁የሚገባውን	-14061
▁የሚገፋው፣	-14062
▁የሚጠሯትም	-14063
▁የሚጠብቀኝ	-14064
▁የሚጠብቁት	-14065
▁የማላውቀው	-14066
▁የማልመውን	-14067
▁የማምለጫው	-14068
▁የማቆየትን	-14069
▁የማኅበረሰ	-14070
▁የማውቅበት	-14071
▁የማያሳይና	-14072
▁የማያድኑት	-14073
▁የማይረበሽ	-14074
▁የማይታሰቡ	-14075
▁የማይናወጥ	-14076
▁የማጉላትና	-14077
▁የምሄድበት	-14078
▁የምታውቀው	-14079
▁የምኅረትን	-14080
▁የምናገረው	-14081
▁የሠለጠኑት	-14082
▁የሰማሁትን	-14083
▁የሰነዘሩት	-14084
▁የሰውነቴን	-14085
▁የሹክሹክታ	-14086
▁የሽምግልና	-14087
▁የቆረጡትን	-14088
▁የተለዩትን	-14089
▁የተመሠረቱ	-14090
▁የተመኘሁት	-14091
▁የተሞላበት	-14092
▁የተቀላቀለ	-14093
▁የተተረጎመ	-14094
▁የተናገሩት	-14095
▁የተወለደው	-14096
▁የተወሳሰበ	-14097
▁የተደረገች	-14098
▁የተደራጁና	-14099
▁የተገኘውን	-14100
▁የተጠቀሱት	-14101
▁የቱትሲዎች	-14102
▁የታደለችው	-14103
▁የትርጉሜን	-14104
▁የትርጉምን	-14105
▁የነበረውና	-14106
▁የናዚዎችና	-14107
▁የአማጽያኑ	-14108
▁የአሜሪካን	-14109
▁የአራዊትን	-14110
▁የአርመኖች	-14111
▁የአክብሮት	-14112
▁የአድናቆት	-14113
▁የእርስዎን	-14114
▁የእጃቸውን	-14115
▁የከበበኝን	-14116
▁የወታደሮቹ	-14117
▁የወደፊቱን	-14118
▁የየራሳችን	-14119
▁የይቅርታና	-14120
▁የዮሃንስን	-14121
▁የደረሱበት	-14122
▁የድሆችንና	-14123
▁የድረሱልኝ	-14124
▁የጄኖሳይድ	-14125
▁የገረፋትን	-14126
▁የግብረገብ	-14127
▁የጠቀሰችው	-14128
▁የጠየኩትን	-14129
▁የፈለግሁት	-14130
▁የፈረንሳዩ	-14131
▁የፈጸሙትም	-14132
▁ያለብኝ፡፡	-14133
▁ያለንበትን	-14134
▁ያሉትን፡፡	-14135
▁ያልተለመደ	-14136
▁ያልተዘጋጀ	-14137
▁ያልተፈጸመ	-14138
▁ያምጡት፡፡	-14139
▁ያሠራል፡፡	-14140
▁ያረዱትንም	-14141
▁ያሳያሉ፡፡	-14142
▁ያሳያል፡፡	-14143
▁ያስባሉ፡፡	-14144
▁ያስደስተኝ	-14145
▁ያቀናበረው	-14146
▁ያተኮረበት	-14147
▁ያወደመውን	-14148
▁ያውቃሉ፡፡	-14149
▁ያደረግሁት	-14150
▁ያደርጉናል	-14151
▁ያድርጉልን	-14152
▁ይለዋል፡፡	-14153
▁ይመቻል፡፡	-14154
▁ይመጣል፡፡	-14155
▁ይሰማል፡፡	-14156
▁ይቆያል፡፡	-14157
▁ይታያል፡፡	-14158
▁ይታገሣል፣	-14159
▁ይኖሩባታል	-14160
▁ይኖራሉ፡፡	-14161
▁ይኖራል፡፡	-14162
▁ይኖርብናል	-14163
▁ይድነቃቸው	-14164
▁ይገባል፡፡	-14165
▁ይገባቸዋል	-14166
▁ይግባሽ፡፡	-14167
▁ይጎዳብኛል	-14168
▁ይጮሃሉ፡፡	-14169
▁ደስተኝነት	-14170
▁ደብዳቤዎች	-14171
▁ዲያብሎስን	-14172
▁ዳማሲንንም	-14173
▁ዳይሬክተር	-14174
▁ድርድሮችና	-14175
▁ድርጊታችን	-14176
▁ድርጊቶቹን	-14177
▁ጀመረች፡፡	-14178
▁ገላጭነት፣	-14179
▁ገመትኩ፡፡	-14180
▁ገረመኝ፡፡	-14181
▁ጊዜያችንን	-14182
▁ግንኙነትም	-14183
▁ግንዛቤዬን	-14184
▁ግድያቸውን	-14185
▁ግድያዎችና	-14186
▁ግድያዎችን	-14187
▁ጓደኞቻችን	-14188
▁ጠበቅሁ፡፡	-14189
▁ጠየኳት፡፡	-14190
▁ጠይቄያቸው	-14191
▁ጥያቄዎችን	-14192
▁ጨረስኩ፡፡	-14193
▁ጨፈንኩ፡፡	-14194
▁ጮኸበት፡፡	-14195
▁ጸለይን፡፡	-14196
▁ጸጉራችንን	-14197
▁ጽንፈኝነት	-14198
▁ፈረንሳዮች	-14199
▁ፈገግታውን	-14200
▁ፊቶቻቸውን	-14201
▁ፍሎሬንስና	-14202
▁ፍራቻችንን	-14203
▁ፍራንክል፣	-14204
▁ፖሊሲዎችን	-14205
Extermin	-14206
ሬያቸዋለሁ፡፡	-14207
በእግዚአብሔር	-14208
ተክርስቲያናት	-14209
ንገፈግፋቸውና	-14210
ውለበለቡት፡፡	-14211
▁ለመንቀሳቀስ	-14212
▁ለሚለግሳችው	-14213
▁ለሚያዳምጠው	-14214
▁ለማስተናገድ	-14215
▁ለማጎልበትና	-14216
▁ለምትወዱኝና	-14217
▁ለቱትሲዎች፣	-14218
▁ለኤይማብል፣	-14219
▁ለውጦኛል፡፡	-14220
▁ሊያስመልሰኝ	-14221
▁ላለማስቀጠል	-14222
▁ላለማድረግም	-14223
▁ልብሶቻችንን	-14224
▁ልግስናቸውን	-14225
▁መለሱልኝ፡፡	-14226
▁መለስኩለት፤	-14227
▁መሣሪያዎቹን	-14228
▁መሰናክሎችን	-14229
▁መስለዋል፡፡	-14230
▁መቁጠሪያውን	-14231
▁መቃቃሮችንና	-14232
▁መተኛታችንን	-14233
▁መነሳታቸውን	-14234
▁መንሰቅሰቄም	-14235
▁መንስኤአቸው	-14236
▁መንገዳቸውን	-14237
▁መንገዳችንን	-14238
▁መገለጫዎቹን	-14239
▁መገደላቸውን	-14240
▁መጋረጣቸውን	-14241
▁ማበረታቻችሁ	-14242
▁ማኅበረሰብም	-14243
▁ማንነታቸውን	-14244
▁ሰማኋቸው፡፡	-14245
▁ሰውነታቸውን	-14246
▁ሰጠኋቸው፡፡	-14247
▁ሰጥቻለሁ፡፡	-14248
▁ሲያስተምሩን	-14249
▁ሲያጎሳቁል፣	-14250
▁ሳይገፋፉትና	-14251
▁ስለሆንክልኝ	-14252
▁ስለማይፈልጉ	-14253
▁ስለማይፈጸም	-14254
▁ስለምትኖርና	-14255
▁ስለተከሰተው	-14256
▁ስለተዋሃደኝ	-14257
▁ስለተፈጸሙት	-14258
▁ስላለፈችበት	-14259
▁ሸንተረሮቿ፣	-14260
▁ቀርተዋል፡፡	-14261
▁ቆርጫለሁ፡፡	-14262
▁በልጅነታችን	-14263
▁በመከላከልና	-14264
▁በመከልከልና	-14265
▁በመካከለኛው	-14266
▁በመወያየት፣	-14267
▁በመጻሕፍት፣	-14268
▁በመፈቃቀርና	-14269
▁በሚያነብበት	-14270
▁በማስተዳደር	-14271
▁በማቀነባበር	-14272
▁በማብላላት፣	-14273
▁በምመሰጥበት	-14274
▁በምቸገርበት	-14275
▁በረሮዎች፡፡	-14276
▁በሰውነታቸው	-14277
▁በስተመጨረሻ	-14278
▁በስተቀር፡፡	-14279
▁በቁርጠኝነት	-14280
▁በተሽከርካሪ	-14281
▁በተገደሉበት	-14282
▁በተጨናነቀው	-14283
▁በተፈጥሯቸው	-14284
▁በቱትሲዎችና	-14285
▁በትክክለኛው	-14286
▁በአቅራቢያው	-14287
▁በአቅራቢያዬ	-14288
▁በአንጸባራቂ	-14289
▁በአእምሮዬም	-14290
▁በአጠገባቸው	-14291
▁በኢትዮጵያና	-14292
▁በኤሌክትሪክ	-14293
▁በወገኖቻቸው	-14294
▁በዘልማዳዊው	-14295
▁በየሄድኩበት	-14296
▁በጉልበታቸው	-14297
▁በጨፍጫፊዎቹ	-14298
▁ባለሥልጣናት	-14299
▁ባለውለታዎቼ	-14300
▁ባልንጀሮቼን	-14301
▁ባሳለፍናቸው	-14302
▁ባበረከትኳት	-14303
▁ተመልሰው፡፡	-14304
▁ተምረዋል፡፡	-14305
▁ተሰውረውብኝ	-14306
▁ተሳናቸው፡፡	-14307
▁ተሸፍኗል፡፡	-14308
▁ተቃቀፍን፡፡	-14309
▁ተባርኬያለሁ	-14310
▁ተተርጉሟል፤	-14311
▁ተናነቀኝ፡፡	-14312
▁ተናገርኩ፡፡	-14313
▁ተከተለኝ፡፡	-14314
▁ተዘግቷል፡፡	-14315
▁ተዛምቷል፡፡	-14316
▁ተገረምኩ፡፡	-14317
▁ተገናኘን፡፡	-14318
▁ተገድለዋል፤	-14319
▁ተገጣጠሙ፡፡	-14320
▁ተጸጸትኩ፡፡	-14321
▁ታትመዋል፡፡	-14322
▁ታደርጊያለሽ	-14323
▁ታደርጋላችሁ	-14324
▁ታገኙታላችሁ	-14325
▁ትንንሾቹንም	-14326
▁ትክክለኛነት	-14327
▁ትክክለኛውን	-14328
▁ትጠብቃላችሁ	-14329
▁ትፈልጊያለሽ	-14330
▁ነቀነቅሁ፡፡	-14331
▁ነበረብኝ፡፡	-14332
▁አለማንጋጠጥ	-14333
▁አልሰጣቸውም	-14334
▁አልቀርም፡፡	-14335
▁አልቀዋል፡፡	-14336
▁አልቻሉም፡፡	-14337
▁አልነበረም፤	-14338
▁አልኳቸው፡፡	-14339
▁አልገመትኩም	-14340
▁አልገቡም፡፡	-14341
▁አልገባቸውም	-14342
▁አልፈለግህም	-14343
▁አመሰገንኩት	-14344
▁አሰቀቀኝ፡፡	-14345
▁አሰቃቂነትና	-14346
▁አሳለፍኩ፡፡	-14347
▁አስቀምጧት፣	-14348
▁አስበልጣችሁ	-14349
▁አስበዋል፡፡	-14350
▁አስተሳሰብና	-14351
▁አስተያየቶች	-14352
▁አስተዳዳሪው	-14353
▁አስታወስኩና	-14354
▁አስቸጋሪውን	-14355
▁አስገዳጅነት	-14356
▁አቀፈችኝ፡፡	-14357
▁አቃሰትኩ፡፡	-14358
▁አቋረጠኝ፡፡	-14359
▁አብሮነትሽን	-14360
▁አብዳለች፡፡	-14361
▁አተረፈኝ፡፡	-14362
▁አታድርገኝ፣	-14363
▁አታድርግ፡፡	-14364
▁አነባለሁ፡፡	-14365
▁አንሆንም፡፡	-14366
▁አንሾካሾኩ፤	-14367
▁አንብበውለት	-14368
▁አንደሚያዩን	-14369
▁አክብሮታቸው	-14370
▁አውሮፓውያን	-14371
▁አውዳሚነትና	-14372
▁አየናቸው፡፡	-14373
▁አያመጣም፡፡	-14374
▁አያሻንም፡፡	-14375
▁አያውቁም፡፡	-14376
▁አይሆንም፡፡	-14377
▁አይመስለኝም	-14378
▁አይቻለሁ፡፡	-14379
▁አይችልም፡፡	-14380
▁አይነካኝም፣	-14381
▁አይደለሁም፤	-14382
▁አድራሻቸውና	-14383
▁አድነኸኛል፤	-14384
▁አገኛለሁ፡፡	-14385
▁አጎቶቻችሁን	-14386
▁አፍሪካውያን	-14387
▁አፍጥጧል፡፡	-14388
▁ኢማኪዩሌንና	-14389
▁ኢንስፐሬሽን	-14390
▁እላችኋለሁ፣	-14391
▁እመጣለሁ፡፡	-14392
▁እርግጠኝነት	-14393
▁እሰማለሁ፡፡	-14394
▁እስከዘላለሙ	-14395
▁እስኪያገኙን	-14396
▁እስክንደርስ	-14397
▁እቆያለሁ፡፡	-14398
▁እተኛለሁ፡፡	-14399
▁እነቃለሁ፡፡	-14400
▁እንደሆናችሁ	-14401
▁እንደመልህቅ	-14402
▁እንደሚሰጠን	-14403
▁እንደሚባለው	-14404
▁እንደሚታይም	-14405
▁እንደሚናገሩ	-14406
▁እንደሚወደኝ	-14407
▁እንደሚገባን	-14408
▁እንደሚገድሉ	-14409
▁እንደማልችል	-14410
▁እንደማትፈራ	-14411
▁እንደምትኖር	-14412
▁እንደምችልም	-14413
▁እንደምንሆን	-14414
▁እንደርሳቸው	-14415
▁እንደሰማነው	-14416
▁እንደተናደደ	-14417
▁እንደተኛሁ፣	-14418
▁እንደተደሰተ	-14419
▁እንደተጣለው	-14420
▁እንደተጣልኩ	-14421
▁እንደናፈቀኝ	-14422
▁እንደወረድኩ	-14423
▁እንደወትሮው	-14424
▁እንዲልክልኝ	-14425
▁እንዲሰማቸው	-14426
▁እንዲነግረኝ	-14427
▁እንዲወስዱኝ	-14428
▁እንዲያቆም፣	-14429
▁እንዲያነቡት	-14430
▁እንዲያገኙን	-14431
▁እንዲያግዘኝ	-14432
▁እንዲያግዛት	-14433
▁እንዲጎለብት	-14434
▁እንዳልወድቅ	-14435
▁እንዳተረፋት	-14436
▁እንዳተኩርና	-14437
▁እንዳንሆንና	-14438
▁እንዳንዣበበ	-14439
▁እንዳኖራትና	-14440
▁እንዳካሂደው	-14441
▁እንዳያቆሙት	-14442
▁እንዳያካሂድ	-14443
▁እንዳይሰሙኝ	-14444
▁እንዳይሰማን	-14445
▁እንዳይሰፍን	-14446
▁እንዳይደገም	-14447
▁እንዳይገባ፣	-14448
▁እንዳይገድሉ	-14449
▁እንድምራቸው	-14450
▁እንድትታጠብ	-14451
▁እንድትናገሪ	-14452
▁እንድንጨብጥ	-14453
▁እንጠቀምበት	-14454
▁እንጠብቃቸው	-14455
▁እወስዳለሁ፣	-14456
▁እወዳለሁ፡፡	-14457
▁እየተዘዋወሩ	-14458
▁እየተጨነቀች	-14459
▁እየተፈበረኩ	-14460
▁እየነቀነቀች	-14461
▁እያለከለክን	-14462
▁እያንጠለጠለ	-14463
▁እያደረገ፡፡	-14464
▁እግሮቻቸውን	-14465
▁እጸልያለሁ፣	-14466
▁እጸልያለሁ፤	-14467
▁እጽፋለሁ፡፡	-14468
▁ኦገስቲን፡፡	-14469
▁ከመቀመጫችሁ	-14470
▁ከመቀመጫችን	-14471
▁ከመካከላቸው	-14472
▁ከመግደላቸው	-14473
▁ከመፍጀታቸው	-14474
▁ከሚታሰበውም	-14475
▁ከሚያደርጉት	-14476
▁ከማይዋሹ፡፡	-14477
▁ከቤተሰባችን	-14478
▁ከተጨፍጫፊው	-14479
▁ከእብነበረድ	-14480
▁ከእንግሊዝኛ	-14481
▁ከጨፍጫፊውና	-14482
▁ካነበብኳቸው	-14483
▁ክርስቲያናት	-14484
▁ወንድማማቾች	-14485
▁ወንድሞቼንም	-14486
▁ወንድሞችሽን	-14487
▁ወደድኩት፡፡	-14488
▁ወድቀዋል፡፡	-14489
▁ወገናዊነትና	-14490
▁የለበትም፡፡	-14491
▁የለብንም፡፡	-14492
▁የለገሳችሁኝ	-14493
▁የልጃገረዶች	-14494
▁የመቁጠሪያው	-14495
▁የመንደራችን	-14496
▁የመንግሥትን	-14497
▁የመጣሁት፡፡	-14498
▁የሚሆነው፡፡	-14499
▁የሚታሰቡትን	-14500
▁የሚታወሰኝም	-14501
▁የሚችልበትን	-14502
▁የሚንቀሳቀስ	-14503
▁የሚወልደውን	-14504
▁የሚያልቅበት	-14505
▁የሚያመጡልን	-14506
▁የሚያሳየውን	-14507
▁የሚያሳድጉት	-14508
▁የሚያስብለኝ	-14509
▁የሚያስጨንቅ	-14510
▁የሚያነሳውን	-14511
▁የሚያደርግና	-14512
▁የሚደርሰውን	-14513
▁የሚገልጸውን	-14514
▁የሚጠበቅብኝ	-14515
▁የማላውቀውን	-14516
▁የማይነግረን	-14517
▁የማይገኝለት	-14518
▁የማይጠገቡት	-14519
▁የምታርፉበት	-14520
▁የምትፈልጊው	-14521
▁የምንረግጠው	-14522
▁የምንሸክፈው	-14523
▁የምንችልበት	-14524
▁የምንገደለው	-14525
▁የምወዳቸውን	-14526
▁የሰውነታችን	-14527
▁የቀረበችኝን	-14528
▁የቀሰምኩበት	-14529
▁የበቀለችውና	-14530
▁የተመለሰችው	-14531
▁የተመሰረተና	-14532
▁የተረጎምኩት	-14533
▁የተሸከርካሪ	-14534
▁የተቀመጠችው	-14535
▁የተካሄደውና	-14536
▁የተዋወቅሁት	-14537
▁የተገደሉበት	-14538
▁የተጠቀሙበት	-14539
▁የተፈጁበትን	-14540
▁የተፈጸመበት	-14541
▁የተፈጸመውን	-14542
▁የኅብረተሰብ	-14543
▁የነበሩትንም	-14544
▁የአማርኛውን	-14545
▁የአሳቢነትና	-14546
▁የአንባቢውን	-14547
▁የካምቦዲያው	-14548
▁የክርስቶፈር	-14549
▁የወንድሞቼን	-14550
▁የደረሰባቸው	-14551
▁የደረሰብንን	-14552
▁የገደሏቸውን	-14553
▁የጎረቤቶቼን	-14554
▁የጥቃቶቻቸው	-14555
▁የፈረንሳይኛ	-14556
▁ያላችሁት፡፡	-14557
▁ያሰኘኛል፡፡	-14558
▁ያባረራቸውን	-14559
▁ያኮራኛል፡፡	-14560
▁ያደርጋሉ፡፡	-14561
▁ይሁንልኝ፡፡	-14562
▁ይሰማናል፡፡	-14563
▁ይሰጡናል፡፡	-14564
▁ይተካዋል፡፡	-14565
▁ይኖርባችኋል	-14566
▁ይከብሃል፡፡	-14567
▁ይደረጋል፡፡	-14568
▁ይደርሳል፡፡	-14569
▁ይድረስህ፡፡	-14570
▁ይጀምራሉ፡፡	-14571
▁ይገልጻሉ፡፡	-14572
▁ይገልጻቸዋል	-14573
▁ይጋርድሃል፣	-14574
▁ይጠለፍብኛል	-14575
▁ይጠብቃል፡፡	-14576
▁ይፈረጃሉ፡፡	-14577
▁ይፈጽማሉ፡፡	-14578
▁ዲሞክራሲያዊ	-14579
▁ድርጊታቸውም	-14580
▁ገማመሰው፡፡	-14581
▁ገፋፋሁት፡፡	-14582
▁ጠመንጃዎችና	-14583
▁ጡንቻዎቻችን	-14584
▁ጨፈንኳቸው፤	-14585
▁ጨፍጫፊዎችና	-14586
▁ጮህኩበት፡፡	-14587
▁ጸልያለሁ፡፡	-14588
.........	-14589
Classific	-14590
▁ለተጨፍጫፊዎቹ	-14591
▁ለተፈጸመባቸው	-14592
▁ለግሳቸዋች፡፡	-14593
▁ሕይወቶቻቸውን	-14594
▁መለስኩለት፡፡	-14595
▁መልከዓምድር፣	-14596
▁ማስፈራሪያዎች	-14597
▁ማኅበረሰባችን	-14598
▁ምክንያታዊነት	-14599
▁ረድተውኛል፡፡	-14600
▁ሩዋንዳውያን፣	-14601
▁ሰለባዎቻቸውን	-14602
▁ስለሚተማመንና	-14603
▁ስለሚከታተል፣	-14604
▁ስለሚጎተጉተኝ	-14605
▁ስለወንድማችን	-14606
▁ስለፈቀድሽልኝ	-14607
▁ስላበረታታኸኝ	-14608
▁ቀይሬያለሁ፡፡	-14609
▁በልዩነቶቻቸው	-14610
▁በሚያስደተኝና	-14611
▁በሚያንጸባርቅ	-14612
▁በማልጸልይበት	-14613
▁በተደበቀችበት	-14614
▁በተደበቅንበት	-14615
▁በተገናኘንበት	-14616
▁በተግባርም፡፡	-14617
▁በአቅራቢያቸው	-14618
▁በአካባቢያችን	-14619
▁በኪንያሩዋንዳ	-14620
▁በየተወለዱበት	-14621
▁በገጀራዎቻቸው	-14622
▁በፈረንሳውያኑ	-14623
▁ቤልጅየማውያኑ	-14624
▁ተሸከርካሪውን	-14625
▁ተቀላቀልኩ፡፡	-14626
▁ተቀምጠዋል፡፡	-14627
▁ተችሏቸዋል፡፡	-14628
▁ተናግራለች፡፡	-14629
▁ተንተገተገ፡፡	-14630
▁ተንኮታኮተ፡፡	-14631
▁ተወራጆቻቸውን	-14632
▁ተደርገዋል፡፡	-14633
▁ተጠራጠርኩ፡፡	-14634
▁ትመስላለች፡፡	-14635
▁ትችላላችሁ፡፡	-14636
▁ነግረውናል፡፡	-14637
▁ነግረውኛል፡፡	-14638
▁አላስቆማቸውም	-14639
▁አላወቅሁም፡፡	-14640
▁አልሰጠኝም፡፡	-14641
▁አልቀረንም፡፡	-14642
▁አልቀረኝም፡፡	-14643
▁አልተነሣሽም፤	-14644
▁አልቻለችም፡፡	-14645
▁አልፈለጉም፡፡	-14646
▁አልፈቅድም፡፡	-14647
▁አሳልፋለሁ፡፡	-14648
▁አሳስባለሁ፡፡	-14649
▁አስገቡልን፡፡	-14650
▁አስገድዷል፡፡	-14651
▁አስፈለገኝ፡፡	-14652
▁አሸማቀቀኝ፡፡	-14653
▁አሽቆጥቁጠውና	-14654
▁አብራሩልን፡፡	-14655
▁አብሮነታችንን	-14656
▁አንዳትነኳችው	-14657
▁አካባቢያችንን	-14658
▁አወድሶታል፡፡	-14659
▁አውቀነዋል፡፡	-14660
▁አውቄዋለሁ፡፡	-14661
▁አያውቁትም፡፡	-14662
▁አያዳግትም፡፡	-14663
▁አያገጣብሩኝም	-14664
▁አይታወቁም፡፡	-14665
▁አይኖረኝም፡፡	-14666
▁አይከብድም፡፡	-14667
▁አይገርምም፡፡	-14668
▁አይጨነቁም፡፡	-14669
▁አደረኳቸው፡፡	-14670
▁አጋጥሞኛል፡፡	-14671
▁አግኝተናል፡፡	-14672
▁አግዘውኛል፡፡	-14673
▁አጣመርኳቸው፤	-14674
▁አፈገፍጋለሁ፤	-14675
▁አፍጠውብኛል፤	-14676
▁ኢማኪዩሌን፡፡	-14677
▁እመልሳለሁ፡፡	-14678
▁እሰማዋለሁ፡፡	-14679
▁እስከገባሁበት	-14680
▁እናወራለን፡፡	-14681
▁እንኖራለን፡፡	-14682
▁እንከባከባቸው	-14683
▁እንደመሆናቸው	-14684
▁እንደሚመደብና	-14685
▁እንደሚመጣልኝ	-14686
▁እንደሚታወሰኝ	-14687
▁እንደሚናገሩት	-14688
▁እንደሚያትተው	-14689
▁እንደሚያገኙኝ	-14690
▁እንደማያደርግ	-14691
▁እንደማገኛቸው	-14692
▁እንደምናደርግ	-14693
▁እንደምንረዳው	-14694
▁እንደሩዋንዳው	-14695
▁እንደተሳሰረና	-14696
▁እንደተደረገው	-14697
▁እንደተደበቁት	-14698
▁እንደተገደለች	-14699
▁እንደተገደሉና	-14700
▁እንደተፈጸመው	-14701
▁እንዳልሆንን፣	-14702
▁እንዳስተቻቸው	-14703
▁እንዳስከተለና	-14704
▁እንዳባረሯቸው	-14705
▁እንዳናገኛቸው	-14706
▁እንዳንቀበል፣	-14707
▁እንዳይታሰብም	-14708
▁እንድትተፊበት	-14709
▁እንድናሳድገው	-14710
▁እንድናስባቸው	-14711
▁እንጋራዋለን፣	-14712
▁እንግሊዝኛዬን	-14713
▁እወርዳለሁ፡፡	-14714
▁እየተከላከሉን	-14715
▁እየተገደላችሁ	-14716
▁እየታደናችሁና	-14717
▁እገምታለሁ፡፡	-14718
▁እገናኛለሁ፡፡	-14719
▁እግዚአብሔር፤	-14720
▁እጠቀማለሁ፡፡	-14721
▁እጠብቃለሁ፡፡	-14722
▁እጸልያለሁ፡፡	-14723
▁ከባለሥልጣናት	-14724
▁ከተፈጠርንበት	-14725
▁ከአብዛኞቻችን	-14726
▁ከኢንተርሃምዌ	-14727
▁ከእንግሊዝኛው	-14728
▁ከየልምዶቻችን	-14729
▁ከጎረቤቶቻችን	-14730
▁ከፈረንሳውያኑ	-14731
▁ወደተቀመጡበት	-14732
▁ዘረገፍኩት፡፡	-14733
▁የመጀመሪያዎቹ	-14734
▁የመግለጻቸውን	-14735
▁የሚነግሯቸውን	-14736
▁የሚያሠራጯቸው	-14737
▁የሚያርበደብድ	-14738
▁የሚያስታውሰን	-14739
▁የሚያንጸባርቅ	-14740
▁የሚያደርጋቸው	-14741
▁የሚጠናወታቸው	-14742
▁የማልችላቸውን	-14743
▁የማስጠንቀቂያ	-14744
▁የማይንጸባረቅ	-14745
▁የምትመስለውን	-14746
▁የምትመግበንን	-14747
▁የሰውነታቸውን	-14748
▁የተሰነጣጠቀች	-14749
▁የተሳተፈበትና	-14750
▁የተሸከርካሪው	-14751
▁የተበረከተላት	-14752
▁የተካሄደባቸው	-14753
▁የተገደለችውን	-14754
▁የተገደሉት፡፡	-14755
▁የተጨፈጨፉበት	-14756
▁የተፈጸመባቸው	-14757
▁የነገረችኝ፡፡	-14758
▁የአካባቢያችን	-14759
▁የእንግሊዝኛን	-14760
▁የወላጆቻቸውን	-14761
▁የዩኒቨርሲቲን	-14762
▁ዩኒቨርሲቲዎች	-14763
▁ያሰለጥናሉ፡፡	-14764
▁ያሰጥመናል፡፡	-14765
▁ያሳስበዋል፡፡	-14766
▁ያስገድዳል፡፡	-14767
▁ያደርጉታል፡፡	-14768
▁ያጠቃልላል፡፡	-14769
▁ይኖርብኛል፡፡	-14770
▁ይኩራሩማል፡፡	-14771
▁ይዘዋወራሉ፡፡	-14772
▁ይደግፈኛል፡፡	-14773
▁ይድረስልኝ፡፡	-14774
▁ይገድሉሻል፡፡	-14775
▁ይገድሉናል፡፡	-14776
▁ይጨፈጭፋሉ፡፡	-14777
▁ድርጊቶቻችንን	-14778
▁ገለጽኩለት፡፡	-14779
▁ጠየቅኋቸው፡፡	-14780
▁ጸልዬአለሁ፡፡	-14781
▁ጽፈውልኛል፡፡	-14782
▁ፈረንሳውያንን	-14783
▁ለሚወነጅሉባቸው	-14784
▁ስለሚያስፈልጋት	-14785
▁ስለሰጣችሁኝ፡፡	-14786
▁ስለደህንነታችን	-14787
▁በማከናውንበትና	-14788
▁በቤተክርስቲያኑ	-14789
▁በቤተክርስቲያን	-14790
▁በኢትዮጵያውያን	-14791
▁በእግዚአብሔርም	-14792
▁ቤተክርስቲያንም	-14793
▁ተማሪዎቻቸውንና	-14794
▁ተሸሽጌያለሁ፡፡	-14795
▁ተሸከርካሪዎችን	-14796
▁ተሸከርካሪያችን	-14797
▁ተተርኮበታል፡፡	-14798
▁ተቸከቸኩብኝ፡፡	-14799
▁ተንቀጠቀጥኩ፡፡	-14800
▁ተንበረከክሁ፡፡	-14801
▁ተወያይተናል፡፡	-14802
▁ታደርጓታላችሁ፣	-14803
▁አለመግባባቶችን	-14804
▁አላናደደኝም፡፡	-14805
▁አልሆነልኝም፡፡	-14806
▁አልተመኘሁም፡፡	-14807
▁አልተቻለንም፡፡	-14808
▁አልተቻለውም፡፡	-14809
▁አመሰግናለሁ፡፡	-14810
▁አመሰግናችኋለሁ	-14811
▁አረጋገጠልኝ፡፡	-14812
▁አስብለውኛል፡፡	-14813
▁አስተያየታቸውን	-14814
▁አስገኝቷታል፡፡	-14815
▁አስጠነቀቀን፡፡	-14816
▁አታድርጋቸው፡፡	-14817
▁አንቀጠቀጠኝ፡፡	-14818
▁አያደርገውም፡፡	-14819
▁አይሆንልኝም፡፡	-14820
▁አይሆንብኝም፡፡	-14821
▁አገኛችኋለሁ፡፡	-14822
▁አጠናክራለሁ፡፡	-14823
▁ኢንተርሃምዌዎቹ	-14824
▁እናደርጋለን፡፡	-14825
▁እንደሚመጣባቸው	-14826
▁እንደሚያስከትል	-14827
▁እንደሚጠቀሙበት	-14828
▁እንደማይገድሉን	-14829
▁እንደተወደድኩም	-14830
▁እንደተገለጠልኝ	-14831
▁እንደተገደሉባት	-14832
▁እንዲያድንላቸው	-14833
▁እንገደዳለን፡፡	-14834
▁እንፈልጋለን፡፡	-14835
▁እወስድሻለሁ፡፡	-14836
▁እየተርበደበድኩ	-14837
▁እግዚአብሔርንም	-14838
▁እጠቀመዋለሁ፡፡	-14839
▁ዘመርኩላቸው፡፡	-14840
▁የሚተሳሰቡበትና	-14841
▁የሚከባበሩበት፣	-14842
▁የሚያስከትለውን	-14843
▁የሚያሻሽሉልኝን	-14844
▁የሚያጠፋላቸውን	-14845
▁የማሰላስልበትና	-14846
▁የማይሞላላቸውን	-14847
▁የምነጋገርበት፣	-14848
▁የምንከባከብበት	-14849
▁የተገደለችው፡፡	-14850
▁የእያንዳንዳችን	-14851
▁ያልተጠቀመባቸው	-14852
▁ያስተምረናል፡፡	-14853
▁ያስፈልገናል፡፡	-14854
▁ያዘጋጇቸዋል፡፡	-14855
▁ይነግራችኋል፡፡	-14856
▁ገፋፍቷቸዋል፡፡	-14857
▁ጠመንጃዎቻቸውን	-14858
Preparation	-14859
▁ስለሚያስታውሰኝ፣	-14860
▁ስለሚያንሸራትተኝ	-14861
▁ስለምትፈልግልኝ፣	-14862
▁ስለተናደድኩባቸው	-14863
▁ተጠቅመውበታል፡፡	-14864
▁ታደርጓታላችሁ፡፡	-14865
▁አላቀለለልኝም፡፡	-14866
▁አልሰማኋቸውም፡፡	-14867
▁አልነበራቸውም፡፡	-14868
▁አልወሰደብንም፡፡	-14869
▁አልጠነከርኩም፡፡	-14870
▁አመሰግንሃለሁ፡፡	-14871
▁አሳጥተዋቸዋል፡፡	-14872
▁አድርቶባቸዋል፡፡	-14873
▁እንተዋወቃለን፡፡	-14874
▁እንዳስቸገርኳቸው	-14875
▁እንዳይደርስበትና	-14876
▁እያውለበለቡት፡፡	-14877
▁እጋብዝዎታለሁ፡፡	-14878
▁ከነጨፍጫፊዎቻቸው	-14879
▁የሚንጸባረቅበትና	-14880
▁የሚያስፈልጋቸውን	-14881
▁የማኅበረሰባችንን	-14882
▁የእንግሊዝኛውንና	-14883
▁ያስገነዝበናል፡፡	-14884
▁ይጠርግላቸዋል፡፡	-14885
Organization	-14886
Polarization	-14887
▁ቤተክርስቲያናችንን	-14888
▁አመሰግናችኋለሁ፡፡	-14889
▁የሚያንገፈግፋቸውና	-14890
Extermination	-14891
Symbolization	-14892
..............	-14893
Classification	-14894
Dehumanization	-14895
-7	-14896
14	-14897
3)	-14898
65	-14899
80	-14900
90	-14901
92	-14902
ot	-14903
sp	-14904
ሀሳ	-14905
ሁኗ	-14906
ሁድ	-14907
ሁ፡	-14908
ሃሪ	-14909
ሃብ	-14910
ሄጃ	-14911
ህተ	-14912
ህፍ	-14913
ለቀ	-14914
ለቃ	-14915
ለነ	-14916
ለአ	-14917
ሊፕ	-14918
ላች	-14919
ላኛ	-14920
ላደ	-14921
ላጀ	-14922
ላፍ	-14923
ሌላ	-14924
ሌና	-14925
ልሎ	-14926
ልቀ	-14927
ልዩ	-14928
ልፕ	-14929
ሕዝ	-14930
መሙ	-14931
መቀ	-14932
መቼ	-14933
መዴ	-14934
መገ	-14935
ሚስ	-14936
ሚዩ	-14937
ማሁ	-14938
ማኖ	-14939
ማዬ	-14940
ማጥ	-14941
ሜዳ	-14942
ምሱ	-14943
ምቼ	-14944
ሞለ	-14945
ሞካ	-14946
ረጨ	-14947
ሩር	-14948
ሩቡ	-14949
ሩጡ	-14950
ሪም	-14951
ሪታ	-14952
ሪት	-14953
ራሱ	-14954
ራኑ	-14955
ራዦ	-14956
ራይ	-14957
ራጥ	-14958
ራጫ	-14959
ራፍ	-14960
ርቄ	-14961
ርብ	-14962
ርቲ	-14963
ርጣ	-14964
ሮዬ	-14965
ሮፕ	-14966
ሰኘ	-14967
ሰይ	-14968
ሱና	-14969
ሲን	-14970
ሳሉ	-14971
ሳቴ	-14972
ሳና	-14973
ሳኤ	-14974
ሳኩ	-14975
ሳው	-14976
ሳጽ	-14977
ስህ	-14978
ስቤ	-14979
ስቴ	-14980
ስጠ	-14981
ሸከ	-14982
ሹም	-14983
ሹራ	-14984
ሹና	-14985
ሹ፣	-14986
ሻሹ	-14987
ሻቅ	-14988
ሼና	-14989
ሽሬ	-14990
ሽግ	-14991
ሿል	-14992
ቀለ	-14993
ቀላ	-14994
ቀሙ	-14995
ቀፊ	-14996
ቀ፤	-14997
ቁረ	-14998
ቁኛ	-14999
28	-15000
ህሏ	-15001
ሏል	-15002
ራዝ	-15003
ራዬ	-15004
ሯሩ	-15005
ሰዋ	-15006
ሶላ	-15007
ሽማ	-15008
ሽብ	-15009
ቂቋ	-15010
ቂዋ	-15011
ቃሉ	-15012
ቃቃ	-15013
ቃቱ	-15014
ቅል	-15015
ቅሙ	-15016
ቅዝ	-15017
ቅዮ	-15018
ቋሙ	-15019
ቋም	-15020
ቋረ	-15021
ቋሪ	-15022
ቋጨ	-15023
በሁ	-15024
በለ	-15025
በሌ	-15026
በማ	-15027
በሰ	-15028
በሽ	-15029
በቀ	-15030
በባ	-15031
በቤ	-15032
በኝ	-15033
በኪ	-15034
በዋ	-15035
በዱ	-15036
በጡ	-15037
በፍ	-15038
በ፤	-15039
ቡር	-15040
ቡቡ	-15041
ባኪ	-15042
ቤቷ	-15043
ብት	-15044
ቦጫ	-15045
ቪድ	-15046
ተመ	-15047
ተራ	-15048
ተሻ	-15049
ተተ	-15050
ተኙ	-15051
ተያ	-15052
ተፍ	-15053
ቲን	-15054
ታሪ	-15055
ታዲ	-15056
ትል	-15057
ትሸ	-15058
ትኩ	-15059
ቶኒ	-15060
ቷ፣	-15061
ቸኝ	-15062
ቻች	-15063
ችጋ	-15064
ነሺ	-15065
ነሽ	-15066
ነታ	-15067
ነዱ	-15068
ነጭ	-15069
ነጻ	-15070
ኒስ	-15071
ናታ	-15072
ናዎ	-15073
ኔት	-15074
ኔጋ	-15075
ንጀ	-15076
ንጅ	-15077
ንጉ	-15078
ኜም	-15079
ኝኝ	-15080
አባ	-15081
አን	-15082
አየ	-15083
አግ	-15084
አጥ	-15085
አፍ	-15086
ኤል	-15087
እም	-15088
እቤ	-15089
እነ	-15090
እጅ	-15091
ከሳ	-15092
ከነ	-15093
ከዞ	-15094
ኩላ	-15095
ኪቩ	-15096
ካላ	-15097
ካቢ	-15098
ካተ	-15099
ማዶ	-15100
ራመ	-15101
ርህ	-15102
ሮ፣	-15103
ስኬ	-15104
ስዊ	-15105
ቃጠ	-15106
ብጣ	-15107
ቱ፣	-15108
ትሬ	-15109
ካኒ	-15110
ካና	-15111
ካን	-15112
ካይ	-15113
ክሁ	-15114
ክህ	-15115
ክሌ	-15116
ክተ	-15117
ክዊ	-15118
ኮሌ	-15119
ኮን	-15120
ወላ	-15121
ወገ	-15122
ዉን	-15123
ዊና	-15124
ዋሌ	-15125
ዋሽ	-15126
ዋኝ	-15127
ዋያ	-15128
ዋጥ	-15129
ውር	-15130
ውዛ	-15131
ውዬ	-15132
ውዳ	-15133
ዔው	-15134
ዘመ	-15135
ዘዝ	-15136
ዘያ	-15137
ዛቀ	-15138
ዜር	-15139
ዞኝ	-15140
የረ	-15141
የሩ	-15142
የስ	-15143
የቀ	-15144
የባ	-15145
የኔ	-15146
የአ	-15147
የፍ	-15148
ዩቸ	-15149
ዪን	-15150
ያች	-15151
ያኔ	-15152
ያ፤	-15153
ዬማ	-15154
ይላ	-15155
ይሚ	-15156
ይቅ	-15157
ይች	-15158
ደሉ	-15159
ደፈ	-15160
ዱላ	-15161
ዱ፤	-15162
ዳል	-15163
ዳብ	-15164
ዳ፣	-15165
ድሃ	-15166
ድሎ	-15167
ድሮ	-15168
ጀታ	-15169
ጀቷ	-15170
ጀቿ	-15171
ጃው	-15172
ገሙ	-15173
ገማ	-15174
ገቧ	-15175
ገቱ	-15176
ጉኝ	-15177
ጉድ	-15178
ጉ፤	-15179
ጊቴ	-15180
ጋለ	-15181
ጋሜ	-15182
ጋቴ	-15183
ጋኝ	-15184
ጋው	-15185
ጋደ	-15186
ግት	-15187
ግቷ	-15188
ግዘ	-15189
ግፌ	-15190
ግፍ	-15191
ግ፤	-15192
ጎነ	-15193
ጎን	-15194
ጓሚ	-15195
ጠመ	-15196
ጠሪ	-15197
ጡብ	-15198
ጡጫ	-15199
ህቴ	-15200
ሉታ	-15201
ማላ	-15202
ረገ	-15203
ሰል	-15204
ስቦ	-15205
ብድ	-15206
ታሚ	-15207
ቶታ	-15208
ነቅ	-15209
አታ	-15210
አፋ	-15211
ወዘ	-15212
ውይ	-15213
የቷ	-15214
ዴና	-15215
ጣሁ	-15216
ጥላ	-15217
ጥረ	-15218
ጥቅ	-15219
ጥበ	-15220
ጥብ	-15221
ጧጧ	-15222
ጨሁ	-15223
ጨሱ	-15224
ጨብ	-15225
ጩህ	-15226
ጭቅ	-15227
ጭቶ	-15228
ጮቹ	-15229
ጮች	-15230
ጸሎ	-15231
ጸኑ	-15232
ጸጉ	-15233
ጸፋ	-15234
ጹን	-15235
ጻን	-15236
ጻጻ	-15237
ጻጽ	-15238
ጽደ	-15239
ፈሪ	-15240
ፈቅ	-15241
ፈዘ	-15242
ፈፏ	-15243
ፊ፣	-15244
ፋም	-15245
ፋቱ	-15246
ፋፈ	-15247
ፍም	-15248
ፍሪ	-15249
ፍስ	-15250
ፍቃ	-15251
ፎለ	-15252
ፏም	-15253
ፏቴ	-15254
▁A	-15255
▁ቂ	-15256
▁ኧ	-15257
▁ዊ	-15258
▁ዒ	-15259
▁ዙ	-15260
▁ዡ	-15261
▁ዣ	-15262
▁ዬ	-15263
▁ፂ	-15264
▁ፏ	-15265
▁ፐ	-15266
▁ፕ	-15267
!!!	-15268
500	-15269
pia	-15270
ሀገሯ	-15271
ሄድና	-15272
ሄድ፣	-15273
ህቶች	-15274
ህንና	-15275
ሆኑም	-15276
ሆኚው	-15277
ለመኑ	-15278
ለመኝ	-15279
ለሽም	-15280
ለቀል	-15281
ለዋት	-15282
ለው፣	-15283
ሉበት	-15284
ሉብኝ	-15285
ሉታዊ	-15286
ሉትን	-15287
ላለቀ	-15288
ላለዳ	-15289
ላልቅ	-15290
ላል፤	-15291
ላምጄ	-15292
ላቱም	-15293
ሌሜን	-15294
ልለት	-15295
ልም፤	-15296
ልቆና	-15297
ልኮል	-15298
ልጠው	-15299
-8	-15300
11	-15301
40	-15302
55	-15303
ሁሽ	-15304
ሄጂ	-15305
ለጸ	-15306
ላጅ	-15307
ልጄ	-15308
መሃ	-15309
መሜ	-15310
ርጊ	-15311
ርፌ	-15312
ቃብ	-15313
ቃኙ	-15314
ቢቴ	-15315
ቦቼ	-15316
ትለ	-15317
ችቴ	-15318
ከቱ	-15319
ኬላ	-15320
ክሬ	-15321
ዋሚ	-15322
ዋ፣	-15323
ውጋ	-15324
ዘል	-15325
ገቴ	-15326
ጊት	-15327
ግሸ	-15328
ጣው	-15329
ጥመ	-15330
ፍቂ	-15331
-8)	-15332
40.	-15333
ሎችና	-15334
ሕይወ	-15335
መልጠ	-15336
መረቀ	-15337
መረቅ	-15338
መረኮ	-15339
መረዘ	-15340
መኛዬ	-15341
መጥፎ	-15342
ሚሆን	-15343
ማለሁ	-15344
ማማኝ	-15345
ማምቅ	-15346
ማያው	-15347
ምዋሚ	-15348
ምጣቴ	-15349
ሞተው	-15350
ሞክሩ	-15351
ሟት፤	-15352
ሟገቴ	-15353
ሟጠጥ	-15354
ሠራጨ	-15355
ረሸን	-15356
ረንጅ	-15357
ረዳም	-15358
ረዳዋ	-15359
ረገፈ	-15360
ረጋት	-15361
ሩንባ	-15362
ሪያራ	-15363
ራልኝ	-15364
ራት፣	-15365
ራውና	-15366
ራዦች	-15367
ራጨት	-15368
ርሃቴ	-15369
ርቀት	-15370
ርኩዞ	-15371
ርጊቭ	-15372
ሮዝ፣	-15373
ሮጊት	-15374
ሰቡት	-15375
ሰዎች	-15376
ሰጥሽ	-15377
ሳቱን	-15378
ሳዩን	-15379
ሳይም	-15380
ስሰው	-15381
ስቅም	-15382
ስደገ	-15383
ስፈራ	-15384
ሶኒን	-15385
ሸዋ፣	-15386
ሸግሸ	-15387
ሺምዌ	-15388
ሻለኝ	-15389
ሻምተ	-15390
ሽንት	-15391
ሽንን	-15392
ሽክሊ	-15393
ሾልክ	-15394
ቀራት	-15395
ቀቅሁ	-15396
ቀየሩ	-15397
ቀጠቅ	-15398
ቀፍና	-15399
ሰጡ	-15400
ስቁ	-15401
ባና	-15402
ንጮ	-15403
ኙና	-15404
ክሩ	-15405
ዊ፣	-15406
ዱቄ	-15407
ግም	-15408
ሄድህ	-15409
ሰሙና	-15410
ቁርና	-15411
ቁብኝ	-15412
ቁት፤	-15413
ቃል፤	-15414
ቃስታ	-15415
ቆምኩ	-15416
ቆርጭ	-15417
ቆፍር	-15418
በላ፣	-15419
በልኝ	-15420
በራክ	-15421
በሰቡ	-15422
በታተ	-15423
በት፤	-15424
በዋና	-15425
በውን	-15426
በዘር	-15427
በደር	-15428
ቢልኝ	-15429
ባህር	-15430
ብለኝ	-15431
ብቆን	-15432
ብን፤	-15433
ብዳቤ	-15434
ቦኛል	-15435
ተታት	-15436
ተንት	-15437
ተኛም	-15438
ተዉን	-15439
ተውለ	-15440
ተውል	-15441
ተውሶ	-15442
ተውን	-15443
ታለህ	-15444
ታመን	-15445
ቸሁት	-15446
ችሉም	-15447
ችልኝ	-15448
ችምና	-15449
ችሽን	-15450
ችን፤	-15451
ችጋር	-15452
ነስተ	-15453
ነቀኝ	-15454
ነትህ	-15455
ነካኩ	-15456
ነግጥ	-15457
ነጠቀ	-15458
ነጥጥ	-15459
ናቀሉ	-15460
ንለት	-15461
ንያግ	-15462
ንዳቱ	-15463
ንዳች	-15464
ንጣቂ	-15465
ኖቼን	-15466
ኗንም	-15467
ኘት፣	-15468
አካል	-15469
አዋቂ	-15470
አይደ	-15471
እንው	-15472
እየው	-15473
ከረው	-15474
ከሩም	-15475
ከበደ	-15476
ከብደ	-15477
ከተለ	-15478
ከፋት	-15479
ካለት	-15480
ካብኝ	-15481
ካታው	-15482
ክር፤	-15483
ወርም	-15484
ወሰዱ	-15485
ወያይ	-15486
ዋናም	-15487
ዋያት	-15488
ውልም	-15489
ውንዴ	-15490
ዎና፣	-15491
ዓላት	-15492
ዓቱን	-15493
ዕከል	-15494
ዘልቅ	-15495
ዘነኝ	-15496
ዘውት	-15497
ዘግሙ	-15498
ዙንጉ	-15499
ህ፤	-15500
ልት	-15501
ሾመ	-15502
ኑኛ	-15503
ናዳ	-15504
ንቶ	-15505
ንፍ	-15506
ዊው	-15507
ጎቴ	-15508
ጨመ	-15509
ጫዬ	-15510
ጻቅ	-15511
ፋቷ	-15512
▁?	-15513
ሉንና	-15514
መስጦ	-15515
ማልል	-15516
ሜንና	-15517
ምኑም	-15518
ምድር	-15519
ባልም	-15520
ቮልት	-15521
ተህል	-15522
ተርፊ	-15523
ንህ፤	-15524
ንቶና	-15525
አርቄ	-15526
አቀፍ	-15527
ዚሁም	-15528
ዛቤዝ	-15529
ዜዎች	-15530
ዝኑኛ	-15531
ዝናብ	-15532
ዝፈት	-15533
ዞችና	-15534
የምን	-15535
የሰው	-15536
የሴት	-15537
ዩትን	-15538
ዩቸር	-15539
ዪ፡፡	-15540
ያለው	-15541
ያቴ፣	-15542
ደረው	-15543
ደሩት	-15544
ደሬና	-15545
ደርጓ	-15546
ደነው	-15547
ደንገ	-15548
ዲከት	-15549
ዳሰስ	-15550
ዳጀት	-15551
ዶቹን	-15552
ጀማሪ	-15553
ጀርስ	-15554
ጀበት	-15555
ጅቴን	-15556
ጆቼና	-15557
ገልኩ	-15558
ገረፍ	-15559
ገራት	-15560
ገደብ	-15561
ገፍን	-15562
ጉት፤	-15563
ጋትን	-15564
ጋደመ	-15565
ጋገራ	-15566
ጋጋሚ	-15567
ግረን	-15568
ግሬድ	-15569
ግሶች	-15570
ግዘን	-15571
ጓጓዝ	-15572
ጠሁና	-15573
ጠመድ	-15574
ጠምድ	-15575
ጠነና	-15576
ጠጋት	-15577
ጡቅና	-15578
ጡንና	-15579
ጡኝ፣	-15580
ጣሪው	-15581
ጤናዬ	-15582
ጨመሩ	-15583
ጨትና	-15584
ጨናን	-15585
ጨንቁ	-15586
ጨክን	-15587
ጫወት	-15588
ጽሎች	-15589
ፈትን	-15590
ፈነዱ	-15591
ፈነጥ	-15592
ፈን፣	-15593
ፈገፈ	-15594
ፈጥም	-15595
ፈጽሞ	-15596
ፋጭና	-15597
ፍቅር	-15598
ፍበት	-15599
38	-15600
:-	-15601
ve	-15602
ምጥ	-15603
ርይ	-15604
ሰሚ	-15605
ቶስ	-15606
ዘየ	-15607
ዙፍ	-15608
ዝ፣	-15609
ved	-15610
ሮቹን	-15611
ሰብና	-15612
ቁርጥ	-15613
ባባሱ	-15614
ናሰማ	-15615
ንነት	-15616
ዘየድ	-15617
ድርጎ	-15618
ጣሚው	-15619
ፍታዊ	-15620
▁35	-15621
▁39	-15622
▁46	-15623
▁53	-15624
▁65	-15625
▁77	-15626
▁79	-15627
▁89	-15628
▁90	-15629
▁ሂጅ	-15630
▁ለለ	-15631
▁ለረ	-15632
▁ለዓ	-15633
▁ሊከ	-15634
▁ሊይ	-15635
▁ላራ	-15636
▁ላሳ	-15637
▁ላኩ	-15638
▁ሌሰ	-15639
▁ሌቪ	-15640
▁ልቅ	-15641
▁ልቧ	-15642
▁ልጥ	-15643
▁ሐዘ	-15644
▁መኧ	-15645
▁መኳ	-15646
▁ማበ	-15647
▁ማክ	-15648
▁ማጭ	-15649
▁ምሎ	-15650
▁ምረ	-15651
▁ምዬ	-15652
▁ምደ	-15653
▁ሞቷ	-15654
▁ሣጥ	-15655
▁ረብ	-15656
▁ራዕ	-15657
▁ሮጦ	-15658
▁ሲና	-15659
▁ሲዖ	-15660
▁ሲጠ	-15661
▁ሳሉ	-15662
▁ሳሳ	-15663
▁ሳቃ	-15664
▁ስስ	-15665
▁ስቼ	-15666
▁ስጨ	-15667
▁ሸሽ	-15668
▁ሸተ	-15669
▁ቀጫ	-15670
▁ቀፎ	-15671
▁ቆሮ	-15672
▁ቆሽ	-15673
▁በቦ	-15674
▁በዉ	-15675
▁ቡን	-15676
▁ቢጋ	-15677
▁ብሂ	-15678
▁ተሠ	-15679
▁ተሾ	-15680
▁ተቁ	-15681
▁ታሳ	-15682
▁ነዳ	-15683
▁ነጎ	-15684
▁ንዪ	-15685
▁ኖረ	-15686
▁አኑ	-15687
▁አኒ	-15688
▁አዬ	-15689
▁አጃ	-15690
▁ኡኡ	-15691
▁	-15692
ን	-15693
፡	-15694
ት	-15695
በ	-15696
ም	-15697
ው	-15698
ለ	-15699
አ	-15700
እ	-15701
ል	-15702
የ	-15703
መ	-15704
ር	-15705
ስ	-15706
ነ	-15707
ይ	-15708
ደ	-15709
ተ	-15710
ያ	-15711
ች	-15712
ና	-15713
ማ	-15714
ገ	-15715
ላ	-15716
.	-15717
ብ	-15718
ወ	-15719
ግ	-15720
ሁ	-15721
ድ	-15722
ከ	-15723
ሰ	-15724
ታ	-15725
ረ	-15726
ባ	-15727
ራ	-15728
ዳ	-15729
›	-15730
‹	-15731
ቸ	-15732
ቀ	-15733
ኝ	-15734
ፍ	-15735
ጠ	-15736
ጥ	-15737
ህ	-15738
ሳ	-15739
ቅ	-15740
ቱ	-15741
ሆ	-15742
ሚ	-15743
ፈ	-15744
ሉ	-15745
ሲ	-15746
ክ	-15747
ቤ	-15748
ኛ	-15749
ጋ	-15750
ዎ	-15751
ሩ	-15752
ጣ	-15753
ዋ	-15754
ዚ	-15755
ኩ	-15756
፣	-15757
ቻ	-15758
ዘ	-15759
ሽ	-15760
ሪ	-15761
ካ	-15762
ቃ	-15763
ሌ	-15764
፤	-15765
ኑ	-15766
ቆ	-15767
ሮ	-15768
-	-15769
ሊ	-15770
ዲ	-15771
ቴ	-15772
ኔ	-15773
ቹ	-15774
ጊ	-15775
ዩ	-15776
ዓ	-15777
ቶ	-15778
ኖ	-15779
ሱ	-15780
ቢ	-15781
ኪ	-15782
ኢ	-15783
ሎ	-15784
ዬ	-15785
ጨ	-15786
ጀ	-15787
ጅ	-15788
ዜ	-15789
ዝ	-15790
ሞ	-15791
ፋ	-15792
ቼ	-15793
ቁ	-15794
ጉ	-15795
ዛ	-15796
ጽ	-15797
ጆ	-15798
ጸ	-15799
ሙ	-15800
ሬ	-15801
!	-15802
ሥ	-15803
ሕ	-15804
ሻ	-15805
ሄ	-15806
ፊ	-15807
ኋ	-15808
ዮ	-15809
?	-15810
ጭ	-15811
ሃ	-15812
ቡ	-15813
ጎ	-15814
ሜ	-15815
ቄ	-15816
ሴ	-15817
ዕ	-15818
1	-15819
ዱ	-15820
ዙ	-15821
ጡ	-15822
ሸ	-15823
ኳ	-15824
ቂ	-15825
ዴ	-15826
ሐ	-15827
ጓ	-15828
|	-15829
ዊ	-15830
ኮ	-15831
ቦ	-15832
ሔ	-15833
ኘ	-15834
ጃ	-15835
ቋ	-15836
ኞ	-15837
ፉ	-15838
ዶ	-15839
2	-15840
ጦ	-15841
ቲ	-15842
ጻ	-15843
0	-15844
ኒ	-15845
ቷ	-15846
ጫ	-15847
9	-15848
ሀ	-15849
ሶ	-15850
ጌ	-15851
ሠ	-15852
ሣ	-15853
ፎ	-15854
ሏ	-15855
ኅ	-15856
3	-15857
ኬ	-15858
5	-15859
ሯ	-15860
ጪ	-15861
ኙ	-15862
ጄ	-15863
ጂ	-15864
4	-15865
ቿ	-15866
ጹ	-15867
ኤ	-15868
ዞ	-15869
ሂ	-15870
ሷ	-15871
8	-15872
ሹ	-15873
ሾ	-15874
ኦ	-15875
ሺ	-15876
ቺ	-15877
7	-15878
ኸ	-15879
ጮ	-15880
6	-15881
ቪ	-15882
ኃ	-15883
ጁ	-15884
ጤ	-15885
ዷ	-15886
ፌ	-15887
ፅ	-15888
(	-15889
)	-15890
ዣ	-15891
ዌ	-15892
ፖ	-15893
ዪ	-15894
ሦ	-15895
ሟ	-15896
ኗ	-15897
ቧ	-15898
ሼ	-15899
i	-15900
ቨ	-15901
ኜ	-15902
:	-15903
ጬ	-15904
ጧ	-15905
ጩ	-15906
a	-15907
ዢ	-15908
ኰ	-15909
ዟ	-15910
o	-15911
ኚ	-15912
ፏ	-15913
t	-15914
ዐ	-15915
n	-15916
ዥ	-15917
ዤ	-15918
ጾ	-15919
ፒ	-15920
e	-15921
ሑ	-15922
ቩ	-15923
l	-15924
ጢ	-15925
ፃ	-15926
m	-15927
ዉ	-15928
ፕ	-15929
r	-15930
ጇ	-15931
ቭ	-15932
ቾ	-15933
ኟ	-15934
ፀ	-15935
ኧ	-15936
ጵ	-15937
z	-15938
ሿ	-15939
ዠ	-15940
ጯ	-15941
ጼ	-15942
ፓ	-15943
ሡ	-15944
ጴ	-15945
ፐ	-15946
g	-15947
s	-15948
ዑ	-15949
ፔ	-15950
ሒ	-15951
ዖ	-15952
/	-15953
D	-15954
P	-15955
c	-15956
f	-15957
h	-15958
p	-15959
E	-15960
b	-15961
ኡ	-15962
ኹ	-15963
ፑ	-15964
፥	-15965
፩	-15966
C	-15967
L	-15968
O	-15969
R	-15970
S	-15971
T	-15972
u	-15973
x	-15974
y	-15975
ዡ	-15976
ዦ	-15977
ጺ	-15978
።	-15979
፪	-15980
፫	-15981
@	-15982
A	-15983
B	-15984
d	-15985
v	-15986
©	-15987
ቬ	-15988
ቮ	-15989
ኣ	-15990
ኽ	-15991
ዒ	-15992
ዔ	-15993
ጿ	-15994
ፂ	-15995
—	-15996
