<unk>	0
<s>	0
</s>	0
▁ላይ	-4.62212
▁-	-4.8457
▁ወደ	-4.95756
▁ነው፡፡	-5.06185
▁ግን	-5.07807
▁ጊዜ	-5.39993
▁ኢ	-5.42275
▁|	-5.47404
▁ጋር	-5.49863
▁በጣም	-5.52811
▁ውስጥ	-5.54971
▁ነገር	-5.57626
▁ቤት	-5.61279
▁በኋላ	-5.66042
▁ሁሉ	-5.70022
▁ሰው	-5.77394
▁ነው	-5.81294
▁አንድ	-5.81864
▁ምንም	-5.84763
▁ምን	-5.92718
▁ሊ	-6.06345
▁ባ	-6.06345
▁ዛ	-6.06345
▁ጊ	-6.06345
▁ሰዎች	-6.10063
▁ቱ	-6.14715
▁ሲ	-6.15511
▁እንዴት	-6.15511
▁ሁ	-6.16315
▁ት	-6.16315
▁ዩ	-6.16315
▁ሌ	-6.17124
▁ማ	-6.17124
▁ኪ	-6.17124
▁እኔ	-6.18764
▁እንደ	-6.19594
▁...	-6.2043
▁ብዬ	-6.26493
▁ብዙ	-6.28295
▁እንደሆነ	-6.29208
▁እንኳን	-6.3106
▁ይህ	-6.32947
▁ስለ	-6.37826
▁ይህን	-6.37826
▁ትምህርት	-6.40872
▁አሁን	-6.40872
▁በላይ	-6.42955
▁ብቻ	-6.42955
▁ነበር፡፡	-6.44013
▁ቄሱ	-6.48362
▁መንገድ	-6.49479
▁ቤቱ	-6.49479
▁ገዳዮቹ	-6.49479
▁አባቴ	-6.50609
▁ቱትሲ	-6.51752
▁ያህል	-6.55261
▁ክፍል	-6.56459
▁በፊት	-6.58898
▁ዓይነት	-6.61398
▁የዘር	-6.63962
▁ልጅ	-6.66594
▁ቀን	-6.66594
▁ወይንም	-6.67936
▁ብሎ	-6.69297
▁ሁኔታ	-6.70676
▁እዚህ	-6.70676
▁ዳማሲን	-6.70676
▁ድረስ	-6.70676
▁ቢሆንም	-6.72075
▁ሁሉም	-6.74932
▁እግዚአብሔር	-6.74932
▁መጽሐፍ	-6.76392
▁ስል	-6.76392
▁ወቅት	-6.76392
▁ጥሩ	-6.76392
▁ቱትሲዎች	-6.82454
▁ወታደሮች	-6.84029
▁ልጆች	-6.85629
▁ሙሉ	-6.85629
▁ትንሽ	-6.85629
▁ቃል	-6.88908
▁ሥራ	-6.90589
▁ኢማኪዩሌ	-6.90589
▁ከዚያም	-6.90589
▁ሆነ	-6.95808
▁ሁቱ	-6.97609
▁በዚህ	-6.97609
▁እጅግ	-6.99444
▁ዘንድ	-7.01313
▁ሌላ	-7.03218
▁ምዕራፍ	-7.03218
▁ሲል	-7.03218
▁ተስፋ	-7.03218
▁ታሪክ	-7.03218
▁እኮ	-7.03218
▁ደግሞ	-7.03218
▁ስፍራ	-7.0516
▁ቄስ	-7.0516
▁ማለት	-7.0714
▁ብለው	-7.0714
▁አምላክ	-7.0714
▁ውጪ	-7.0714
▁ሁቱዎች	-7.11223
▁ሰዓት	-7.11223
▁በሩዋንዳ	-7.11223
▁መካከል	-7.13328
▁ራሴን	-7.13328
▁እንደገና	-7.13328
▁ከዚያ	-7.13328
▁የት	-7.13328
▁ሙሪንዚ	-7.15479
▁ወዲያውኑ	-7.15479
▁ለምን	-7.17676
▁በሕይወት	-7.17676
▁በሙሉ	-7.17676
▁ቱትሲዎችን	-7.17676
▁ናቸው፡፡	-7.17676
▁ያለ	-7.17676
▁ሁሉንም	-7.19924
▁መሆኑን	-7.19924
▁ማንም	-7.19924
▁ድምፅ	-7.19924
▁ሁልጊዜ	-7.22223
▁እናቴ	-7.22223
▁እንጂ	-7.22223
▁ያለው	-7.24576
▁ጀመር፡፡	-7.24576
▁ጭፍጨፋ	-7.24576
▁ሕይወት	-7.26986
▁እኛ	-7.26986
▁ገዳዮች	-7.26986
▁መታጠቢያ	-7.29455
▁ማድረግ	-7.29455
▁ሴቶች	-7.29455
▁በአንድ	-7.29455
▁እርስ	-7.29455
▁ሁለት	-7.31987
▁ዓለም	-7.31987
▁ፊት	-7.31987
▁ምክንያት	-7.34584
▁ስለሆነ	-7.34584
▁ቦታ	-7.34584
▁የሚቆጠሩ	-7.34584
▁የትምህርት	-7.34584
▁ደረጃ	-7.34584
▁ሲሆን	-7.37251
▁ቢሆን	-7.37251
▁ወንድሜ	-7.37251
▁ሩዋንዳ	-7.39991
▁ስም	-7.39991
▁ቀናት	-7.39991
▁በማለት	-7.39991
▁በር	-7.39991
▁አባላት	-7.39991
▁አዲስ	-7.39991
▁ልቤ	-7.42808
▁ምሽት	-7.42808
▁እርግጠኛ	-7.42808
▁ወላጆቼ	-7.42808
▁ሀገር	-7.45707
▁ምግብ	-7.45707
▁ሴት	-7.45707
▁ነው፡፡››	-7.45707
▁እኛን	-7.45707
▁ዓመት	-7.45707
▁ጋ	-7.45707
▁ሌሎች	-7.48692
▁ሲሉ	-7.48692
▁ትልቅ	-7.48692
▁ችግር	-7.48692
▁ነው፤	-7.48692
▁አሁንም	-7.48692
▁እዚያ	-7.48692
▁ዓመታት	-7.48692
▁የነበረው	-7.48692
▁መጠን	-7.51769
▁ስለዚህ	-7.51769
▁ነገሮች	-7.51769
▁እነዚህ	-7.51769
▁ከዚህ	-7.51769
▁የሆነ	-7.51769
▁ያ	-7.51769
▁ፍቅር	-7.51769
▁ፍጅት	-7.51769
▁ሆኖ	-7.54944
▁ስለነበር	-7.54944
▁ስሜት	-7.54944
▁ኪጋሊ	-7.54944
▁ያን	-7.54944
▁ጀምሮ	-7.54944
▁ስለሆነም	-7.58223
▁ነበር	-7.58223
▁አለ	-7.58223
▁የተወሰኑ	-7.58223
▁ፍጅቱ	-7.58223
▁መጀመሪያ	-7.61613
▁ሰላም	-7.61613
▁ቁጥር	-7.61613
▁በመታጠቢያ	-7.61613
▁በትምህርት	-7.61613
▁ቤቴ	-7.61613
▁አድርጌ	-7.61613
▁የኔ	-7.61613
▁ሌሊት	-7.65122
▁ሐሳብ	-7.65122
▁ቤቱን	-7.65122
▁ወታደሮቹ	-7.65122
▁ዓይኖቼን	-7.65122
▁የሚል	-7.65122
▁ሁላችንም	-7.68759
▁ሆኖም	-7.68759
▁በእርግጥ	-7.68759
▁በዘር	-7.68759
▁በዚያ	-7.68759
▁ኃይል	-7.68759
▁አለ፡፡	-7.68759
▁አልፎ	-7.68759
▁እኔን	-7.68759
▁ውድ	-7.68759
▁ገና	-7.68759
▁ጦርነቱ	-7.68759
▁ፈገግ	-7.68759
▁መኝታ	-7.72533
▁ሳይሆን	-7.72533
▁በሩን	-7.72533
▁ቢያንስ	-7.72533
▁እንዲያውም	-7.72533
▁የሩዋንዳ	-7.72533
▁መሄድ	-7.76455
▁መሆን	-7.76455
▁መጨረሻ	-7.76455
▁ነች፡፡	-7.76455
▁ኖሮ	-7.76455
▁አሰቃቂ	-7.76455
▁አንዱ	-7.76455
▁እርሱ	-7.76455
▁እባክህ	-7.76455
▁ከሆነ	-7.76455
▁ከኔ	-7.76455
▁ወራት	-7.76455
▁ጥላቻ	-7.76455
▁ለኔ	-7.80537
▁መንግሥት	-7.80537
▁ስትል	-7.80537
▁ቃላት	-7.80537
▁በኋላም	-7.80537
▁በአእምሮዬ	-7.80537
▁ብርሃን	-7.80537
▁እናም	-7.80537
▁ያንን	-7.80537
▁በኔ	-7.84793
▁በፍጹም	-7.84793
▁ቤታችን	-7.84793
▁አለኝ፡፡	-7.84793
▁አሎይዜ	-7.84793
▁ወሬ	-7.84793
▁ያለውን	-7.84793
▁ግድ	-7.84793
▁ፖል	-7.84793
▁ሚሊዮን	-7.89238
▁ምሽግ	-7.89238
▁ምኅረት	-7.89238
▁ሦስት	-7.89238
▁በመሆኑ	-7.89238
▁በየቀኑ	-7.89238
▁ቤተሰብ	-7.89238
▁እነዚህን	-7.89238
▁እንደዚህ	-7.89238
▁እንግሊዝኛ	-7.89238
▁ዢን	-7.89238
▁ደኅና	-7.89238
▁ገንዘብ	-7.89238
▁ጭፍጨፋው	-7.89238
▁ለመጀመሪያ	-7.9389
▁ልብ	-7.9389
▁ልክ	-7.9389
▁ሕዝብ	-7.9389
▁ማየት	-7.9389
▁ሲሆን፤	-7.9389
▁ቤቶች	-7.9389
▁ታዲያ	-7.9389
▁ነው››	-7.9389
▁አድርጎ	-7.9389
▁እንደዚያ	-7.9389
▁የተመድ	-7.9389
▁ይህም	-7.9389
▁ይዘው	-7.9389
▁ጉዳይ	-7.9389
▁ጥቂት	-7.9389
▁‹‹ምን	-7.9389
▁መቼም	-7.98769
▁ምናልባት	-7.98769
▁ሰዎችን	-7.98769
▁ስደተኞች	-7.98769
▁በሕይወቴ	-7.98769
▁በርሳችን	-7.98769
▁በእጅጉ	-7.98769
▁በዚያን	-7.98769
▁ባለ	-7.98769
▁ተሰማኝ፡፡	-7.98769
▁አልቻልኩም፡፡	-7.98769
▁አንዳች	-7.98769
▁አውቃለሁ፡፡	-7.98769
▁ኢሊባጊዛ	-7.98769
▁እኔም	-7.98769
▁እንዲህ	-7.98769
▁የቱትሲ	-7.98769
▁የነበረውን	-7.98769
▁ጦርነት	-7.98769
▁ልዩ	-8.03899
▁መሆኑ	-8.03899
▁ምስል	-8.03899
▁ራሳቸውን	-8.03899
▁በማናቸውም	-8.03899
▁በተለይ	-8.03899
▁በተመድ	-8.03899
▁በእርግጠኝነት	-8.03899
▁በወቅቱ	-8.03899
▁ብሎም	-8.03899
▁ብቸኛው	-8.03899
▁ኖሯል፡፡	-8.03899
▁ኢማኪዩሌ፡፡	-8.03899
▁እስኪ	-8.03899
▁ወደፊት	-8.03899
▁ወጣት	-8.03899
▁ዘውግ	-8.03899
▁ያሉትን	-8.03899
▁ይሆናል፡፡	-8.03899
▁ደስ	-8.03899
▁ደብዳቤ	-8.03899
▁ጦር	-8.03899
▁.	-8.09306
▁መጥፎ	-8.09306
▁ሰዓታት	-8.09306
▁ስር	-8.09306
▁በደኅና	-8.09306
▁በደንብ	-8.09306
▁በፍጥነት	-8.09306
▁ቡድን	-8.09306
▁አሉ፡፡	-8.09306
▁አብረን	-8.09306
▁እስካሁን	-8.09306
▁እንደነበር	-8.09306
▁እግዚአብሔርን	-8.09306
▁ከሁለት	-8.09306
▁ከተወሰኑ	-8.09306
▁ከፍ	-8.09306
▁ክፍሉ	-8.09306
▁ይሁን	-8.09306
▁ደቂቃ	-8.09306
▁ዳማሲንን	-8.09306
▁ዳር	-8.09306
▁ጥብቅ	-8.09306
▁ሁለተኛ	-8.15021
▁ሆነው	-8.15021
▁ረጅም	-8.15021
▁ሬድዮ	-8.15021
▁ሳምንታት	-8.15021
▁በእውነት	-8.15021
▁በደስታ	-8.15021
▁ባለው	-8.15021
▁ነበሩ፡፡	-8.15021
▁አልኩ፡፡	-8.15021
▁አንቺ	-8.15021
▁እስከ	-8.15021
▁እንግዲህ	-8.15021
▁እየተከሰተ	-8.15021
▁ኪሎሜትር	-8.15021
▁ወረቀት	-8.15021
▁ወይም	-8.15021
▁ዛሬ	-8.15021
▁የሆነው	-8.15021
▁የሚሆኑ	-8.15021
▁የሰው	-8.15021
▁ገጀራ	-8.15021
▁ግቢ	-8.15021
▁ጠዋት	-8.15021
▁ጸሎት	-8.15021
▁ሌሎቹ	-8.21084
▁ሌሎቹን	-8.21084
▁ልቤን	-8.21084
▁ልብስ	-8.21084
▁ልጆቹ	-8.21084
▁ሕይወቴን	-8.21084
▁መልካም	-8.21084
▁መታወቂያ	-8.21084
▁መጣ፡፡	-8.21084
▁ሥቃይ	-8.21084
▁ራሱን	-8.21084
▁ሳይቀር	-8.21084
▁ቀስ	-8.21084
▁ቁልቁል	-8.21084
▁በርስ	-8.21084
▁በርካታ	-8.21084
▁በቅርቡ	-8.21084
▁ብለን	-8.21084
▁ነኝ፡፡	-8.21084
▁ነው፣	-8.21084
▁አሰብኩ፡፡	-8.21084
▁አብዛኞቹ	-8.21084
▁አድርገው	-8.21084
▁እቤት	-8.21084
▁እና	-8.21084
▁ከእግዚአብሔር	-8.21084
▁ክፉ	-8.21084
▁ክፍሎች	-8.21084
▁ያሉ	-8.21084
▁ይሆን?	-8.21084
▁ይልቅ	-8.21084
▁ይዞ	-8.21084
▁ግሩም	-8.21084
▁ፈጽሞ	-8.21084
▁ለማድረግ	-8.27538
▁ሕይወቴ	-8.27538
▁መሬት	-8.27538
▁ርቀት	-8.27538
▁ቋንቋ	-8.27538
▁በስተቀር	-8.27538
▁በቀጣዩ	-8.27538
▁በቤቱ	-8.27538
▁ቤተሰቤን	-8.27538
▁ቪያኒ	-8.27538
▁ነው!	-8.27538
▁ናቸው	-8.27538
▁አለች	-8.27538
▁አንዲት	-8.27538
▁አካባቢ	-8.27538
▁እምነት	-8.27538
▁እናንተ	-8.27538
▁እንባ	-8.27538
▁እጅ	-8.27538
▁ከአንድ	-8.27538
▁ወታደር	-8.27538
▁ወደኔ	-8.27538
▁የመንግሥት	-8.27538
▁የሩአግ	-8.27538
▁የነበሩት	-8.27538
▁ዩኒቨርሲቲ	-8.27538
▁ገደማ	-8.27538
▁ገዳዮቹን	-8.27538
▁ጉዞ	-8.27538
▁ግልጽ	-8.27538
▁ሄዶ	-8.34437
▁ሆኜ	-8.34437
▁ለመጠየቅ	-8.34437
▁ለረጅም	-8.34437
▁ለፊት	-8.34437
▁ልጆቻቸው	-8.34437
▁መንደር	-8.34437
▁ሳለ	-8.34437
▁በማሰብ	-8.34437
▁በሺዎች	-8.34437
▁በቤታችን	-8.34437
▁ቤተሰቤ	-8.34437
▁አላውቅም፡፡	-8.34437
▁አምላክን	-8.34437
▁አስከሬኖች	-8.34437
▁አንተ	-8.34437
▁አንደኛው	-8.34437
▁አይደለም፡፡	-8.34437
▁አደገኛ	-8.34437
▁አደጋ	-8.34437
▁ኤይማብል	-8.34437
▁እናፍቅሃለሁ፤	-8.34437
▁እወድሃለሁ፤	-8.34437
▁እያለ	-8.34437
▁እጄን	-8.34437
▁ከለላ	-8.34437
▁ከሩዋንዳ	-8.34437
▁ከኛ	-8.34437
▁ከጥቂት	-8.34437
▁ወር	-8.34437
▁ዋና	-8.34437
▁ውሃ	-8.34437
▁ዜጎች	-8.34437
▁ዝም	-8.34437
▁የሁቱ	-8.34437
▁ያሉት	-8.34437
▁ይሰማኛል፡፡	-8.34437
▁ዮሃንስ	-8.34437
▁ጊዜያት	-8.34437
▁ጓደኛ	-8.34437
▁ጓደኛዬ	-8.34437
▁ጓደኞቼ	-8.34437
▁ጸለይኩ፡፡	-8.34437
▁ፈረንሳውያኑ	-8.34437
▁ፍለጋ	-8.34437
▁ፍርድ	-8.34437
▁‹‹ኢማኪዩሌ	-8.34437
▁ሁላችንንም	-8.41848
▁ሄድኩ፡፡	-8.41848
▁ለማየት	-8.41848
▁ለማግኘት	-8.41848
▁መሣሪያ	-8.41848
▁መቶ	-8.41848
▁መጡ፡፡	-8.41848
▁መጥቶ	-8.41848
▁ማን	-8.41848
▁ማግኘት	-8.41848
▁ሰላምታ	-8.41848
▁ሴማና	-8.41848
▁ቀና	-8.41848
▁ቅዱስ	-8.41848
▁ቆንጆ	-8.41848
▁በድንገት	-8.41848
▁በድጋሚ	-8.41848
▁በጸጥታ	-8.41848
▁ብቸኛ	-8.41848
▁ተመሳሳይ	-8.41848
▁ቶሎ	-8.41848
▁አልኩ	-8.41848
▁አልኩት፡፡	-8.41848
▁አባቴን	-8.41848
▁አውቃለሁ፤	-8.41848
▁ኢንተርሃምዌዎች	-8.41848
▁እናት	-8.41848
▁እንዳለ	-8.41848
▁እንግዳ	-8.41848
▁እውነት	-8.41848
▁ኦገስቲን	-8.41848
▁ከተማ	-8.41848
▁ከፍተኛ	-8.41848
▁ውጤት	-8.41848
▁ዐቅም	-8.41848
▁ዓይኖች	-8.41848
▁ዙሪያ	-8.41848
▁ዝርዝር	-8.41848
▁የመጀመሪያ	-8.41848
▁የነበሩ	-8.41848
▁የጥላቻ	-8.41848
▁ደቂቃዎች	-8.41848
▁ድንገት	-8.41848
▁ገጽታ	-8.41848
▁ግድያ	-8.41848
▁‹‹ይህን	-8.41848
▁ሀገራት	-8.49852
▁ሁቱዎችን	-8.49852
▁ሄጄ	-8.49852
▁ለመሆን	-8.49852
▁ለማዳን	-8.49852
▁ሐይቅ	-8.49852
▁መንፈስ	-8.49852
▁መኖር	-8.49852
▁መጽሐፉ	-8.49852
▁ማናቸውም	-8.49852
▁ምክንያቱም	-8.49852
▁ሩአግ	-8.49852
▁ራሳችንን	-8.49852
▁ራሴ	-8.49852
▁ሰውዬ	-8.49852
▁ስድስት	-8.49852
▁ቁጭ	-8.49852
▁ቋሚ	-8.49852
▁በልጅነቴ	-8.49852
▁በመሆኑም	-8.49852
▁በመጨረሻ	-8.49852
▁በመጨረሻም	-8.49852
▁በቄሱ	-8.49852
▁ብቻዬን	-8.49852
▁ብዙውን	-8.49852
▁ብዙዎቹ	-8.49852
▁ተሸከርካሪው	-8.49852
▁ተብሎ	-8.49852
▁ታላቅ	-8.49852
▁ነገርኩት፡፡	-8.49852
▁ነጭ	-8.49852
▁አስቸጋሪ	-8.49852
▁አንቺን	-8.49852
▁አንዷ	-8.49852
▁አዲሱ	-8.49852
▁እነርሱ	-8.49852
▁እንቅልፍ	-8.49852
▁እንዲያው	-8.49852
▁ከዘር	-8.49852
▁ከዚያን	-8.49852
▁ዕድል	-8.49852
▁ዜና	-8.49852
▁የሚለውን	-8.49852
▁የቄሱ	-8.49852
▁የተለየ	-8.49852
▁የተከሰተውን	-8.49852
▁የአባቴን	-8.49852
▁የእርሱን	-8.49852
▁ያም	-8.49852
▁ይዤ	-8.49852
▁ገባኝ፡፡	-8.49852
▁ገዳይ	-8.49852
▁ግደሏቸው!	-8.49852
▁ጠየቀኝ፡፡	-8.49852
▁‹‹እዚህ	-8.49852
▁ለማመን	-8.58553
▁ለአንድ	-8.58553
▁ሊሆን	-8.58553
▁መሰለኝ፡፡	-8.58553
▁መናገር	-8.58553
▁ማመን	-8.58553
▁ምልክት	-8.58553
▁ሰበብ	-8.58553
▁ሲመጡ	-8.58553
▁ሳራ	-8.58553
▁ቆየሁ፡፡	-8.58553
▁በተጨማሪም	-8.58553
▁በዚያም	-8.58553
▁በገነት	-8.58553
▁በጥላቻ	-8.58553
▁ቦን	-8.58553
▁ተመልሼ	-8.58553
▁ተመኘሁ፡፡	-8.58553
▁ተረዳሁ፡፡	-8.58553
▁ተጨማሪ	-8.58553
▁ትንሹ	-8.58553
▁ነው?››	-8.58553
▁ነገ	-8.58553
▁ነገረኝ፡፡	-8.58553
▁አለብኝ፡፡	-8.58553
▁አልችልም፡፡	-8.58553
▁አሥር	-8.58553
▁አራት	-8.58553
▁አንዱን	-8.58553
▁አንዴ	-8.58553
▁አውሬ	-8.58553
▁አውጥቶ	-8.58553
▁አየሁ፡፡	-8.58553
▁አዳዲስ	-8.58553
▁ኢማኪዩሌ፣	-8.58553
▁እርስዎ	-8.58553
▁እንዳለብኝ	-8.58553
▁እውነተኛ	-8.58553
▁እግዚአብሔር፣	-8.58553
▁ከአፍታ	-8.58553
▁ወንድሜን	-8.58553
▁ወዳጅ	-8.58553
▁ዓይን	-8.58553
▁ዕድሜ	-8.58553
▁ዝቅ	-8.58553
▁የባሰ	-8.58553
▁የነበሩትን	-8.58553
▁የኢማኪዩሌ	-8.58553
▁የእግዚአብሔርን	-8.58553
▁የዳማሲንን	-8.58553
▁ይመስላል፡፡	-8.58553
▁ይቅር	-8.58553
▁ይቻላል፡፡	-8.58553
▁ደም	-8.58553
▁ደስተኛ	-8.58553
▁ዲግሪ	-8.58553
▁ዶክተር	-8.58553
▁ጀመርኩ፡፡	-8.58553
▁ጊዜም	-8.58553
▁ግንኙነት	-8.58553
▁ግድያዎች	-8.58553
▁ጥያቄ	-8.58553
▁ጸጥ	-8.58553
▁ፈለግሁ፡፡	-8.58553
▁ሁሌ	-8.68084
▁ሂደት	-8.68084
▁ህመም	-8.68084
▁ሆይ፣	-8.68084
▁ለመሄድ	-8.68084
▁ለመደበቅ	-8.68084
▁ለሰው	-8.68084
▁ለገዳዮቹ	-8.68084
▁መልሶ	-8.68084
▁መስጠት	-8.68084
▁መቁጠሪያ	-8.68084
▁መግደል	-8.68084
▁መጠጥ	-8.68084
▁ማስታወሻ	-8.68084
▁ማታ	-8.68084
▁ማንበብ	-8.68084
▁ማጥፋት	-8.68084
▁ምስኪን	-8.68084
▁ምስጋና	-8.68084
▁ሩዋንዳን	-8.68084
▁ሲሄድ	-8.68084
▁ስለሆኑ	-8.68084
▁ስሜን	-8.68084
▁ስቲቭ	-8.68084
▁ቃላቱ	-8.68084
▁በልቤ	-8.68084
▁በሩ	-8.68084
▁በሺህዎች	-8.68084
▁በተቻለኝ	-8.68084
▁በቻልኩት	-8.68084
▁በነበረው	-8.68084
▁በነዚያ	-8.68084
▁በኩል	-8.68084
▁በፍቅር	-8.68084
▁ባሉ	-8.68084
▁ቤታችንን	-8.68084
▁ብላ	-8.68084
▁ተማሪዎች	-8.68084
▁ተሸከርካሪ	-8.68084
▁ተግባር	-8.68084
▁ነበር፤	-8.68084
▁ነኝ	-8.68084
▁አልነበረም፡፡	-8.68084
▁አማራጭ	-8.68084
▁አማጽያን	-8.68084
▁አምላኬ	-8.68084
▁አስከሬን	-8.68084
▁አቅጣጫ	-8.68084
▁አባባ	-8.68084
▁አየሁት፡፡	-8.68084
▁አየር	-8.68084
▁አድርጋ	-8.68084
▁አፍታ	-8.68084
▁እርሷ	-8.68084
▁እነዚያ	-8.68084
▁እዚያው	-8.68084
▁እገዛ	-8.68084
▁ኦገስቲንና	-8.68084
▁ከሀገሪቱ	-8.68084
▁ከቤቱ	-8.68084
▁ከቤት	-8.68084
▁ከጭፍጨፋው	-8.68084
▁ኳስ	-8.68084
▁ወንዶች	-8.68084
▁ወዲህ	-8.68084
▁ዕጣ	-8.68084
▁የለም፡፡	-8.68084
▁የሚሆን	-8.68084
▁የሥራ	-8.68084
▁የሰላም	-8.68084
▁የቤተሰቤ	-8.68084
▁የቤት	-8.68084
▁የተረፉ	-8.68084
▁የተነሣ	-8.68084
▁የትኛው	-8.68084
▁የነበረ	-8.68084
▁የአባቴ	-8.68084
▁የዓለም	-8.68084
▁የዘውግ	-8.68084
▁የግል	-8.68084
▁ይህች	-8.68084
▁ይመስለኛል፡፡	-8.68084
▁ድንጋይ	-8.68084
▁ጀርባ	-8.68084
▁ገባሁ፡፡	-8.68084
▁ጠየቅሁት፡፡	-8.68084
▁ጥርጣሬ	-8.68084
▁ጨፍኜ	-8.68084
▁ጭካኔ	-8.68084
▁‹‹ምንም	-8.68084
▁‹‹አይ	-8.68084
▁‹‹እኔ	-8.68084
▁‹‹ግን	-8.68084
▁30	-8.7862
▁ሄዱ፡፡	-8.7862
▁ለማለት	-8.7862
▁ለማገዝ	-8.7862
▁ለሰዓታት	-8.7862
▁ለቀው	-8.7862
▁ለቅቄ	-8.7862
▁ለኛ	-8.7862
▁ለእርሱ	-8.7862
▁ሌሊቱን	-8.7862
▁መልኩ	-8.7862
▁መልዕክት	-8.7862
▁መሪ	-8.7862
▁መቁረጥ	-8.7862
▁መኰንን	-8.7862
▁መጸዳጃ	-8.7862
▁ማናቸውንም	-8.7862
▁ማንንም	-8.7862
▁ምንጭ	-8.7862
▁ሥራዎች	-8.7862
▁ሳለሁ	-8.7862
▁ሴትዮ	-8.7862
▁ስሄድ	-8.7862
▁ስንት	-8.7862
▁በሀገሪቱ	-8.7862
▁በመቶዎች	-8.7862
▁በመጀመሪያ	-8.7862
▁በሬድዮ	-8.7862
▁በቀር	-8.7862
▁በቃ	-8.7862
▁በትክክል	-8.7862
▁በአየር	-8.7862
▁በውስጤ	-8.7862
▁በዚህም	-8.7862
▁በጎ	-8.7862
▁በጽኑ	-8.7862
▁ቢኖር	-8.7862
▁ባዶ	-8.7862
▁ብርያን	-8.7862
▁ተማሪ	-8.7862
▁ነህ	-8.7862
▁ነው?	-8.7862
▁ነገርኳቸው፡፡	-8.7862
▁ነጻ	-8.7862
▁አሁኑኑ	-8.7862
▁አመሰገንኩት፡፡	-8.7862
▁አማጽያኑ	-8.7862
▁አስከባሪ	-8.7862
▁አቶ	-8.7862
▁አነስተኛ	-8.7862
▁አንዳንዴ	-8.7862
▁ኢማኪዩሌን	-8.7862
▁ኤርዊን	-8.7862
▁እናቴም	-8.7862
▁እንደሆኑ	-8.7862
▁እንዳሉ	-8.7862
▁እንጂ፡፡	-8.7862
▁እኛም	-8.7862
▁እያንዳንዷን	-8.7862
▁ከቄሱ	-8.7862
▁ከቤተሰቤ	-8.7862
▁ከቤታችን	-8.7862
▁ከትምህርት	-8.7862
▁ከነበረው	-8.7862
▁ከነዚህ	-8.7862
▁ከእኔ	-8.7862
▁ከያዙኝ	-8.7862
▁ከጀመረ	-8.7862
▁ወሰንኩ፡፡	-8.7862
▁ወንድም	-8.7862
▁ወንድሞቼ	-8.7862
▁ወይ	-8.7862
▁ወደኛ	-8.7862
▁ዓ.ም.	-8.7862
▁ዘር	-8.7862
▁ዛየር	-8.7862
▁ዣኔት	-8.7862
▁የመጡት	-8.7862
▁የሚባል	-8.7862
▁የቅርብ	-8.7862
▁የኢንተርሃምዌ	-8.7862
▁የውጪ	-8.7862
▁የደንብ	-8.7862
▁የዳማሲን	-8.7862
▁ያለኝ	-8.7862
▁ያኔ	-8.7862
▁ይህንን	-8.7862
▁ይኸው	-8.7862
▁ደህንነት	-8.7862
▁ድጋሚ	-8.7862
▁ገብቼ	-8.7862
▁ግማሽ	-8.7862
▁ጠመንጃ	-8.7862
▁ጥግ	-8.7862
▁ጭምር	-8.7862
▁ፒየር	-8.7862
▁ሁለቱም	-8.90399
▁ሃብያሪማና	-8.90399
▁ሄደ፡፡	-8.90399
▁ሆነ፡፡	-8.90399
▁ሆኑ	-8.90399
▁ሆኗል፡፡	-8.90399
▁ለሁለት	-8.90399
▁ለመጨረሻ	-8.90399
▁ለምንድነው	-8.90399
▁ለሦስት	-8.90399
▁ለራሴ	-8.90399
▁ለእኔ	-8.90399
▁ለእኛ	-8.90399
▁ለእግዚአብሔር	-8.90399
▁ሕልም	-8.90399
▁ሕመም	-8.90399
▁መማር	-8.90399
▁መስኮት	-8.90399
▁መንገዱ	-8.90399
▁መኰንኑ	-8.90399
▁ምሽጉ	-8.90399
▁ምናልባትም	-8.90399
▁ሞት	-8.90399
▁ሥጋት	-8.90399
▁ሰማሁ፡፡	-8.90399
▁ሰማያዊ	-8.90399
▁ሲደርሱ	-8.90399
▁ሳይ	-8.90399
▁ሴቶቹ	-8.90399
▁ቀኑን	-8.90399
▁ቀጠለ፡፡	-8.90399
▁ቆሞ	-8.90399
▁በሚገባ	-8.90399
▁በማድረግ	-8.90399
▁በምንም	-8.90399
▁በረሮዎች	-8.90399
▁በራሴ	-8.90399
▁በርሳቸው	-8.90399
▁በቀላሉ	-8.90399
▁በኛ	-8.90399
▁በአባቴ	-8.90399
▁በእጁ	-8.90399
▁በእግዚአብሔር	-8.90399
▁በዚያች	-8.90399
▁በግልጽ	-8.90399
▁ብቻቸውን	-8.90399
▁ብዙም	-8.90399
▁ተመስገን	-8.90399
▁ትኩረት	-8.90399
▁ነን፡፡	-8.90399
▁ነገሩን፡፡	-8.90399
▁ነገሩኝ፡፡	-8.90399
▁ነፍሴ	-8.90399
▁ንጹሕ	-8.90399
▁አሉኝ፡፡	-8.90399
▁አልቻለም፡፡	-8.90399
▁አስቤ	-8.90399
▁አቅራቢያ	-8.90399
▁አባታችን	-8.90399
▁አባቴም	-8.90399
▁አብረው	-8.90399
▁አንዳንድ	-8.90399
▁አንድም	-8.90399
▁አካላት	-8.90399
▁አካል	-8.90399
▁አፍሪካ	-8.90399
▁እስር	-8.90399
▁እባክህ፣	-8.90399
▁እንባዬን	-8.90399
▁እንደነበረው	-8.90399
▁እንዳለባቸው	-8.90399
▁እንድሞት	-8.90399
▁እጁን	-8.90399
▁እጆቹን	-8.90399
▁እጆቼን	-8.90399
▁እግር	-8.90399
▁ኧረ	-8.90399
▁ከመታጠቢያ	-8.90399
▁ከማንም	-8.90399
▁ከሞላ	-8.90399
▁ከአሁን	-8.90399
▁ከገዳዮቹ	-8.90399
▁ከፊት	-8.90399
▁ኪቩ	-8.90399
▁ክብር	-8.90399
▁ወለል	-8.90399
▁ወንድ	-8.90399
▁ወደዚያ	-8.90399
▁ወዲያ	-8.90399
▁ዓላማ	-8.90399
▁ዓይኖቼ	-8.90399
▁ዘወር	-8.90399
▁የሆኑት	-8.90399
▁የራሴ	-8.90399
▁የቄሱን	-8.90399
▁የተሻለ	-8.90399
▁የኢማኪዩሌን	-8.90399
▁የእግዚአብሔር	-8.90399
▁የዚያን	-8.90399
▁የግድያ	-8.90399
▁የፈረንሳይ	-8.90399
▁ያው	-8.90399
▁ይሆን	-8.90399
▁ደራሲ	-8.90399
▁ደግ	-8.90399
▁ድንቅ	-8.90399
▁ጀመር	-8.90399
▁ጀመርን፡፡	-8.90399
▁ገባ፡፡	-8.90399
▁ግድያው	-8.90399
▁ጎን	-8.90399
▁ጎደል	-8.90399
▁ጥላ	-8.90399
▁ጥልቅ	-8.90399
▁ጸጥታ	-8.90399
▁ጽንፈኛ	-8.90399
▁ፈልጌ	-8.90399
▁፡፡	-8.90399
▁‹‹እንዴት	-8.90399
▁‹‹የት	-8.90399
▁‹‹ይህ	-8.90399
▁‹‹ዳማሲን	-8.90399
▁10	-9.03752
▁20	-9.03752
▁ሁቱትሲ	-9.03752
▁ሄደው	-9.03752
▁ለማሳመን	-9.03752
▁ለሳምንታት	-9.03752
▁ለብዙ	-9.03752
▁ለወንድሜ	-9.03752
▁ሊገባኝ	-9.03752
▁ልብሶች	-9.03752
▁ልጆቹን	-9.03752
▁ልጆቿን	-9.03752
▁ሕይወታቸውን	-9.03752
▁ሕፃናት	-9.03752
▁መላው	-9.03752
▁መምህር	-9.03752
▁መቆየት	-9.03752
▁መንገዳችን	-9.03752
▁መንገዶች	-9.03752
▁መዝሙር	-9.03752
▁መግቢያ	-9.03752
▁መጥተው	-9.03752
▁መጸለይ	-9.03752
▁ማንነት	-9.03752
▁ማወቅ	-9.03752
▁ሜዳ	-9.03752
▁ምላሽ	-9.03752
▁ሞከርኩ፡፡	-9.03752
▁ሞከርኩ፤	-9.03752
▁ሩዋንዳውያን	-9.03752
▁ራሱ	-9.03752
▁ራሷን	-9.03752
▁ራቅ	-9.03752
▁ርዕሰ-ብሔሩ	-9.03752
▁ሰማይ	-9.03752
▁ሰብዓዊ	-9.03752
▁ሰይጣን	-9.03752
▁ሲያወሩ	-9.03752
▁ሲጨርሱ	-9.03752
▁ሳለን	-9.03752
▁ሳምንት	-9.03752
▁ስሜ	-9.03752
▁ስሜቱን	-9.03752
▁ስምንት	-9.03752
▁ስትሆን	-9.03752
▁ቀላል	-9.03752
▁ቃላቱን	-9.03752
▁ቄሱን	-9.03752
▁ቆመው	-9.03752
▁በሌላኛው	-9.03752
▁በመቶ	-9.03752
▁በመንገድ	-9.03752
▁በምሽጉ	-9.03752
▁በሰው	-9.03752
▁በቀጥታ	-9.03752
▁በቂ	-9.03752
▁በበኩላቸው	-9.03752
▁በቱትሲዎች	-9.03752
▁በኃይል	-9.03752
▁በአሁኑ	-9.03752
▁በዓለም	-9.03752
▁በየቦታው	-9.03752
▁በጆሮዬ	-9.03752
▁በጥንቃቄ	-9.03752
▁በጨለማው	-9.03752
▁በፍርሃት	-9.03752
▁ቡሆሮ	-9.03752
▁ባይ	-9.03752
▁ተራ	-9.03752
▁ተነሥቼ	-9.03752
▁ትርጉም	-9.03752
▁ትቼ	-9.03752
▁ትናንሽ	-9.03752
▁ትዕዛዝ	-9.03752
▁ትዕይንት	-9.03752
▁ቻልኩ፡፡	-9.03752
▁ችግሩ	-9.03752
▁ነሽ	-9.03752
▁ነበረች፡፡	-9.03752
▁ነበር!	-9.03752
▁ነበርኩ፡፡	-9.03752
▁ነች	-9.03752
▁ነው...	-9.03752
▁ነገረችኝ፡፡	-9.03752
▁ናቸው፤	-9.03752
▁ንዴት	-9.03752
▁አለኝ	-9.03752
▁አሉ	-9.03752
▁አሉን፡፡	-9.03752
▁አምላኬን	-9.03752
▁አምስት	-9.03752
▁አስታውሳለሁ፡፡	-9.03752
▁አንብበው	-9.03752
▁አይተው	-9.03752
▁አገሪቱን	-9.03752
▁አጠገብ	-9.03752
▁ኢማኪዩሌ››	-9.03752
▁እማማና	-9.03752
▁እርሱም	-9.03752
▁እንደሆነች	-9.03752
▁እንደሆነና	-9.03752
▁እያሉ	-9.03752
▁እጃቸውን	-9.03752
▁እጅጉን	-9.03752
▁እጆቻቸውን	-9.03752
▁ከሌሎቹ	-9.03752
▁ከሰዓት	-9.03752
▁ከአባቴ	-9.03752
▁ከእነርሱ	-9.03752
▁ከጦርነቱ	-9.03752
▁ካልሆነ	-9.03752
▁ክምር	-9.03752
▁ክፍሌ	-9.03752
▁ኮሎኔል	-9.03752
▁ወለሉ	-9.03752
▁ወላጆቿ	-9.03752
▁ወታደራዊ	-9.03752
▁ወታደሮቹን	-9.03752
▁ወታደሮችን	-9.03752
▁ወንበር	-9.03752
▁ወንድሞቼና	-9.03752
▁ወንጀለኞች	-9.03752
▁ዓይኖቻቸው	-9.03752
▁ዕቅድ	-9.03752
▁ዘገባዎች	-9.03752
▁ዝግጅት	-9.03752
▁የሁለተኛ	-9.03752
▁የለኝም፡፡	-9.03752
▁የመጨረሻ	-9.03752
▁የሚለው	-9.03752
▁የሚያሳይ	-9.03752
▁የሰማሁት	-9.03752
▁የስልክ	-9.03752
▁የበለጠ	-9.03752
▁የቤተሰቤን	-9.03752
▁የቤተሰብ	-9.03752
▁የተለያዩ	-9.03752
▁የተረፈችው	-9.03752
▁የተወሰነ	-9.03752
▁የተወሰኑት	-9.03752
▁የትም	-9.03752
▁የትርጉም	-9.03752
▁የእንግሊዝኛ	-9.03752
▁የእጅ	-9.03752
▁የእግር	-9.03752
▁የወንድ	-9.03752
▁የፍቅር	-9.03752
▁የፖለቲካ	-9.03752
▁ያላቸው	-9.03752
▁ያክል	-9.03752
▁ያዕቆብ	-9.03752
▁ያየሁት	-9.03752
▁ይሄው	-9.03752
▁ይሆናል	-9.03752
▁ይሰማኛል፤	-9.03752
▁ይቅርታ	-9.03752
▁ይበልጥ	-9.03752
▁ይታወቀኛል፡፡	-9.03752
▁ይችላል	-9.03752
▁ይችላል፡፡	-9.03752
▁ይገድሉኛል፡፡	-9.03752
▁ዮርክ	-9.03752
▁ደረጃዎች	-9.03752
▁ደርዘን	-9.03752
▁ድምጾች	-9.03752
▁ድርሻ	-9.03752
▁ገለታ	-9.03752
▁ገቡ፡፡	-9.03752
▁ገጀራዎቻቸውን	-9.03752
▁ጉድጓድ	-9.03752
▁ግድያውን	-9.03752
▁ጎዳና	-9.03752
▁ጓደኛሞች	-9.03752
▁ጓደኞቹ	-9.03752
▁ጠያራ	-9.03752
▁ጣቢያ	-9.03752
▁ጥሪ	-9.03752
▁ጥንካሬ	-9.03752
▁ጦርነቱን	-9.03752
▁ጩኸት	-9.03752
▁ጸሎቴን	-9.03752
▁ፈለግሁ፤	-9.03752
▁ፈጣሪ	-9.03752
▁ፊቴን	-9.03752
▁‹‹ሁሉም	-9.03752
▁››	-9.03752
▁000	-9.19167
▁13	-9.19167
▁15	-9.19167
▁17	-9.19167
▁ሁለታችንም	-9.19167
▁ሁሉን	-9.19167
▁ሁቱዎቹ	-9.19167
▁ሁኔታው	-9.19167
▁ሁኔታዎች	-9.19167
▁ሃሳቤን	-9.19167
▁ለሁሉም	-9.19167
▁ለመሥራት	-9.19167
▁ለመስማት	-9.19167
▁ለመናገር	-9.19167
▁ለመንኩት፡፡	-9.19167
▁ለማምለጥ	-9.19167
▁ለማንም	-9.19167
▁ለማወቅ	-9.19167
▁ለአባቴ	-9.19167
▁ለወራት	-9.19167
▁ለዘብተኛ	-9.19167
▁ሌላውን	-9.19167
▁ልጆችን	-9.19167
▁ሐኪም	-9.19167
▁ሐይቁ	-9.19167
▁ሐይቅን	-9.19167
▁ሕዝቦች	-9.19167
▁መልሰው	-9.19167
▁መሣሪያዎች	-9.19167
▁መረጃ	-9.19167
▁መቁጠሪያዬን	-9.19167
▁መንቀሳቀስ	-9.19167
▁መንገዱን	-9.19167
▁መንፈሳዊ	-9.19167
▁መደበቅ	-9.19167
▁መግባት	-9.19167
▁መጠበቅ	-9.19167
▁ማልቀስ	-9.19167
▁ማውራት	-9.19167
▁ምነው	-9.19167
▁ሥራው	-9.19167
▁ሥርዓት	-9.19167
▁ሩዋንዳዊ	-9.19167
▁ራት	-9.19167
▁ሰማን፡፡	-9.19167
▁ሰቆቃ	-9.19167
▁ሰባት	-9.19167
▁ሰውነቴ	-9.19167
▁ሰውን	-9.19167
▁ሰዎቹ	-9.19167
▁ሰዎችም	-9.19167
▁ሲሆኑ	-9.19167
▁ሳስብ	-9.19167
▁ስህተት	-9.19167
▁ስለነበሩ	-9.19167
▁ስልክ	-9.19167
▁ስንሄድ	-9.19167
▁ስጦታ	-9.19167
▁ሻለቃ	-9.19167
▁ሽቅብ	-9.19167
▁ቀለም	-9.19167
▁ቁምሣጥን	-9.19167
▁ቃሉን	-9.19167
▁ቅጽበት	-9.19167
▁ቆመዋል፡፡	-9.19167
▁በሁላችንም	-9.19167
▁በሌላ	-9.19167
▁በመሸበር	-9.19167
▁በመንደራችን	-9.19167
▁በመገናኛ	-9.19167
▁በሚለው	-9.19167
▁በረሮ	-9.19167
▁በራሱ	-9.19167
▁በራስ	-9.19167
▁በበኩሌ	-9.19167
▁በብዙ	-9.19167
▁በተሻለ	-9.19167
▁በተደጋጋሚ	-9.19167
▁በነበረ	-9.19167
▁በናዚ	-9.19167
▁በአሥራዎቹ	-9.19167
▁በአንድነት	-9.19167
▁በአፌ	-9.19167
▁በእርሱ	-9.19167
▁በእግራችን	-9.19167
▁በኪቡዬ	-9.19167
▁በዓል	-9.19167
▁በዕድሜ	-9.19167
▁በዚህን	-9.19167
▁በገዳዮቹ	-9.19167
▁በጠላትነት	-9.19167
▁በጥይት	-9.19167
▁ቡድኖች	-9.19167
▁ቢሆኑ	-9.19167
▁ባለማመን	-9.19167
▁ባለፉት	-9.19167
▁ባሳለፍኳቸው	-9.19167
▁ቤታቸው	-9.19167
▁ቤቶችን	-9.19167
▁ቤቷ	-9.19167
▁ቪያኒና	-9.19167
▁ተሽከርካሪ	-9.19167
▁ተቀምጠን	-9.19167
▁ተቀምጬ	-9.19167
▁ተቋም	-9.19167
▁ተናገረ፡፡	-9.19167
▁ተግባራት	-9.19167
▁ታሪኬን	-9.19167
▁ታናሽ	-9.19167
▁ትምህርቱን	-9.19167
▁ትክክል	-9.19167
▁ትዝ	-9.19167
▁ነበር?	-9.19167
▁ነበር፡፡››	-9.19167
▁ነይ	-9.19167
▁ነጂው	-9.19167
▁ነገሩ	-9.19167
▁ነጻነት	-9.19167
▁ናቸው››	-9.19167
▁ንግግራቸው	-9.19167
▁ንግግር	-9.19167
▁አለብን፡፡	-9.19167
▁አለች፡፡	-9.19167
▁አሉኝ	-9.19167
▁አሉ፤	-9.19167
▁አሊያም	-9.19167
▁አልነበረኝም፤	-9.19167
▁አልን፡፡	-9.19167
▁አመሰግንሻለሁ፡፡	-9.19167
▁አምላኬ፣	-9.19167
▁አምላኬ››	-9.19167
▁አምናለሁ፡፡	-9.19167
▁አሥራ	-9.19167
▁አስታወስኩ፡፡	-9.19167
▁አቀፍ	-9.19167
▁አቃተኝ፡፡	-9.19167
▁አብሮ	-9.19167
▁አብዛኛውን	-9.19167
▁አንሾካሾክሁ፡፡	-9.19167
▁አንጻር	-9.19167
▁አእምሮዬ	-9.19167
▁አዎን	-9.19167
▁አየት	-9.19167
▁አይቀርም፡፡	-9.19167
▁አጋጣሚ	-9.19167
▁እምነቴን	-9.19167
▁እሱን	-9.19167
▁እናቴን	-9.19167
▁እናውቃለን፡፡	-9.19167
▁እንደሆን	-9.19167
▁እንደሆንኩ	-9.19167
▁እንደሚችል	-9.19167
▁እንደማደርግ	-9.19167
▁እንደዋዛ	-9.19167
▁እንዲሁ	-9.19167
▁እንዲያዩ	-9.19167
▁እንዳለብን	-9.19167
▁እንዳልሆነ	-9.19167
▁እንዴ?	-9.19167
▁እየተገደሉ	-9.19167
▁እያንዳንዷ	-9.19167
▁እያየሁ	-9.19167
▁እይታ	-9.19167
▁ከሌሎች	-9.19167
▁ከሞት	-9.19167
▁ከተማዋ	-9.19167
▁ከነበሩት	-9.19167
▁ከአምላክ	-9.19167
▁ከእርሱ	-9.19167
▁ካባዪ	-9.19167
▁ካንቺ	-9.19167
▁ወላጆቼ፣	-9.19167
▁ወጥተን	-9.19167
▁ውትወታ	-9.19167
▁ዓይኖቹ	-9.19167
▁ዘመቻ	-9.19167
▁ዘበኛ	-9.19167
▁ዝግ	-9.19167
▁የሆነውን	-9.19167
▁የለሽ	-9.19167
▁የመጀመሪያው	-9.19167
▁የማውቀው	-9.19167
▁የምችለው	-9.19167
▁የሩዋንዳው	-9.19167
▁የሩዋንዳውን	-9.19167
▁የነበረኝን	-9.19167
▁የኔን	-9.19167
▁የአማርኛው	-9.19167
▁የአየር	-9.19167
▁የእርስ	-9.19167
▁የኪቡዬ	-9.19167
▁የወደፊት	-9.19167
▁የዕለት	-9.19167
▁የዚህ	-9.19167
▁የዩኒቨርሲቲ	-9.19167
▁የጭነት	-9.19167
▁ያለማቋረጥ	-9.19167
▁ያለበት	-9.19167
▁ያለኝን	-9.19167
▁ያውቃል፡፡	-9.19167
▁ይሁዲዎችን	-9.19167
▁ይህችን	-9.19167
▁ይታየኛል፡፡	-9.19167
▁ይገባኛል፡፡	-9.19167
▁ደስታ	-9.19167
▁ደቡብ	-9.19167
▁ዱዜንጄ	-9.19167
▁ዳማሲንና	-9.19167
▁ድምጹ	-9.19167
▁ድምጼን	-9.19167
▁ድርጅት	-9.19167
▁ጀመረ፡፡	-9.19167
▁ጀርመኖች	-9.19167
▁ገባን፡፡	-9.19167
▁ጉዳት	-9.19167
▁ጉዳዩን	-9.19167
▁ጋት	-9.19167
▁ጌታ	-9.19167
▁ጌታዬ	-9.19167
▁ግንዛቤ	-9.19167
▁ጎረቤቶቼ	-9.19167
▁ጎርፍ	-9.19167
▁ጎበዝ	-9.19167
▁ጓደኞቼን	-9.19167
▁ጠንካራ	-9.19167
▁ጥቃት	-9.19167
▁ጸሐይ	-9.19167
▁ጽኑ	-9.19167
▁ፈልገው	-9.19167
▁ፈረንሳይ	-9.19167
▁ፈተና	-9.19167
▁ፍርሃት	-9.19167
▁‹‹ሥራ	-9.19167
▁‹‹በጣም	-9.19167
▁‹‹አዎን	-9.19167
▁‹‹አይ፣	-9.19167
▁‹‹እስኪ	-9.19167
▁‹‹እባክህ	-9.19167
▁‹‹እናንተ	-9.19167
▁‹‹እንዴ	-9.19167
▁....	-9.37399
▁...››	-9.37399
▁14	-9.37399
▁2	-9.37399
▁5	-9.37399
▁50	-9.37399
▁91	-9.37399
▁ሀገሬ	-9.37399
▁ሁላችሁም	-9.37399
▁ሁሌም	-9.37399
▁ሁነኛ	-9.37399
▁ሃያ	-9.37399
▁ሆንኩ፡፡	-9.37399
▁ሆይ	-9.37399
▁ለመመለስ	-9.37399
▁ለመማር	-9.37399
▁ለመርዳት	-9.37399
▁ለመቀየር	-9.37399
▁ለመከላከል	-9.37399
▁ለመድረስ	-9.37399
▁ለመጀመር	-9.37399
▁ለመግባት	-9.37399
▁ለመግደል	-9.37399
▁ለማስቆም	-9.37399
▁ለቀናት	-9.37399
▁ለቀን	-9.37399
▁ለቄሱ	-9.37399
▁ለችም	-9.37399
▁ለአፍታ	-9.37399
▁ለወንድሞቼ	-9.37399
▁ለዚያ	-9.37399
▁ለፊቴ	-9.37399
▁ሊገድሉን	-9.37399
▁ላሉት	-9.37399
▁ላስብ	-9.37399
▁ላንቺ	-9.37399
▁ልባቸው	-9.37399
▁ልጁን	-9.37399
▁ልጆቻቸውን	-9.37399
▁ሕይወትን	-9.37399
▁መሆኔን	-9.37399
▁መሆንን	-9.37399
▁መለየት	-9.37399
▁መልሰን	-9.37399
▁መልስ	-9.37399
▁መመለስ	-9.37399
▁መማሪያ	-9.37399
▁መሞት	-9.37399
▁መሥራት	-9.37399
▁መረጋጋት	-9.37399
▁መሰለኝ	-9.37399
▁መስማቱ	-9.37399
▁መስማት	-9.37399
▁መቆጣጠር	-9.37399
▁መተኛት	-9.37399
▁መታሰቢያ	-9.37399
▁መንግሥታት	-9.37399
▁መንግስታት	-9.37399
▁መንፈሴ	-9.37399
▁መዘምር	-9.37399
▁መገደል	-9.37399
▁መጓጓዣ	-9.37399
▁ሙሪንዚን	-9.37399
▁ማለትም	-9.37399
▁ማለትዎ	-9.37399
▁ማርያምን	-9.37399
▁ማሰብ	-9.37399
▁ማሳያ	-9.37399
▁ማስረጃ	-9.37399
▁ማንነቴን	-9.37399
▁ምርጥ	-9.37399
▁ምስጋናዬ	-9.37399
▁ምንነት	-9.37399
▁ምንድነው	-9.37399
▁ምግብና	-9.37399
▁ሞተዋል፡፡	-9.37399
▁ሠራተኞች	-9.37399
▁ሣቅ	-9.37399
▁ሥልጣን	-9.37399
▁ሥራዬን	-9.37399
▁ሩዋንዳዊት	-9.37399
▁ራሳቸው	-9.37399
▁ራስ	-9.37399
▁ርቀው	-9.37399
▁ርዕሰ-ብሔር	-9.37399
▁ሰላማዊ	-9.37399
▁ሰቅዞ	-9.37399
▁ሰዓቱ	-9.37399
▁ሲሄዱ	-9.37399
▁ሲመጣ	-9.37399
▁ሲደርስ	-9.37399
▁ሳራና	-9.37399
▁ሳሰላስል	-9.37399
▁ሳብ	-9.37399
▁ሳየው	-9.37399
▁ሴምቤባ	-9.37399
▁ሴኔጋል	-9.37399
▁ስሆን	-9.37399
▁ስለቤተሰቤ	-9.37399
▁ስለነበረ	-9.37399
▁ስለኛ	-9.37399
▁ስላለው	-9.37399
▁ስሙን	-9.37399
▁ስሜቴን	-9.37399
▁ስምና	-9.37399
▁ስወጣ	-9.37399
▁ስፍራው	-9.37399
▁ስፍራዎች	-9.37399
▁ሶላንዥ	-9.37399
▁ሺህ	-9.37399
▁ሻለቃው	-9.37399
▁ሽማግሌ	-9.37399
▁ሽብር	-9.37399
▁ቀይና	-9.37399
▁ቀደም	-9.37399
▁ቀዳዳ	-9.37399
▁ቃላትም	-9.37399
▁ቄሱም	-9.37399
▁ቅርብ	-9.37399
▁ቆሜ	-9.37399
▁ቆየን፡፡	-9.37399
▁በሁለተኛው	-9.37399
▁በሁሉም	-9.37399
▁በሃዘኔታ	-9.37399
▁በሆነ	-9.37399
▁በሌሎችም	-9.37399
▁በመሆናቸው	-9.37399
▁በመሆኔ	-9.37399
▁በመስማማት	-9.37399
▁በመስጠት	-9.37399
▁በመንደሩ	-9.37399
▁በመንገዱ	-9.37399
▁በመኝታ	-9.37399
▁በሚል	-9.37399
▁በሚመስል	-9.37399
▁በሚገኘው	-9.37399
▁በሞት	-9.37399
▁በርቀት	-9.37399
▁በቀስ	-9.37399
▁በቅርብ	-9.37399
▁በተመሳሳይ	-9.37399
▁በቱትሲ	-9.37399
▁በታች	-9.37399
▁በነበረበት	-9.37399
▁በነጻ	-9.37399
▁በአማጽያኑ	-9.37399
▁በአሥር	-9.37399
▁በአንዲት	-9.37399
▁በእንባ	-9.37399
▁በእጃቸው	-9.37399
▁በእጅ	-9.37399
▁በከፍተኛ	-9.37399
▁በኩራት	-9.37399
▁በዋናው	-9.37399
▁በዓይኖቼ	-9.37399
▁በዙሪያዬ	-9.37399
▁በዚያው	-9.37399
▁በይ	-9.37399
▁በደም	-9.37399
▁በድንጋጤ	-9.37399
▁በጅምላ	-9.37399
▁በገጀራ	-9.37399
▁በግቢው	-9.37399
▁በጨለማ	-9.37399
▁በጭራሽ	-9.37399
▁በፈረንሳይኛ	-9.37399
▁ቡታሬ	-9.37399
▁ባለበት	-9.37399
▁ባለፈ	-9.37399
▁ቤተሰቦች	-9.37399
▁ብቅ	-9.37399
▁ቪያኒን	-9.37399
▁ተመልሰን	-9.37399
▁ተመልሰው	-9.37399
▁ተመድ	-9.37399
▁ተሸከርካሪዎች	-9.37399
▁ታሪኮች	-9.37399
▁ታየኝ፡፡	-9.37399
▁ትላልቅ	-9.37399
▁ትምህርቴን	-9.37399
▁ትንንሽ	-9.37399
▁ትንፋሽ	-9.37399
▁ትዋ	-9.37399
▁ትውልድ	-9.37399
▁ትይዩ	-9.37399
▁ነበሩ	-9.37399
▁ነኝ፡፡››	-9.37399
▁ነኝ፤	-9.37399
▁ነገሩን	-9.37399
▁ነገሮችን	-9.37399
▁ነጥብ	-9.37399
▁ነፍሴን	-9.37399
▁ነፍስ	-9.37399
▁ኒው	-9.37399
▁ንዴቴ	-9.37399
▁ንጹሃን	-9.37399
▁አለበት፡፡	-9.37399
▁አለችኝ፡፡	-9.37399
▁አላስታውስም፡፡	-9.37399
▁አልባትም	-9.37399
▁አልቻልንም፡፡	-9.37399
▁አልነበረውም፡፡	-9.37399
▁አልኩት	-9.37399
▁አልፎም	-9.37399
▁አሎይዜን	-9.37399
▁አማጽያኑን	-9.37399
▁አሳልፌ	-9.37399
▁አስባለሁ፡፡	-9.37399
▁አስደናቂ	-9.37399
▁አስፈላጊ	-9.37399
▁አስፈሪ	-9.37399
▁አሻፈረኝ	-9.37399
▁አባባን	-9.37399
▁አባትሽ	-9.37399
▁አብዛኞቹን	-9.37399
▁አንድን	-9.37399
▁አእምሮ	-9.37399
▁አእምሮን	-9.37399
▁አወቅሁ፡፡	-9.37399
▁አውቃለሁ፣	-9.37399
▁አውቄያለሁ፡፡	-9.37399
▁አየሁ	-9.37399
▁አየኋቸው፡፡	-9.37399
▁አየን፡፡	-9.37399
▁አይሆንም	-9.37399
▁አይቀርም	-9.37399
▁አይደለም	-9.37399
▁አይደለም፤	-9.37399
▁አይደለም››	-9.37399
▁አደረግሁ፡፡	-9.37399
▁አገልግሎት	-9.37399
▁አገኘሁ፡፡	-9.37399
▁አጥብቄ	-9.37399
▁አፈር	-9.37399
▁ኢየሱስ	-9.37399
▁እርሱን	-9.37399
▁እርሳቸው	-9.37399
▁እርሷም	-9.37399
▁እሱ	-9.37399
▁እሳት	-9.37399
▁እችላለሁ	-9.37399
▁እነርሱን	-9.37399
▁እነዚያን	-9.37399
▁እናትሽን	-9.37399
▁እናንተን	-9.37399
▁እኔና	-9.37399
▁እንደሆንን	-9.37399
▁እንደሚመስል	-9.37399
▁እንደሚችሉ	-9.37399
▁እንደዚያው	-9.37399
▁እንዲሆን	-9.37399
▁እንዲሰማኝ	-9.37399
▁እንዲቆይ	-9.37399
▁እንዲኖር	-9.37399
▁እንዲያገኙ	-9.37399
▁እንዳለሽ	-9.37399
▁እንዳለች	-9.37399
▁እንዳለን	-9.37399
▁እንዳይሆን	-9.37399
▁እንዴ?››	-9.37399
▁እኮ!	-9.37399
▁እውነታ	-9.37399
▁እውን	-9.37399
▁እያልኩ	-9.37399
▁እፈልጋለሁ፡፡	-9.37399
▁እፊት	-9.37399
▁ኦገስቲንን	-9.37399
▁ከልቤ	-9.37399
▁ከመኝታ	-9.37399
▁ከመጀመሪያው	-9.37399
▁ከማታባ	-9.37399
▁ከሦስት	-9.37399
▁ከሰባት	-9.37399
▁ከሰው	-9.37399
▁ከባድ	-9.37399
▁ከንቱ	-9.37399
▁ከአምስት	-9.37399
▁ከኢማኪዩሌ	-9.37399
▁ከእንቅልፌ	-9.37399
▁ከዚህም	-9.37399
▁ከየት	-9.37399
▁ከግድያው	-9.37399
▁ከጎኔ	-9.37399
▁ካለ	-9.37399
▁ካሉ	-9.37399
▁ክሌሜንታይን	-9.37399
▁ክስተት	-9.37399
▁ክስተቶች	-9.37399
▁ወላጆቻቸው	-9.37399
▁ወሳኝ	-9.37399
▁ወንጀል	-9.37399
▁ወይ?	-9.37399
▁ወይኔ	-9.37399
▁ወዲያውኑም	-9.37399
▁ወዳጆቻችን	-9.37399
▁ወገን	-9.37399
▁ዋናው	-9.37399
▁ውረድ	-9.37399
▁ውበት	-9.37399
▁ውጣ	-9.37399
▁ውጥረት	-9.37399
▁ዓለማችን	-9.37399
▁ዓይኖቿን	-9.37399
▁ዕትም	-9.37399
▁ዘመዶች	-9.37399
▁ዘውጎች	-9.37399
▁የሁሉም	-9.37399
▁የሆኑ	-9.37399
▁የለም	-9.37399
▁የልብ	-9.37399
▁የመታጠቢያ	-9.37399
▁የመኝታ	-9.37399
▁የሚሉትን	-9.37399
▁የሚመጡት	-9.37399
▁የሚሰማኝ	-9.37399
▁የሚቆጠሩት	-9.37399
▁የሚኖር	-9.37399
▁የማስተርስ	-9.37399
▁የምፈልገውን	-9.37399
▁የረጅም	-9.37399
▁የራሴን	-9.37399
▁የቤተሰባችን	-9.37399
▁የቤተሰባችንን	-9.37399
▁የብርሃን	-9.37399
▁የተለያየ	-9.37399
▁የተሞላ	-9.37399
▁የተርጓሚው	-9.37399
▁የቱትሲዎችን	-9.37399
▁የአሎይዜን	-9.37399
▁የአእምሮ	-9.37399
▁የእናቴ	-9.37399
▁የእኔን	-9.37399
▁የያዙ	-9.37399
▁የጎድን	-9.37399
▁የፊት	-9.37399
▁ያስታውቃል፡፡	-9.37399
▁ይመላለሳሉ፡፡	-9.37399
▁ይመስል	-9.37399
▁ይመጣሉ፡፡	-9.37399
▁ይዘውልን	-9.37399
▁ይዣለሁ፡፡	-9.37399
▁ደማቅ	-9.37399
▁ደብዳቤውን	-9.37399
▁ደግነት	-9.37399
▁ዲያብሎስ	-9.37399
▁ዳማሲን፡፡	-9.37399
▁ዳርቻ	-9.37399
▁ድምጻቸው	-9.37399
▁ድርሰት	-9.37399
▁ድንበር	-9.37399
▁ድንግል	-9.37399
▁ገብተው	-9.37399
▁ገነት	-9.37399
▁ገጀራውን	-9.37399
▁ጋሂጊ	-9.37399
▁ጋደም	-9.37399
▁ግራ	-9.37399
▁ግንብ	-9.37399
▁ግደሏቸው!››	-9.37399
▁ጎረቤታችን	-9.37399
▁ጎረቤቶቻቸው	-9.37399
▁ጎረቤቶቻችን	-9.37399
▁ጓደኛው	-9.37399
▁ጠመንጃውን	-9.37399
▁ጠርዝ	-9.37399
▁ጠየቅሁ፡፡	-9.37399
▁ጣልቃ	-9.37399
▁ጣራ	-9.37399
▁ጥቁር	-9.37399
▁ጥፋት	-9.37399
▁ጨምሮ	-9.37399
▁ጭር	-9.37399
▁ጭንቀት	-9.37399
▁ጭፍጨፋውን	-9.37399
▁ጸባይ	-9.37399
▁ጸጉር	-9.37399
▁ፀደይ	-9.37399
▁ፈልጎ	-9.37399
▁ፈረንሳይኛ	-9.37399
▁ፈራሁ፡፡	-9.37399
▁ፈገግታ	-9.37399
▁ፊቶች	-9.37399
▁ፊቷ	-9.37399
▁ፌሊሲን	-9.37399
▁ፍቅር፣	-9.37399
▁ፍጅቱን	-9.37399
▁ፍጹም	-9.37399
▁ፍጻሜ	-9.37399
▁‹‹ሁላችሁም	-9.37399
▁‹‹ምን?	-9.37399
▁‹‹ስለ	-9.37399
▁‹‹ብዙ	-9.37399
▁‹‹ተመስገን	-9.37399
▁‹‹ቱትሲዎች	-9.37399
▁‹‹አሁን	-9.37399
▁‹‹አባቴ	-9.37399
▁‹‹እንግዲህ	-9.37399
▁‹‹እግዚአብሔር	-9.37399
▁‹‹ገዳዮቹ	-9.37399
▁‹‹ፈረንሳውያኑ	-9.37399
▁-››	-9.59713
▁12	-9.59713
▁16	-9.59713
▁21	-9.59713
▁3	-9.59713
▁4	-9.59713
▁6	-9.59713
▁7	-9.59713
▁8	-9.59713
▁9	-9.59713
▁ሀገሪቱ	-9.59713
▁ሀገራቸው	-9.59713
▁ሁለቱ	-9.59713
▁ሁለቱን	-9.59713
▁ሁለቱንም	-9.59713
▁ሁቱ፣	-9.59713
▁ሁኑ	-9.59713
▁ሄደች፡፡	-9.59713
▁ሄደን	-9.59713
▁ሄድ	-9.59713
▁ሆነብን፡፡	-9.59713
▁ሆነን	-9.59713
▁ለሌሎቹ	-9.59713
▁ለመቀበል	-9.59713
▁ለመቆየት	-9.59713
▁ለመቋቋም	-9.59713
▁ለመነሳት	-9.59713
▁ለመኖር	-9.59713
▁ለመዋጥ	-9.59713
▁ለመጽሐፉ	-9.59713
▁ለማሳተም	-9.59713
▁ለማሳየት	-9.59713
▁ለማቅረብ	-9.59713
▁ለማትረፍ	-9.59713
▁ለማንኛውም	-9.59713
▁ለቆ	-9.59713
▁ለተወሰነ	-9.59713
▁ለተወሰኑ	-9.59713
▁ለቱትሲዎች	-9.59713
▁ለእናንተ	-9.59713
▁ለውጥ	-9.59713
▁ለዓለም	-9.59713
▁ለዘላለም	-9.59713
▁ለጊዜው	-9.59713
▁ሊሄዱ	-9.59713
▁ሊመጡ	-9.59713
▁ሊጠቀሙ	-9.59713
▁ላለ	-9.59713
▁ላምን	-9.59713
▁ሌላው	-9.59713
▁ሌሎቻችን	-9.59713
▁ሌሎችም	-9.59713
▁ልሂቃን	-9.59713
▁ልቤና	-9.59713
▁ልንሄድ	-9.59713
▁ልዩነት	-9.59713
▁ልጁ	-9.59713
▁ልጃቸው	-9.59713
▁ልጆቼ	-9.59713
▁ሎሬንት	-9.59713
▁ሕዝቡ	-9.59713
▁ሕይወቱን	-9.59713
▁ሕይወታቸው	-9.59713
▁ሕይወታችንን	-9.59713
▁መለስኩ፡፡	-9.59713
▁መላ	-9.59713
▁መሠረት	-9.59713
▁መራመድ	-9.59713
▁መሬቱ	-9.59713
▁መታ	-9.59713
▁መቼ	-9.59713
▁መነሻ	-9.59713
▁መኖሩን	-9.59713
▁መከራ	-9.59713
▁መክፈቻ	-9.59713
▁መውረድ	-9.59713
▁መውደድ	-9.59713
▁መዛግብት	-9.59713
▁መዳን	-9.59713
▁መድረስ	-9.59713
▁መገለጫ	-9.59713
▁መግዛት	-9.59713
▁መጠለያው	-9.59713
▁መጠነ-ሰፊ	-9.59713
▁መጠየቅ	-9.59713
▁መጤዎች	-9.59713
▁መጥፋት	-9.59713
▁መጮህ	-9.59713
▁መጽሐፉን	-9.59713
▁መፍትሔ	-9.59713
▁ሙቀት	-9.59713
▁ማረጋገጫ	-9.59713
▁ማረፊያው	-9.59713
▁ማስተርስ	-9.59713
▁ማስታወስ	-9.59713
▁ማቅረብ	-9.59713
▁ማታባ	-9.59713
▁ማንኛውንም	-9.59713
▁ማዕበል	-9.59713
▁ማዳን	-9.59713
▁ሜሁ	-9.59713
▁ምህረት	-9.59713
▁ምሳሌ	-9.59713
▁ምሽትም	-9.59713
▁ምክንያትነት	-9.59713
▁ምግቡን	-9.59713
▁ሞቅ	-9.59713
▁ሞተዋል	-9.59713
▁ሞከረ፡፡	-9.59713
▁ሥራዋን	-9.59713
▁ሥራውን	-9.59713
▁ረጅም፣	-9.59713
▁ሩዋንዳው	-9.59713
▁ራሴንም	-9.59713
▁ርህራሄ	-9.59713
▁ርቆ	-9.59713
▁ርኩሰት	-9.59713
▁ርኩስ	-9.59713
▁ሮጬ	-9.59713
▁ሰለባ	-9.59713
▁ሰላይ	-9.59713
▁ሰምቼ	-9.59713
▁ሰውዬው	-9.59713
▁ሰዓታትን	-9.59713
▁ሰጠችኝ፡፡	-9.59713
▁ሰጪ	-9.59713
▁ሲመለሱ	-9.59713
▁ሲቀሩ	-9.59713
▁ሲከፍቱት	-9.59713
▁ሲጠራ	-9.59713
▁ሳላሰማ	-9.59713
▁ሳይመን	-9.59713
▁ሳይንስ	-9.59713
▁ሴቶችና	-9.59713
▁ስለሆንን	-9.59713
▁ስለሆንኩ	-9.59713
▁ስለምን	-9.59713
▁ስለዚያ	-9.59713
▁ስላልነበራቸው	-9.59713
▁ስሜትን	-9.59713
▁ስሞክር	-9.59713
▁ስሰማ	-9.59713
▁ስብስብ	-9.59713
▁ስብዕና	-9.59713
▁ስትጽፍ	-9.59713
▁ስንደርስ	-9.59713
▁ስፍራዬ	-9.59713
▁ሺህዎች	-9.59713
▁ሽርሽር	-9.59713
▁ቀለል	-9.59713
▁ቀሪ	-9.59713
▁ቀኝ	-9.59713
▁ቀጣይ	-9.59713
▁ቀጥሏል፡፡	-9.59713
▁ቁጥጥር	-9.59713
▁ቃላትን	-9.59713
▁ቄሱ፡፡	-9.59713
▁ቄሱ፣	-9.59713
▁ቅሉ	-9.59713
▁ቅጂ	-9.59713
▁ቅጠል	-9.59713
▁ቆመን	-9.59713
▁ቆንጆና	-9.59713
▁ቆይታ	-9.59713
▁ቆዳዬን	-9.59713
▁በ1994	-9.59713
▁በሁለት	-9.59713
▁በሊሴ	-9.59713
▁በል	-9.59713
▁በሕግ	-9.59713
▁በመሄድ	-9.59713
▁በመስኮት	-9.59713
▁በመናገር	-9.59713
▁በመንግሥት	-9.59713
▁በመግለጽ	-9.59713
▁በመጠኑ	-9.59713
▁በመጽሐፍ	-9.59713
▁በማታባ	-9.59713
▁በማየቴ	-9.59713
▁በማግስቱ	-9.59713
▁በማጥናት	-9.59713
▁በምልክት	-9.59713
▁በምዕራብ	-9.59713
▁በሥራ	-9.59713
▁በሦስት	-9.59713
▁በረሮዎችን	-9.59713
▁በሩዋንዳው	-9.59713
▁በሰሜን	-9.59713
▁በሰዎች	-9.59713
▁በስተጀርባ	-9.59713
▁በበሩ	-9.59713
▁በበኩሉ	-9.59713
▁በቡድን	-9.59713
▁በተስፋ	-9.59713
▁በተንቀሳቃሽ	-9.59713
▁በተወሰኑ	-9.59713
▁በተጨማሪ	-9.59713
▁በአንዴ	-9.59713
▁በአካባቢው	-9.59713
▁በአክብሮት	-9.59713
▁በአዎንታ	-9.59713
▁በአዲሱ	-9.59713
▁በኢማኪዩሌ	-9.59713
▁በእርሳቸው	-9.59713
▁በእርግጥም	-9.59713
▁በእኔ	-9.59713
▁በእንግሊዝኛ	-9.59713
▁በእጄ	-9.59713
▁በእጆቼ	-9.59713
▁በእጆቿ	-9.59713
▁በኪጋሊ	-9.59713
▁በክፍሉ	-9.59713
▁በዓይኔ	-9.59713
▁በዙሪያችን	-9.59713
▁በዝግታ	-9.59713
▁በየስፍራው	-9.59713
▁በየቤቱ	-9.59713
▁በዩጋንዳ	-9.59713
▁በደርዘኖች	-9.59713
▁በደግ	-9.59713
▁በጀርባዬ	-9.59713
▁በገዳዮች	-9.59713
▁በግፍ	-9.59713
▁በጥሩ	-9.59713
▁በጥርጣሬ	-9.59713
▁በጫካ	-9.59713
▁በጸሎት	-9.59713
▁በፊታቸው	-9.59713
▁በፊቴ	-9.59713
▁በፊትና	-9.59713
▁በፍርሃትና	-9.59713
▁በፍቅሩ	-9.59713
▁በፍቅርና	-9.59713
▁ቢላዋ	-9.59713
▁ቢኖረው	-9.59713
▁ቢጫ	-9.59713
▁ባለስልጣናት	-9.59713
▁ባለች	-9.59713
▁ባለኝ	-9.59713
▁ባለፈችበት	-9.59713
▁ባሉበት	-9.59713
▁ባሉት	-9.59713
▁ባውቅም	-9.59713
▁ባዚል	-9.59713
▁ባይሆን	-9.59713
▁ባይነት	-9.59713
▁ባፕቲስት	-9.59713
▁ቤተሰቡ	-9.59713
▁ቤተክርስቲያን	-9.59713
▁ቤታቸውን	-9.59713
▁ቤትና	-9.59713
▁ብለህ	-9.59713
▁ብለሽ	-9.59713
▁ብሩህ	-9.59713
▁ብስጭት	-9.59713
▁ብቸኞቹ	-9.59713
▁ብቻሽን	-9.59713
▁ቪያኒ፣	-9.59713
▁ተመለሱ፡፡	-9.59713
▁ተሞልቶ	-9.59713
▁ተራሮች	-9.59713
▁ተሰማኝ፤	-9.59713
▁ተሰምቶኛል፡፡	-9.59713
▁ተሰምቶኝ	-9.59713
▁ተቀመጥን፡፡	-9.59713
▁ተቀምጦ	-9.59713
▁ተናገሩ፡፡	-9.59713
▁ተናጋሪ	-9.59713
▁ተንበርክኬ	-9.59713
▁ተኝቼ	-9.59713
▁ተያየን፡፡	-9.59713
▁ተደርጎ	-9.59713
▁ተደብቄ	-9.59713
▁ተደናግጠዋል፡፡	-9.59713
▁ተጨነቅሁ፡፡	-9.59713
▁ተጽዕኖ	-9.59713
▁ቱትሲና	-9.59713
▁ታሪኩም	-9.59713
▁ታሪኳን	-9.59713
▁ታስቦ	-9.59713
▁ታች	-9.59713
▁ትምህርቶች	-9.59713
▁ትር	-9.59713
▁ትርፍራፊ	-9.59713
▁ትናንት	-9.59713
▁ትኩስ	-9.59713
▁ትክክለኛው	-9.59713
▁ትውስታ	-9.59713
▁ችፍ	-9.59713
▁ኃይለማርያም	-9.59713
▁ኋላ	-9.59713
▁ነሽ?››	-9.59713
▁ነሽ፡፡	-9.59713
▁ነበር!››	-9.59713
▁ነበርን	-9.59713
▁ነን	-9.59713
▁ነው!››	-9.59713
▁ነገሬ	-9.59713
▁ነግሮኛል፡፡	-9.59713
▁ንብረቶች	-9.59713
▁ንጉሥ	-9.59713
▁አለው፡፡	-9.59713
▁አለያም	-9.59713
▁አሉታዊ	-9.59713
▁አሊሹ	-9.59713
▁አልተሰማኝም፡፡	-9.59713
▁አልተቻለኝም፡፡	-9.59713
▁አልነበረኝም፡፡	-9.59713
▁አልነበርኩም፡፡	-9.59713
▁አልኳቸው	-9.59713
▁አልፈለገም፡፡	-9.59713
▁አልፈለግሁም፡፡	-9.59713
▁አመሰግነዋለሁ፡፡	-9.59713
▁አማላይ	-9.59713
▁አማርኛ	-9.59713
▁አረንጓዴ	-9.59713
▁አራዊት	-9.59713
▁አርዓያ	-9.59713
▁አሰብኩ	-9.59713
▁አሳለፍን፡፡	-9.59713
▁አሳልፈው	-9.59713
▁አሳልፌያለሁ፡፡	-9.59713
▁አሳልፎ	-9.59713
▁አሳቢ	-9.59713
▁አሳየኝ፡፡	-9.59713
▁አስተያየት	-9.59713
▁አስከባሪዎች	-9.59713
▁አስከፊ	-9.59713
▁አበቦች	-9.59713
▁አባ	-9.59713
▁አባል	-9.59713
▁አባባ፣	-9.59713
▁አባባ››	-9.59713
▁አባቴ፡፡	-9.59713
▁አቤት	-9.59713
▁አብረውኝ	-9.59713
▁አብሬያቸው	-9.59713
▁አታድርገኝ፡፡	-9.59713
▁አና	-9.59713
▁አንስቼ	-9.59713
▁አንችልም፡፡	-9.59713
▁አንደኛውን	-9.59713
▁አንዳችን	-9.59713
▁አንጸባራቂ	-9.59713
▁አእምሮዬን	-9.59713
▁አካላዊ	-9.59713
▁አክራሪ	-9.59713
▁አየኝ፡፡	-9.59713
▁አያውቅም፡፡	-9.59713
▁አይ	-9.59713
▁አይሁን	-9.59713
▁አይቶ	-9.59713
▁አይኖርም፡፡	-9.59713
▁አይደል?››	-9.59713
▁አደረገኝ፡፡	-9.59713
▁አደረግን፡፡	-9.59713
▁አደርጋለሁ፡፡	-9.59713
▁አዲሱን	-9.59713
▁አድርገን	-9.59713
▁አገኘሁት፡፡	-9.59713
▁አግኝተዋል፡፡	-9.59713
▁አግኝቼው	-9.59713
▁አፋፍ	-9.59713
▁አፍ	-9.59713
▁ኢማኪዩሌ...	-9.59713
▁ኢትዮጵያውያን	-9.59713
▁ኢንተርሃምዌዎችን	-9.59713
▁እህቴ	-9.59713
▁እህት	-9.59713
▁እልቂቶች	-9.59713
▁እመት	-9.59713
▁እማማ	-9.59713
▁እማማንና	-9.59713
▁እርዳታ	-9.59713
▁እስከዚያን	-9.59713
▁እሷ	-9.59713
▁እቃዎች	-9.59713
▁እቤታችን	-9.59713
▁እብድ	-9.59713
▁እችላለሁ?	-9.59713
▁እችላለሁ፡፡	-9.59713
▁እናትሽ	-9.59713
▁እኔንም	-9.59713
▁እንስሳ	-9.59713
▁እንቅስቃሴ	-9.59713
▁እንባዋን	-9.59713
▁እንኳንም	-9.59713
▁እንደሚሆን	-9.59713
▁እንደሚወደን	-9.59713
▁እንደማይችል	-9.59713
▁እንደምንችል	-9.59713
▁እንደተከሰተ	-9.59713
▁እንደነገረኝ	-9.59713
▁እንደኔ	-9.59713
▁እንደያዙ	-9.59713
▁እንዲሁም	-9.59713
▁እንዲያድግ	-9.59713
▁እንዳለኝ	-9.59713
▁እንዳላቸው	-9.59713
▁እንዳይፈጸም	-9.59713
▁እንዴ	-9.59713
▁እንድሄድ	-9.59713
▁እወዳችኋለሁ፡፡	-9.59713
▁እውነቱን	-9.59713
▁እየሄድን	-9.59713
▁እየመጡ	-9.59713
▁እየተጣራ	-9.59713
▁እየኖሩ	-9.59713
▁እየጠበቅን	-9.59713
▁እያለች	-9.59713
▁እያልን	-9.59713
▁እያንዳንዱ	-9.59713
▁እጆች	-9.59713
▁ከሁሉም	-9.59713
▁ከሄድኩ	-9.59713
▁ከሆኑ	-9.59713
▁ከሌላው	-9.59713
▁ከመቼውም	-9.59713
▁ከተፈጸሙ	-9.59713
▁ከቱትሲ	-9.59713
▁ከነዚያ	-9.59713
▁ከአማጽያኑ	-9.59713
▁ከኪቩ	-9.59713
▁ከዋና	-9.59713
▁ከዓመታት	-9.59713
▁ከደረስንበት	-9.59713
▁ከዳማሲን	-9.59713
▁ከጓደኞቼ	-9.59713
▁ከፈጣሪ	-9.59713
▁ኪሎግራም	-9.59713
▁ኪሴ	-9.59713
▁ኪስ	-9.59713
▁ኪቡዬ	-9.59713
▁ካሁን	-9.59713
▁ካለንበት	-9.59713
▁ካወቅሁ	-9.59713
▁ካጋሜ	-9.59713
▁ኬላ	-9.59713
▁ክህደት	-9.59713
▁ክዋክብት	-9.59713
▁ክፉኛ	-9.59713
▁ክፍለሀገር	-9.59713
▁ክፍለዘመን	-9.59713
▁ክፍላችን	-9.59713
▁ክፍት	-9.59713
▁ኮንጎ	-9.59713
▁ወላጅ	-9.59713
▁ወላጆቻቸውን	-9.59713
▁ወላጆቼና	-9.59713
▁ወላጆቼን	-9.59713
▁ወስደው	-9.59713
▁ወታደሩ	-9.59713
▁ወንዝ	-9.59713
▁ወንድሙን	-9.59713
▁ወንዶቹ	-9.59713
▁ወደቀ፡፡	-9.59713
▁ወደኋላ	-9.59713
▁ወደዚህ	-9.59713
▁ወዳጄ	-9.59713
▁ወጣ	-9.59713
▁ወጣቱ	-9.59713
▁ወጥመድ	-9.59713
▁ወጥቶ	-9.59713
▁ዓይነቱ	-9.59713
▁ዓይኖቻችን	-9.59713
▁ዕምነት	-9.59713
▁ዘልዬ	-9.59713
▁ዘገባ	-9.59713
▁ዝግጁ	-9.59713
▁የለንም፡፡	-9.59713
▁የልጅነት	-9.59713
▁የሕዝብ	-9.59713
▁የመጀመሪያዋ	-9.59713
▁የመገናኛ	-9.59713
▁የሚሆነን	-9.59713
▁የሚታይ	-9.59713
▁የሚኖረው	-9.59713
▁የሚኖሩት	-9.59713
▁የሚወስደው	-9.59713
▁የሚያሳድዱኝን	-9.59713
▁የሚያደርግ	-9.59713
▁የሚገደሉ	-9.59713
▁የሚፈጸሙት	-9.59713
▁የማስታውሰው	-9.59713
▁የማይታሰብ	-9.59713
▁የማይታዩ	-9.59713
▁የማደርገውን	-9.59713
▁የምሽት	-9.59713
▁የምፈልገው	-9.59713
▁የራስ	-9.59713
▁የሬድዮ	-9.59713
▁የርዕሰ-ብሔሩ	-9.59713
▁የሰማነው	-9.59713
▁የሰውን	-9.59713
▁የሰጠኝን	-9.59713
▁የስደተኞች	-9.59713
▁የቀድሞ	-9.59713
▁የቡና	-9.59713
▁የቤተሰቡ	-9.59713
▁የተሞላባቸው	-9.59713
▁የተሰማኝ	-9.59713
▁የተባለው	-9.59713
▁የተወለድኩት	-9.59713
▁የተወሰኑትን	-9.59713
▁የታጠቁ	-9.59713
▁የነበረችው	-9.59713
▁የነበረኝ	-9.59713
▁የነጻነት	-9.59713
▁የኛ	-9.59713
▁የኛን	-9.59713
▁የአሎይዜ	-9.59713
▁የአምላክን	-9.59713
▁የአንድን	-9.59713
▁የኢንተርሃምዌን	-9.59713
▁የኪቩ	-9.59713
▁የወንድሜን	-9.59713
▁የገደሉትን	-9.59713
▁የገዳዮቹ	-9.59713
▁የገዳዮች	-9.59713
▁የጥላቻንም	-9.59713
▁የጥላቻውን	-9.59713
▁የጭፍጨፋው	-9.59713
▁የጸሎት	-9.59713
▁የፍቅርና	-9.59713
▁ያለች	-9.59713
▁ያለን	-9.59713
▁ያምናሉ፡፡	-9.59713
▁ያስተጋባ	-9.59713
▁ያች	-9.59713
▁ያየሁትን	-9.59713
▁ያደርገናል፡፡	-9.59713
▁ያደርጋል፡፡	-9.59713
▁ይሁዲዎች	-9.59713
▁ይህንኑ	-9.59713
▁ይላሉ፡፡	-9.59713
▁ይመጣብኛል፡፡	-9.59713
▁ይባስ	-9.59713
▁ይቻላል	-9.59713
▁ይችላሉ	-9.59713
▁ይችላሉ፤	-9.59713
▁ይናገራሉ፡፡	-9.59713
▁ይዟል፡፡	-9.59713
▁ዮሃንስና	-9.59713
▁ዮሃንስን	-9.59713
▁ደረሰ፡፡	-9.59713
▁ደረስን፡፡	-9.59713
▁ደራሲና	-9.59713
▁ደብረ	-9.59713
▁ደብተር	-9.59713
▁ድምጹን	-9.59713
▁ድረስም	-9.59713
▁ድርጊት	-9.59713
▁ድርጊቶች	-9.59713
▁ዶላር	-9.59713
▁ጀልባ	-9.59713
▁ጀመርኩ	-9.59713
▁ጀግና	-9.59713
▁ጆሮ	-9.59713
▁ጉልበት	-9.59713
▁ጉዬ	-9.59713
▁ጊዜዬ	-9.59713
▁ጌታዬ፣	-9.59713
▁ግቢው	-9.59713
▁ግንቡ	-9.59713
▁ግዴታዬ	-9.59713
▁ግድግዳ	-9.59713
▁ጓሮ	-9.59713
▁ጓደኛዬን	-9.59713
▁ጠባሳ	-9.59713
▁ጠየቀችኝ፡፡	-9.59713
▁ጠየቁኝ፡፡	-9.59713
▁ጠየቅሁት	-9.59713
▁ጠየኩት፡፡	-9.59713
▁ጣል	-9.59713
▁ጣቢያዎች	-9.59713
▁ጥላቻን	-9.59713
▁ጥቅም	-9.59713
▁ጥንካሬውን	-9.59713
▁ጥያቄዎች	-9.59713
▁ጨለማው	-9.59713
▁ጫማ	-9.59713
▁ጫፍ	-9.59713
▁ጭምር፡፡	-9.59713
▁ጭራሽ	-9.59713
▁ጭፍጨፋዎች	-9.59713
▁ጮኬ	-9.59713
▁ጮክ	-9.59713
▁ጮኸ፡፡	-9.59713
▁ጸረ-ቱትሲ	-9.59713
▁ጽሑፍ	-9.59713
▁ጽንፈኞች	-9.59713
▁ፈልጓት	-9.59713
▁ፈረንሳውያን	-9.59713
▁ፈርተው	-9.59713
▁ፈቃድ	-9.59713
▁ፈገግታው	-9.59713
▁ፊቱን	-9.59713
▁ፊታቸው	-9.59713
▁ፊታቸውን	-9.59713
▁ፊቴ	-9.59713
▁ፋሪ	-9.59713
▁ፍሎረንስ	-9.59713
▁ፍራቻ	-9.59713
▁ፍርሥራሽ	-9.59713
▁ፍቅርና	-9.59713
▁ፍጅትና	-9.59713
▁ፍጡር	-9.59713
▁ፍጥነት	-9.59713
▁‹‹ስለዚህ	-9.59713
▁‹‹በእርግጥ	-9.59713
▁‹‹ነይ	-9.59713
▁‹‹አምላክ	-9.59713
▁‹‹አባትሽ	-9.59713
▁‹‹አንድ	-9.59713
▁‹‹አይሆንም	-9.59713
▁‹‹እነዚህን	-9.59713
▁‹‹እንኳን	-9.59713
▁‹‹ወይ	-9.59713
▁‹‹ያው	-9.59713
▁‹‹ግድያው	-9.59713
▁1	-9.88482
▁11	-9.88482
▁150	-9.88482
▁18	-9.88482
▁19	-9.88482
▁2008	-9.88482
▁2012	-9.88482
▁22	-9.88482
▁23	-9.88482
▁24	-9.88482
▁400	-9.88482
▁55	-9.88482
▁60	-9.88482
▁61	-9.88482
▁ሀገራችን	-9.88482
▁ሁለቴ	-9.88482
▁ሁቱውን	-9.88482
▁ሁኔታዎችን	-9.88482
▁ሁን	-9.88482
▁ሁኚ	-9.88482
▁ሂዱ	-9.88482
▁ሂጂ	-9.88482
▁ሃይ	-9.88482
▁ሃይማኖታዊ	-9.88482
▁ሄደዋል፤	-9.88482
▁ሄድን፡፡	-9.88482
▁ህያው	-9.88482
▁ሆንኩ...	-9.88482
▁ለልጆቻቸው	-9.88482
▁ለመለየት	-9.88482
▁ለመርሳት	-9.88482
▁ለመቀመጥ	-9.88482
▁ለመቅሰም	-9.88482
▁ለመቆጣጠር	-9.88482
▁ለመተዋወቅ	-9.88482
▁ለመንከባከብ	-9.88482
▁ለመክፈት	-9.88482
▁ለመውጣት	-9.88482
▁ለመያዝ	-9.88482
▁ለመግለጽ	-9.88482
▁ለመጎብኘት	-9.88482
▁ለመጠበቅ	-9.88482
▁ለመጡት	-9.88482
▁ለመጣል	-9.88482
▁ለመጮህ	-9.88482
▁ለመፍታት	-9.88482
▁ለሚቆጠሩ	-9.88482
▁ለሚጠጋ	-9.88482
▁ለማምጣት	-9.88482
▁ለማረጋገጥ	-9.88482
▁ለማረጋጋት	-9.88482
▁ለማሳካት	-9.88482
▁ለማናቸውም	-9.88482
▁ለማጥናት	-9.88482
▁ለሰላምታ	-9.88482
▁ለትምህርት	-9.88482
▁ለአሁኑ	-9.88482
▁ለኢማኪዩሌ	-9.88482
▁ለኤይማብል	-9.88482
▁ለእያንዳንዱ	-9.88482
▁ለእጅ	-9.88482
▁ለወታደሮቹ	-9.88482
▁ለወትሮው	-9.88482
▁ለዓመታት	-9.88482
▁ለዓይን	-9.88482
▁ለዘላለሙ	-9.88482
▁ለዚህ	-9.88482
▁ለየት	-9.88482
▁ለጸሎቴ	-9.88482
▁ሊሆኑ	-9.88482
▁ሊኖር	-9.88482
▁ሊኦናርድ፣	-9.88482
▁ሊከሰት	-9.88482
▁ላለፉት	-9.88482
▁ላንተ	-9.88482
▁ሌሊትም	-9.88482
▁ልሆን	-9.88482
▁ልባዊ	-9.88482
▁ልብሶቹን	-9.88482
▁ልብሶቼን	-9.88482
▁ልብን	-9.88482
▁ልከኛ	-9.88482
▁ልጃገረድ	-9.88482
▁ልጃገረዶች	-9.88482
▁ልጄ	-9.88482
▁ልጄ››	-9.88482
▁ልጅም	-9.88482
▁ልጆችም	-9.88482
▁ልጆቿ	-9.88482
▁ልጆቿንና	-9.88482
▁ልጇ	-9.88482
▁ሐሳቤን	-9.88482
▁ሐሳቦቼ	-9.88482
▁ሐዘኔታና	-9.88482
▁ሐዘን	-9.88482
▁ሕልሜ	-9.88482
▁ሕንጻ	-9.88482
▁ሕንጻዎች	-9.88482
▁ሕይወታችን	-9.88482
▁መሄዴ	-9.88482
▁መሆናችን	-9.88482
▁መሆናችንን	-9.88482
▁መሆኔ	-9.88482
▁መለሰልኝ፡፡	-9.88482
▁መለስ	-9.88482
▁መለስኩላቸው፡፡	-9.88482
▁መልሼ	-9.88482
▁መልአክ	-9.88482
▁መልከ	-9.88482
▁መልካሙ	-9.88482
▁መምህሩ	-9.88482
▁መምህራን	-9.88482
▁መምጣት	-9.88482
▁መሣሪያና	-9.88482
▁መሣሪያውን	-9.88482
▁መርፌዎች	-9.88482
▁መሰለ፡፡	-9.88482
▁መሰል	-9.88482
▁መሳይ	-9.88482
▁መስለው	-9.88482
▁መስተጋብር	-9.88482
▁መቀበል	-9.88482
▁መቃብሮች	-9.88482
▁መቅድም	-9.88482
▁መቋቋም	-9.88482
▁መብረቅ	-9.88482
▁መብት	-9.88482
▁መተማመን	-9.88482
▁መትረፌ	-9.88482
▁መነሻነት	-9.88482
▁መነኩሲት	-9.88482
▁መንገድም	-9.88482
▁መንጋ	-9.88482
▁መንፈሴን	-9.88482
▁መኖርን	-9.88482
▁መኝታዬ	-9.88482
▁መአት	-9.88482
▁መከላከል	-9.88482
▁መከፋፈል	-9.88482
▁መያዝ	-9.88482
▁መድሎ	-9.88482
▁መድረኮች	-9.88482
▁መጀመር	-9.88482
▁መገኛ	-9.88482
▁መጠለያ	-9.88482
▁መጡ	-9.88482
▁መጣር	-9.88482
▁መጣች፡፡	-9.88482
▁መጥተዋል፡፡	-9.88482
▁መጥቼ	-9.88482
▁መጨረሻም	-9.88482
▁መጻሕፍቴን	-9.88482
▁መጻሕፍት	-9.88482
▁መጻሕፍትም	-9.88482
▁መጻፍ	-9.88482
▁መፈራረስ	-9.88482
▁ሙሜ	-9.88482
▁ሚኒስትር	-9.88482
▁ማለታቸው	-9.88482
▁ማለቴ	-9.88482
▁ማላባና	-9.88482
▁ማሪያኔ	-9.88482
▁ማራቅ	-9.88482
▁ማራኪ	-9.88482
▁ማናገር	-9.88482
▁ማውጣት	-9.88482
▁ማየቱ	-9.88482
▁ማየቴን	-9.88482
▁ማዳመጥ	-9.88482
▁ማጓጓዣ	-9.88482
▁ማጥፋትና	-9.88482
▁ሜዲካል	-9.88482
▁ምራቅ	-9.88482
▁ምስሎች	-9.88482
▁ምስክር	-9.88482
▁ምቾት	-9.88482
▁ምናለ	-9.88482
▁ምንኛ	-9.88482
▁ምክሩን	-9.88482
▁ምክር	-9.88482
▁ምክርና	-9.88482
▁ምድር	-9.88482
▁ምግብም	-9.88482
▁ሞተው	-9.88482
▁ሞቷል	-9.88482
▁ሞክሬያለሁ፡፡	-9.88482
▁ሠራተኛው	-9.88482
▁ሣጥን	-9.88482
▁ሥራም	-9.88482
▁ረዘም	-9.88482
▁ረፍት	-9.88482
▁ሩቅ	-9.88482
▁ራእይ	-9.88482
▁ርህሩህና	-9.88482
▁ርቄ	-9.88482
▁ርኩሳን	-9.88482
▁ርዕስ	-9.88482
▁ሮዝ	-9.88482
▁ሰለባዎች	-9.88482
▁ሰማናቸው፡፡	-9.88482
▁ሰምቻለሁ፡፡	-9.88482
▁ሰምቻቸዋለሁ፡፡	-9.88482
▁ሰቆቃዎች	-9.88482
▁ሰንጥቆ	-9.88482
▁ሰውነታችንን	-9.88482
▁ሰውዬውን	-9.88482
▁ሰጠኝ፡፡	-9.88482
▁ሰጡኝ፡፡	-9.88482
▁ሰፊ	-9.88482
▁ሲሞቱ	-9.88482
▁ሲሞክር	-9.88482
▁ሲባል	-9.88482
▁ሲናገሩ	-9.88482
▁ሲናገር	-9.88482
▁ሲወጡ	-9.88482
▁ሲያልቅ	-9.88482
▁ሲያቃጥሉት	-9.88482
▁ሲያናግረኝ	-9.88482
▁ሲያወራ	-9.88482
▁ሲያዩ	-9.88482
▁ሲያዩኝ	-9.88482
▁ሲያጠፉ	-9.88482
▁ሲጀምር	-9.88482
▁ሲጠሩ	-9.88482
▁ሲጠይቁት	-9.88482
▁ሳለቅስ	-9.88482
▁ሳስበው	-9.88482
▁ሳቢያ	-9.88482
▁ሳያልቅ	-9.88482
▁ሳደርግ	-9.88482
▁ሳጣ	-9.88482
▁ሴትዮዋ	-9.88482
▁ሴቶችን	-9.88482
▁ስለሆንሽ	-9.88482
▁ስለሚችል	-9.88482
▁ስለሚፈልጉ	-9.88482
▁ስለማበሳጨት	-9.88482
▁ስለተሰማኝ	-9.88482
▁ስለነበረው	-9.88482
▁ስለፈራ	-9.88482
▁ስላለህ	-9.88482
▁ስመጣ	-9.88482
▁ስሜታቸውን	-9.88482
▁ስሜቴ	-9.88482
▁ስሜቶች	-9.88482
▁ስምምነት	-9.88482
▁ስሞች	-9.88482
▁ስትናገር	-9.88482
▁ስትወጣ	-9.88482
▁ስነቃ	-9.88482
▁ስንመለስ	-9.88482
▁ስንገባ	-9.88482
▁ስኬታማ	-9.88482
▁ስደተኛ	-9.88482
▁ስጠብቅ	-9.88482
▁ስጸልይ	-9.88482
▁ሶኒ	-9.88482
▁ሹክሹክታ	-9.88482
▁ሺዎች	-9.88482
▁ሽልማትን	-9.88482
▁ሽያጭ	-9.88482
▁ቀናትን	-9.88482
▁ቀንም	-9.88482
▁ቀንና	-9.88482
▁ቀዳሜ-ቃል	-9.88482
▁ቀድሞ	-9.88482
▁ቀጠለች፡፡	-9.88482
▁ቀጠሉ	-9.88482
▁ቀጠልኩ፡፡	-9.88482
▁ቀጥ	-9.88482
▁ቀጥሎ	-9.88482
▁ቀጭ	-9.88482
▁ቁልቁለት	-9.88482
▁ቁምሳጥኑ	-9.88482
▁ቁምሳጥኑን	-9.88482
▁ቅርጽ	-9.88482
▁ቅኝ	-9.88482
▁ቅዝቃዜ	-9.88482
▁ቅድስት	-9.88482
▁ቆመና	-9.88482
▁ቆመ፡፡	-9.88482
▁ቆምኩ፡፡	-9.88482
▁ቆየ፡፡	-9.88482
▁ቆይቷል፡፡	-9.88482
▁ቋንቋዎች	-9.88482
▁በ1973ቱ	-9.88482
▁በሀገራችን	-9.88482
▁በሀገር	-9.88482
▁በሁቱ	-9.88482
▁በሃፍረት	-9.88482
▁በሉ	-9.88482
▁በሉ››	-9.88482
▁በላቀ	-9.88482
▁በላብ	-9.88482
▁በሌላው	-9.88482
▁በሌሎች	-9.88482
▁በልዩ	-9.88482
▁በሐይቁ	-9.88482
▁በሕይወታቸው	-9.88482
▁በመላው	-9.88482
▁በመሥራትና	-9.88482
▁በመንደሬ	-9.88482
▁በመኖሪያ	-9.88482
▁በመግደል	-9.88482
▁በመጠቀም	-9.88482
▁በመጭው	-9.88482
▁በሚገኝ	-9.88482
▁በማንኛዋም	-9.88482
▁በማንኛውም	-9.88482
▁በማወቄ	-9.88482
▁በምስጢር	-9.88482
▁በምሽቱ	-9.88482
▁በራችን	-9.88482
▁በራችንን	-9.88482
▁በሮች	-9.88482
▁በሰማይ	-9.88482
▁በሰውነቴ	-9.88482
▁በሰፊው	-9.88482
▁በሳምንት	-9.88482
▁በስልክ	-9.88482
▁በስተቀረ	-9.88482
▁በቀል	-9.88482
▁በቀልን	-9.88482
▁በቀስታ	-9.88482
▁በቀጣዮቹ	-9.88482
▁በቁመት	-9.88482
▁በበኩሏ	-9.88482
▁በባሰ	-9.88482
▁በቤተሰቡ	-9.88482
▁በቤተሰባችን	-9.88482
▁በቤታቸው	-9.88482
▁በቤቴ	-9.88482
▁በቤት	-9.88482
▁በብረቱ	-9.88482
▁በብዛት	-9.88482
▁በተለየ	-9.88482
▁በተለያዩ	-9.88482
▁በተሸከርካሪ	-9.88482
▁በተሸከርካሪው	-9.88482
▁በተባበሩት	-9.88482
▁በተከታታይ	-9.88482
▁በታሪክ	-9.88482
▁በታደሰ	-9.88482
▁በትንሿ	-9.88482
▁በትከሻቸው	-9.88482
▁በቶሎ	-9.88482
▁በነበሩት	-9.88482
▁በነዚህ	-9.88482
▁በንዴት	-9.88482
▁በአቅራቢያችን	-9.88482
▁በአንደኛው	-9.88482
▁በአንዱ	-9.88482
▁በአውሮፓውያን	-9.88482
▁በአግባቡ	-9.88482
▁በአጭር	-9.88482
▁በእምነት	-9.88482
▁በእያንዳንዱ	-9.88482
▁በከተማው	-9.88482
▁በወንድሜ	-9.88482
▁በዓለማችን	-9.88482
▁በዕውቀት	-9.88482
▁በዘለለ	-9.88482
▁በዘውጉ	-9.88482
▁በዚህች	-9.88482
▁በዚች	-9.88482
▁በዩኒቨርሲቲ	-9.88482
▁በዩኒቨርሲቲው	-9.88482
▁በደረሰባት	-9.88482
▁በደጉ	-9.88482
▁በደግነት	-9.88482
▁በዳማሲን	-9.88482
▁በድጋሚም	-9.88482
▁በግሌ	-9.88482
▁በግንቡ	-9.88482
▁በጎረቤት	-9.88482
▁በጦርነቱ	-9.88482
▁በጫካው	-9.88482
▁በፊቱ	-9.88482
▁ቡድኑ	-9.88482
▁ቢቀር	-9.88482
▁ባህል	-9.88482
▁ባለቤት	-9.88482
▁ባላውቅም	-9.88482
▁ባሌ	-9.88482
▁ባሏ	-9.88482
▁ባሏን	-9.88482
▁ባሕር	-9.88482
▁ባንዴ	-9.88482
▁ባየሁት	-9.88482
▁ባይኖረኝም	-9.88482
▁ቤተሰቡን	-9.88482
▁ቤተክርስቲያኑ	-9.88482
▁ቤቴን	-9.88482
▁ቤትም	-9.88482
▁ቤት፣	-9.88482
▁ብላችሁ	-9.88482
▁ብል	-9.88482
▁ብረት-ለበስ	-9.88482
▁ብርቅዬ	-9.88482
▁ብርያንና	-9.88482
▁ብርያንን	-9.88482
▁ብርግድ	-9.88482
▁ብትሆን	-9.88482
▁ብትሆንም	-9.88482
▁ብቸኛዋ	-9.88482
▁ብቸኝነት	-9.88482
▁ብናውቅም	-9.88482
▁ብንሞክርም	-9.88482
▁ብዙሃን	-9.88482
▁ብዙዎቹን	-9.88482
▁ብዛት	-9.88482
▁ብያለሁ፡፡	-9.88482
▁ብዬም	-9.88482
▁ብፈልግም	-9.88482
▁ቦምብ	-9.88482
▁ቦጎሶራ	-9.88482
▁ቪክተር	-9.88482
▁ቪያኒም	-9.88482
▁ቪያኒንና	-9.88482
▁ቪያኒ፤	-9.88482
▁ተመለሰ፡፡	-9.88482
▁ተመልሶ	-9.88482
▁ተማርኮ	-9.88482
▁ተራው	-9.88482
▁ተሽከርካሪዎች	-9.88482
▁ተቀምጣ	-9.88482
▁ተብለው	-9.88482
▁ተነሥቶ	-9.88482
▁ተነሺ፡፡	-9.88482
▁ተንቀሳቃሽ	-9.88482
▁ተንከባክበን	-9.88482
▁ተንፍሼ	-9.88482
▁ተኖ	-9.88482
▁ተአምር	-9.88482
▁ተከፈተ፡፡	-9.88482
▁ተኩስ	-9.88482
▁ተዋናይ	-9.88482
▁ተዋጠ፡፡	-9.88482
▁ተደስቼ	-9.88482
▁ተደብቆ	-9.88482
▁ተገናኘሁ፡፡	-9.88482
▁ተግባራትን	-9.88482
▁ተጠያቂ	-9.88482
▁ተጨፍጭፈዋል፡፡	-9.88482
▁ታሪኩ	-9.88482
▁ታሪኩን	-9.88482
▁ታሪክና	-9.88482
▁ታሪኳም	-9.88482
▁ታውቃለህ፡፡	-9.88482
▁ታውቆኛል፡፡	-9.88482
▁ታደርጋለች፡፡	-9.88482
▁ታደርግልኛለች፡፡	-9.88482
▁ትልልቅ	-9.88482
▁ትርጉሙ	-9.88482
▁ትርፍ	-9.88482
▁ትተውን	-9.88482
▁ትታ	-9.88482
▁ትችያለሽ፡፡››	-9.88482
▁ትነግረናለህ	-9.88482
▁ትንሹ፣	-9.88482
▁ትንሿ	-9.88482
▁ትንንሾቹ	-9.88482
▁ትንፋሼን	-9.88482
▁ትውልዶች	-9.88482
▁ትዕይንቱ	-9.88482
▁ትዕይንቶች	-9.88482
▁ትዝታዎቼ	-9.88482
▁ቸል	-9.88482
▁ቻለ?	-9.88482
▁ቻሉ?	-9.88482
▁ችላለች፡፡	-9.88482
▁ችሏል፡፡	-9.88482
▁ችግርና	-9.88482
▁ኃላፊነት	-9.88482
▁ነህ፡፡	-9.88482
▁ነህ፤	-9.88482
▁ነበረች	-9.88482
▁ነበራቸው፡፡	-9.88482
▁ነበር፣	-9.88482
▁ነበር››	-9.88482
▁ነች?	-9.88482
▁ነገረን፡፡	-9.88482
▁ነፍሶች	-9.88482
▁ኑሮ	-9.88482
▁ናታሻ	-9.88482
▁ናቸው!	-9.88482
▁ናቸው?	-9.88482
▁ንዴቴን	-9.88482
▁አለ?	-9.88482
▁አለማክበር	-9.88482
▁አለምኩ፡፡	-9.88482
▁አለቀስኩ፡፡	-9.88482
▁አለበት	-9.88482
▁አለብሽ፡፡	-9.88482
▁አለብኝ	-9.88482
▁አለን፡፡	-9.88482
▁አሉታዊው	-9.88482
▁አሉና	-9.88482
▁አሉን	-9.88482
▁አልረሳውም፡፡	-9.88482
▁አልቀበልም	-9.88482
▁አልባት	-9.88482
▁አልቻለም	-9.88482
▁አልቻልኩም	-9.88482
▁አልነበረንም፡፡	-9.88482
▁አልነበሩም፡፡	-9.88482
▁አልኳት፡፡	-9.88482
▁አልጋ	-9.88482
▁አልጠራጠርም፡፡	-9.88482
▁አልፈለግሁም	-9.88482
▁አልፈልግም፡፡››	-9.88482
▁አልፈን	-9.88482
▁አሎይዜንና	-9.88482
▁አመመኝ፡፡	-9.88482
▁አመቱ	-9.88482
▁አመፅ	-9.88482
▁አምላክንም	-9.88482
▁አምሽቶ	-9.88482
▁አሠራር	-9.88482
▁አረመኔያዊ	-9.88482
▁አረጋግቼ	-9.88482
▁አረፈው፡፡	-9.88482
▁አርቆ	-9.88482
▁አሰቃቂዎቹ	-9.88482
▁አሰብኩት፡፡	-9.88482
▁አስመስሎ	-9.88482
▁አስቀምጦ	-9.88482
▁አስቀድመው	-9.88482
▁አስበው	-9.88482
▁አስቦ	-9.88482
▁አስተሳሰብ	-9.88482
▁አስተዳዳሪ	-9.88482
▁አስቸጋሪና	-9.88482
▁አስከሬኖችን	-9.88482
▁አስወጥቷል፡፡	-9.88482
▁አስደማሚ	-9.88482
▁አስደነገጠኝ፡፡	-9.88482
▁አቀራረብ	-9.88482
▁አቅሙ	-9.88482
▁አባሺ	-9.88482
▁አባታችንን	-9.88482
▁አባቴንና	-9.88482
▁አባት	-9.88482
▁አባትሽን	-9.88482
▁አቤት!	-9.88482
▁አብሬው	-9.88482
▁አብሬያት	-9.88482
▁አብሮን	-9.88482
▁አብሮኝ	-9.88482
▁አብያተ	-9.88482
▁አትክልት	-9.88482
▁አትጨነቂ፡፡	-9.88482
▁አነባሁ፡፡	-9.88482
▁አንባቢው	-9.88482
▁አንተም	-9.88482
▁አንቺንም	-9.88482
▁አንደሆነ	-9.88482
▁አንደኛ	-9.88482
▁አንዱና	-9.88482
▁አንዲትም	-9.88482
▁አንዳቸው	-9.88482
▁አንዴም	-9.88482
▁አንጠልጣይ	-9.88482
▁አካባቢው	-9.88482
▁አካባቢያችን	-9.88482
▁አክስቴ	-9.88482
▁አኰቴት	-9.88482
▁አወጣሁና	-9.88482
▁አዋቂዎችን	-9.88482
▁አውርተናል፡፡	-9.88482
▁አውጥተው	-9.88482
▁አዎንታዊ	-9.88482
▁አዛውንት	-9.88482
▁አዛዥ	-9.88482
▁አየዋለሁ፡፡	-9.88482
▁አዩኝ፡፡	-9.88482
▁አያለሁ፡፡	-9.88482
▁አያቴ	-9.88482
▁አይሆንም!	-9.88482
▁አይመስለኝም፡፡	-9.88482
▁አይመስልም፡፡	-9.88482
▁አይቀርም፤	-9.88482
▁አይተዋል	-9.88482
▁አይቼ	-9.88482
▁አይችሉም፡፡	-9.88482
▁አይነቶቹን	-9.88482
▁አይደለሁም፡፡	-9.88482
▁አይደለም፣	-9.88482
▁አይ፣	-9.88482
▁አደረስን፡፡	-9.88482
▁አደረገች፡፡	-9.88482
▁አደረግሁ	-9.88482
▁አደራ	-9.88482
▁አደንዛዥ	-9.88482
▁አዳራሹ	-9.88482
▁አድርጋቸው፡፡	-9.88482
▁አድነው	-9.88482
▁አጀብ	-9.88482
▁አገኘኋት፡፡	-9.88482
▁አጎቴ	-9.88482
▁አጠገቤ	-9.88482
▁አጥር	-9.88482
▁አጭር	-9.88482
▁አጽናፍ	-9.88482
▁አፌም	-9.88482
▁አፍጥጬ	-9.88482
▁ኢማኪዩሌ?››	-9.88482
▁ኢማኪዩሌ፡፡››	-9.88482
▁ኢንተርሃምዌ	-9.88482
▁እሆናለሁ፡፡	-9.88482
▁እላለሁ	-9.88482
▁እመኛለሁ፡፡	-9.88482
▁እማማ፣	-9.88482
▁እምነትና	-9.88482
▁እሞክራለሁ፡፡	-9.88482
▁እረፍት	-9.88482
▁እራት	-9.88482
▁እርምጃ	-9.88482
▁እስረኛ	-9.88482
▁እስኪያልቅ	-9.88482
▁እስኪጨርስ	-9.88482
▁እቅፍ	-9.88482
▁እባላለሁ	-9.88482
▁እባብ	-9.88482
▁እባክዎን	-9.88482
▁እቤታቸው	-9.88482
▁እነርሱም	-9.88482
▁እነሱ	-9.88482
▁እናታችን	-9.88482
▁እናቴና	-9.88482
▁እናቶች	-9.88482
▁እንስሶች	-9.88482
▁እንባዬ	-9.88482
▁እንችላለን፡፡	-9.88482
▁እንኳ	-9.88482
▁እንደሌለብኝ	-9.88482
▁እንደሚያስፈልጋቸው	-9.88482
▁እንደሚገባኝ	-9.88482
▁እንደማያደርጉልኝ	-9.88482
▁እንደምትችል	-9.88482
▁እንደምችል	-9.88482
▁እንደነገሩ	-9.88482
▁እንደኔው	-9.88482
▁እንዲሄዱ	-9.88482
▁እንዲቆሙ	-9.88482
▁እንዲኖረን	-9.88482
▁እንዲያነበው	-9.88482
▁እንዲያደርጉ	-9.88482
▁እንዲያደርጉኝ	-9.88482
▁እንዲያገኙኝ	-9.88482
▁እንዳለሁ	-9.88482
▁እንዳሉት	-9.88482
▁እንዳላይ	-9.88482
▁እንዳልሆንኩ	-9.88482
▁እንዳልነበር	-9.88482
▁እንዳይቀሩ	-9.88482
▁እንዳገኝ	-9.88482
▁እንድታገኚ	-9.88482
▁እንድናይ	-9.88482
▁እንጂ››	-9.88482
▁እንጃ	-9.88482
▁እንጭጭ	-9.88482
▁እኝህ	-9.88482
▁እኩል	-9.88482
▁እየሄድኩ	-9.88482
▁እየመጣ	-9.88482
▁እየተካሄደ	-9.88482
▁እየተዋጉ	-9.88482
▁እየተዘዋወረች	-9.88482
▁እየዘመሩ	-9.88482
▁እየገፋ	-9.88482
▁እየጎላ	-9.88482
▁እየጨመረ	-9.88482
▁እያንዳንዳችን	-9.88482
▁እያደረገ	-9.88482
▁እያደረጉ	-9.88482
▁እያደረግሽ	-9.88482
▁እጅና	-9.88482
▁እጆቹ	-9.88482
▁እጆቻችንን	-9.88482
▁እግሮቻችን	-9.88482
▁እግሮች	-9.88482
▁እጥረት	-9.88482
▁እጽ	-9.88482
▁እፎይታ	-9.88482
▁ከሁለተኛ	-9.88482
▁ከሁለተኛው	-9.88482
▁ከሁላችንም	-9.88482
▁ከሁቱ	-9.88482
▁ከሄድን	-9.88482
▁ከሆናችሁ	-9.88482
▁ከላይ	-9.88482
▁ከልጆቹ	-9.88482
▁ከመሄዱ	-9.88482
▁ከመሄዳችን	-9.88482
▁ከረጅም	-9.88482
▁ከራሳችሁ	-9.88482
▁ከሰማኋቸው	-9.88482
▁ከሰዓታት	-9.88482
▁ከሳራ	-9.88482
▁ከስድስት	-9.88482
▁ከቁምሳጥኑ	-9.88482
▁ከቄስ	-9.88482
▁ከቆለፉብን	-9.88482
▁ከበፊቱ	-9.88482
▁ከብዙ	-9.88482
▁ከተለያዩ	-9.88482
▁ከተሸከርካሪው	-9.88482
▁ከተቻለ	-9.88482
▁ከኋላችን	-9.88482
▁ከነሱ	-9.88482
▁ከአልጋው	-9.88482
▁ከአምላኬ	-9.88482
▁ከአንደኛ	-9.88482
▁ከእምነቴ	-9.88482
▁ከእራት	-9.88482
▁ከእርሷ	-9.88482
▁ከእነዚህ	-9.88482
▁ከእንግዲህ	-9.88482
▁ከኪጋሊ	-9.88482
▁ከክፉ	-9.88482
▁ከክፍሌ	-9.88482
▁ከወንድሞቼ	-9.88482
▁ከዓለም	-9.88482
▁ከዕለት	-9.88482
▁ከዮሃንስ	-9.88482
▁ከደረስኩ	-9.88482
▁ከገባሁ	-9.88482
▁ከገነት	-9.88482
▁ከግማሽ	-9.88482
▁ከግምት	-9.88482
▁ከጓደኞቹ	-9.88482
▁ከጠየቅን	-9.88482
▁ከፊታችን	-9.88482
▁ከፍቼ	-9.88482
▁ከፖለቲካ	-9.88482
▁ኪንያሩዋንዳ	-9.88482
▁ካለው	-9.88482
▁ካለፈው	-9.88482
▁ካሉት	-9.88482
▁ካናዳዊ	-9.88482
▁ካየሁት	-9.88482
▁ካየኋቸው	-9.88482
▁ካገኘኋቸው	-9.88482
▁ኬላዎች	-9.88482
▁ክሌሜንት	-9.88482
▁ክስተቱ	-9.88482
▁ክብ	-9.88482
▁ክው	-9.88482
▁ክፍለ	-9.88482
▁ክፍሉን	-9.88482
▁ክፍላቸው	-9.88482
▁ኮሎኔሉ	-9.88482
▁ኮከብ	-9.88482
▁ወላጅ-አልባ	-9.88482
▁ወላጆቻችን	-9.88482
▁ወላጆች	-9.88482
▁ወላጆችሽ	-9.88482
▁ወረቀቶች	-9.88482
▁ወረደበት፡፡	-9.88482
▁ወሰደኝ፡፡	-9.88482
▁ወስጄ	-9.88482
▁ወንበሮች	-9.88482
▁ወንድምሽ	-9.88482
▁ወንድሞችሽ	-9.88482
▁ወንዶችን	-9.88482
▁ወይስ	-9.88482
▁ወደር	-9.88482
▁ወደነበረበት	-9.88482
▁ወጣቶች	-9.88482
▁ወጣቶችን	-9.88482
▁ወጣ፡፡	-9.88482
▁ወጥተው	-9.88482
▁ወጥታ	-9.88482
▁ወጥቼ	-9.88482
▁ዋለ፡፡	-9.88482
▁ዋነኛ	-9.88482
▁ዋጋ	-9.88482
▁ውርጅብኝ	-9.88482
▁ውሳኔ	-9.88482
▁ውሸት	-9.88482
▁ውበትና	-9.88482
▁ውጊያ	-9.88482
▁ውፍረት	-9.88482
▁ዐሳ	-9.88482
▁ዑደት	-9.88482
▁ዓለምን	-9.88482
▁ዓመቱ	-9.88482
▁ዓመቴ	-9.88482
▁ዓይኖቹን	-9.88482
▁ዕለት	-9.88482
▁ዕንጨት	-9.88482
▁ዕድሉ	-9.88482
▁ዘላቂ	-9.88482
▁ዘመናት	-9.88482
▁ዘመድ	-9.88482
▁ዘበኛው	-9.88482
▁ዘወትር	-9.88482
▁ዘውግ-ተኮር	-9.88482
▁ዘውግን	-9.88482
▁ዘገባዎችን	-9.88482
▁ዘግቼ	-9.88482
▁ዘጠኝ	-9.88482
▁ዛፍ	-9.88482
▁ዝርዝሩን	-9.88482
▁ዝናብ	-9.88482
▁ዞረ፡፡	-9.88482
▁ዣኔትና	-9.88482
▁የ12	-9.88482
▁የሀገሪቱ	-9.88482
▁የሀገራችን	-9.88482
▁የሁቱው	-9.88482
▁የሃዘኔታ	-9.88482
▁የሄይ	-9.88482
▁የሄደ	-9.88482
▁የለንም	-9.88482
▁የሌሎቹን	-9.88482
▁የልደት	-9.88482
▁የሕይወቴ	-9.88482
▁የሕይወት	-9.88482
▁የሕግ	-9.88482
▁የመልስ	-9.88482
▁የመንገድ	-9.88482
▁የመጀመሪያዋን	-9.88482
▁የመጀመሪያውን	-9.88482
▁የመጀመሪያዬ	-9.88482
▁የመጣ	-9.88482
▁የመጨረሻው	-9.88482
▁የሚሄድ	-9.88482
▁የሚሆነው	-9.88482
▁የሚሆኑት	-9.88482
▁የሚሉ	-9.88482
▁የሚረዳንን	-9.88482
▁የሚችለው	-9.88482
▁የሚናገሩትን	-9.88482
▁የሚንጸባረቅባቸው	-9.88482
▁የሚኖሩ	-9.88482
▁የሚከተለውን	-9.88482
▁የሚወስደውን	-9.88482
▁የሚያሰማው	-9.88482
▁የሚያናውጥ	-9.88482
▁የሚያወሩት	-9.88482
▁የሚደርስ	-9.88482
▁የሚፈልገው	-9.88482
▁የማስተማር	-9.88482
▁የማዋየው	-9.88482
▁የማይችል	-9.88482
▁የማይነገር	-9.88482
▁የማደርገው	-9.88482
▁የማገገም	-9.88482
▁የምለው	-9.88482
▁የምችለውን	-9.88482
▁የምናደርገውን	-9.88482
▁የምንችለው	-9.88482
▁የምኖር	-9.88482
▁የምከፍለው	-9.88482
▁የምወደውን	-9.88482
▁የሥነጽሑፍ	-9.88482
▁የሦስት	-9.88482
▁የራሳቸውን	-9.88482
▁የራሳችንን	-9.88482
▁የሰቆቃ	-9.88482
▁የሰባት	-9.88482
▁የሰውነት	-9.88482
▁የሳራ	-9.88482
▁የሴት	-9.88482
▁የቀረ	-9.88482
▁የቀረኝ	-9.88482
▁የቀረው	-9.88482
▁የቀሩ	-9.88482
▁የቆሙ	-9.88482
▁የቆዳ	-9.88482
▁የበላይነት!	-9.88482
▁የበቀል	-9.88482
▁የብዙ	-9.88482
▁የቪያኒ	-9.88482
▁የተላከ	-9.88482
▁የተረፉትን	-9.88482
▁የተሳተፉትን	-9.88482
▁የተሸበሩ	-9.88482
▁የተባለችው	-9.88482
▁የተባበሩት	-9.88482
▁የተንቀሳቃሽ	-9.88482
▁የተዘጋጀ	-9.88482
▁የተደረገው	-9.88482
▁የተጻፈ	-9.88482
▁የነበረችውን	-9.88482
▁የነበራትን	-9.88482
▁የነበራቸው	-9.88482
▁የነገሰው	-9.88482
▁የአሜሪካ	-9.88482
▁የአምስት	-9.88482
▁የአንድ	-9.88482
▁የአየሩ	-9.88482
▁የእምነት	-9.88482
▁የእርሱ	-9.88482
▁የእንግዳ	-9.88482
▁የእጓለማውታ	-9.88482
▁የወላጆቼንና	-9.88482
▁የወረደ	-9.88482
▁የወንድሜ	-9.88482
▁የወንጌላውያን	-9.88482
▁የዘላለማዊ	-9.88482
▁የዛየርን	-9.88482
▁የዜና	-9.88482
▁የይቅር	-9.88482
▁የደስታ	-9.88482
▁የጀርመን	-9.88482
▁የጅምላ	-9.88482
▁የገዳዩን	-9.88482
▁የገዳይ	-9.88482
▁የገዳዮቹን	-9.88482
▁የጥላቻና	-9.88482
▁የጦር	-9.88482
▁የጻፈችውን	-9.88482
▁የጻፍኩት	-9.88482
▁የፈጸሙትን	-9.88482
▁የፍርሃት	-9.88482
▁ያለምንም	-9.88482
▁ያለነው	-9.88482
▁ያለና	-9.88482
▁ያለፍንበትን	-9.88482
▁ያሉን	-9.88482
▁ያላት	-9.88482
▁ያላቸውን	-9.88482
▁ያሳየኝ	-9.88482
▁ያስከትላል	-9.88482
▁ያስፈልገኛል፡፡	-9.88482
▁ያስፈልጋቸዋል፡፡	-9.88482
▁ያቃጭላል፡፡	-9.88482
▁ያዝ	-9.88482
▁ያዝን፡፡	-9.88482
▁ያገኘ	-9.88482
▁ያገኙትን	-9.88482
▁ያግዘኝ	-9.88482
▁ይሄኔ	-9.88482
▁ይሄን	-9.88482
▁ይሄዳሉ፡፡	-9.88482
▁ይሆኑ?	-9.88482
▁ይለኛል፡፡	-9.88482
▁ይለያየናል፡፡	-9.88482
▁ይላል፡፡	-9.88482
▁ይመስለኝ	-9.88482
▁ይመስላሉ፡፡	-9.88482
▁ይመስልሻል?››	-9.88482
▁ይመጣሉ፤	-9.88482
▁ይሻላል፡፡	-9.88482
▁ይቻለኛል?	-9.88482
▁ይችላሉ፡፡	-9.88482
▁ይችላል፤	-9.88482
▁ይነግራቸዋል፡፡	-9.88482
▁ይናገራል፡፡	-9.88482
▁ይናገር	-9.88482
▁ይከተላል፡፡	-9.88482
▁ይዘዋል፡፡	-9.88482
▁ይዘውት	-9.88482
▁ይዞኝ	-9.88482
▁ይግባችሁ፡፡	-9.88482
▁ይፈልጋሉ፡፡	-9.88482
▁ይፈጸማል፡፡	-9.88482
▁ደሞ	-9.88482
▁ደርሶ	-9.88482
▁ደርሼ	-9.88482
▁ደርቋል፡፡	-9.88482
▁ደርዘኖች	-9.88482
▁ደብዛዛ	-9.88482
▁ደጋግመን	-9.88482
▁ደግመን	-9.88482
▁ደግነው	-9.88482
▁ደፍሮ	-9.88482
▁ዳማሲንም	-9.88482
▁ዳማሲን፣	-9.88482
▁ዳንኤል	-9.88482
▁ድምጹም	-9.88482
▁ድምጽ	-9.88482
▁ድርጅቶች	-9.88482
▁ዶቃዎች	-9.88482
▁ዶክተር፣	-9.88482
▁ጀመር፤	-9.88482
▁ጀርመን	-9.88482
▁ጀርባዬን	-9.88482
▁ጆሮዎቼን	-9.88482
▁ገለጻ	-9.88482
▁ገልጾ	-9.88482
▁ገባኝ	-9.88482
▁ገብተን	-9.88482
▁ገብቶ	-9.88482
▁ገደል	-9.88482
▁ገዳዮቹም	-9.88482
▁ገድለውት	-9.88482
▁ገድያለሁ››	-9.88482
▁ገጀራቸውን	-9.88482
▁ገጠመኝ	-9.88482
▁ገጽ	-9.88482
▁ገጾች	-9.88482
▁ጉራውን	-9.88482
▁ጉሮሮዬ	-9.88482
▁ጊዜው	-9.88482
▁ጊዜውን	-9.88482
▁ጊዜዬን	-9.88482
▁ጌጥ	-9.88482
▁ግለሰብ	-9.88482
▁ግምት	-9.88482
▁ግርማ	-9.88482
▁ግርማ፣	-9.88482
▁ግርሻ	-9.88482
▁ግቢውን	-9.88482
▁ግብዣ	-9.88482
▁ግንዛቤው	-9.88482
▁ግዙፍ	-9.88482
▁ግዴታ	-9.88482
▁ግድም	-9.88482
▁ግጥምጥም	-9.88482
▁ግፊት	-9.88482
▁ጎረፉ፡፡	-9.88482
▁ጎራ	-9.88482
▁ጓደኛዬና	-9.88482
▁ጓደኞቼና	-9.88482
▁ጠላት	-9.88482
▁ጠላቶቻችን	-9.88482
▁ጠመንጃቸውን	-9.88482
▁ጠቅላይ	-9.88482
▁ጠበቅሁት	-9.88482
▁ጠባብ	-9.88482
▁ጠንክሮ	-9.88482
▁ጠየቁን፡፡	-9.88482
▁ጣፋጭ	-9.88482
▁ጥለው	-9.88482
▁ጥላቻና	-9.88482
▁ጥልቀት	-9.88482
▁ጥረት	-9.88482
▁ጥሩና	-9.88482
▁ጥርጥር	-9.88482
▁ጥበቃ	-9.88482
▁ጥይት	-9.88482
▁ጥገኞች	-9.88482
▁ጥጋት	-9.88482
▁ጨለማ	-9.88482
▁ጨለማውን	-9.88482
▁ጨርቅ	-9.88482
▁ጨዋታ	-9.88482
▁ጫካ	-9.88482
▁ጭቃና	-9.88482
▁ጭንቅላት	-9.88482
▁ጭጋግ	-9.88482
▁ጸልዬ	-9.88482
▁ጸሎታችንን	-9.88482
▁ጸጉሩን	-9.88482
▁ጻፈልኝ፡፡	-9.88482
▁ጽሑፉን	-9.88482
▁ጽንፈኞቹ	-9.88482
▁ፈልጌያለሁ፡፡	-9.88482
▁ፈርቼ	-9.88482
▁ፈንታ	-9.88482
▁ፊቱ	-9.88482
▁ፌሊሲንን	-9.88482
▁ፍላጎት	-9.88482
▁ፍሬንች	-9.88482
▁ፍቃድ	-9.88482
▁ፍቅሩን	-9.88482
▁ፍቅርህ	-9.88482
▁ፍቅርን	-9.88482
▁ፍጥረት	-9.88482
▁ፖልና	-9.88482
▁‹‹399	-9.88482
▁‹‹ሁላችንም	-9.88482
▁‹‹ሁቱትሲ	-9.88482
▁‹‹በቃ	-9.88482
▁‹‹አባባ፣	-9.88482
▁‹‹አንቺ	-9.88482
▁‹‹አዎን፣	-9.88482
▁‹‹አይዟችሁ	-9.88482
▁‹‹ኢማኪዩሌ፣	-9.88482
▁‹‹እማማ	-9.88482
▁‹‹እንዲያው	-9.88482
▁‹‹እውነት	-9.88482
▁‹‹ከዚህ	-9.88482
▁‹‹ወይኔ	-9.88482
▁‹‹ወደ	-9.88482
▁‹‹የፈረንሳይ	-9.88482
▁‹‹ይሁን	-9.88482
▁‹‹ግደሏቸው!	-9.88482
▁(Classification)	-10.2903
▁(Dehumanization)	-10.2903
▁(Denial)	-10.2903
▁(Extermination)	-10.2903
▁(Left	-10.2903
▁(Organization)	-10.2903
▁(Polarization)	-10.2903
▁(Preparation)	-10.2903
▁(Symbolization)	-10.2903
▁(ለምሳሌ፣	-10.2903
▁(ማርቆስ	-10.2903
▁(ሬድ	-10.2903
▁(ሴቶቹም	-10.2903
▁(ነዳኸው)	-10.2903
▁(የሌላን	-10.2903
▁.............................................	-10.2903
▁..............................................	-10.2903
▁.....................................................	-10.2903
▁.......................................................	-10.2903
▁.........................................................	-10.2903
▁..........................................................	-10.2903
▁101	-10.2903
▁113	-10.2903
▁114	-10.2903
▁115	-10.2903
▁119	-10.2903
▁129	-10.2903
▁138	-10.2903
▁143	-10.2903
▁153	-10.2903
▁165	-10.2903
▁170	-10.2903
▁183	-10.2903
▁189	-10.2903
▁198	-10.2903
▁1994	-10.2903
▁1994ቱን	-10.2903
▁208	-10.2903
▁215	-10.2903
▁219	-10.2903
▁225	-10.2903
▁228	-10.2903
▁229	-10.2903
▁232	-10.2903
▁236	-10.2903
▁40	-10.2903
▁41	-10.2903
▁49	-10.2903
▁52	-10.2903
▁600	-10.2903
▁64	-10.2903
▁75	-10.2903
▁80	-10.2903
▁83	-10.2903
▁85	-10.2903
▁94	-10.2903
▁?››	-10.2903
▁Tell)	-10.2903
▁to	-10.2903
▁ሀገሩን	-10.2903
▁ሀገሪቱን	-10.2903
▁ሀገራዊ	-10.2903
▁ሀገሬን	-10.2903
▁ሁለመናዬን	-10.2903
▁ሁሉ፡፡	-10.2903
▁ሁላችሁንም	-10.2903
▁ሁልጊዜም	-10.2903
▁ሁሴን	-10.2903
▁ሁቱዋ	-10.2903
▁ሁቱው	-10.2903
▁ሁቱዎቹን	-10.2903
▁ሁቱዎችና	-10.2903
▁ሁነኛው	-10.2903
▁ሁኔታና	-10.2903
▁ሁካታ	-10.2903
▁ሂደቶች	-10.2903
▁ሂዱ፡፡	-10.2903
▁ሃሳቡን	-10.2903
▁ሃሳቤንና	-10.2903
▁ሃሳብ	-10.2903
▁ሃሳቦች	-10.2903
▁ሃቅ	-10.2903
▁ሃብታም	-10.2903
▁ሃውስ	-10.2903
▁ሃውሷ	-10.2903
▁ሃይሌን	-10.2903
▁ሃይሎች	-10.2903
▁ሄደዋል	-10.2903
▁ሄደዋል፡፡	-10.2903
▁ሄዱ	-10.2903
▁ህልሞቼን	-10.2903
▁ህመሙን	-10.2903
▁ህመምን	-10.2903
▁ህብረት	-10.2903
▁ህዝቡን	-10.2903
▁ህዝባችን	-10.2903
▁ህዝብን	-10.2903
▁ሆቴል	-10.2903
▁ሆነች፡፡	-10.2903
▁ሆነኝ	-10.2903
▁ሆና	-10.2903
▁ሆናለች	-10.2903
▁ሆንኩ	-10.2903
▁ሆኛለሁ፡፡	-10.2903
▁ሆይ!	-10.2903
▁ለ	-10.2903
▁ለ.	-10.2903
▁ለሀገራችን	-10.2903
▁ለሁቱዎችና	-10.2903
▁ለህሊናው	-10.2903
▁ለሌላ	-10.2903
▁ለሌላው	-10.2903
▁ለሌሎች	-10.2903
▁ለልጇ	-10.2903
▁ለመላክ	-10.2903
▁ለመረዳት	-10.2903
▁ለመሰሎቹ	-10.2903
▁ለመሳም	-10.2903
▁ለመስፈር	-10.2903
▁ለመሸጋገር	-10.2903
▁ለመቀላቀል	-10.2903
▁ለመቀነስ	-10.2903
▁ለመቀጠል	-10.2903
▁ለመቅረብ	-10.2903
▁ለመቅበር	-10.2903
▁ለመብላት	-10.2903
▁ለመተንፈስ	-10.2903
▁ለመነጋገር	-10.2903
▁ለመንቀሳቀስ	-10.2903
▁ለመንገር	-10.2903
▁ለመወሰን	-10.2903
▁ለመዋጋት	-10.2903
▁ለመዋጋትና	-10.2903
▁ለመውሰድ	-10.2903
▁ለመዘጋጀት	-10.2903
▁ለመደበቅና	-10.2903
▁ለመዳን	-10.2903
▁ለመገላገል	-10.2903
▁ለመገንባት	-10.2903
▁ለመገንዘብ	-10.2903
▁ለመጠቀም	-10.2903
▁ለመጸለይ	-10.2903
▁ለመጻፍ	-10.2903
▁ለመፋለም	-10.2903
▁ለሚለግሳችው	-10.2903
▁ለሚቀርጹና	-10.2903
▁ለሚወነጅሉባቸው	-10.2903
▁ለሚያስፋፉ	-10.2903
▁ለሚያዳምጠው	-10.2903
▁ለማለያየት	-10.2903
▁ለማመስገን	-10.2903
▁ለማሳመንና	-10.2903
▁ለማሳሰብ	-10.2903
▁ለማስመሰል	-10.2903
▁ለማስተማር	-10.2903
▁ለማስተናገድ	-10.2903
▁ለማስታወስ	-10.2903
▁ለማስፋት	-10.2903
▁ለማሻሻል	-10.2903
▁ለማቀፍ	-10.2903
▁ለማቋቋም	-10.2903
▁ለማተኮር	-10.2903
▁ለማንበብ	-10.2903
▁ለማኖር	-10.2903
▁ለማውራት	-10.2903
▁ለማይነጥፍ	-10.2903
▁ለማገገም	-10.2903
▁ለማጎልበትና	-10.2903
▁ለማጠናከር	-10.2903
▁ለማጥፋት	-10.2903
▁ለማፈን	-10.2903
▁ለማፍሰስ	-10.2903
▁ለምሳሌም	-10.2903
▁ለምስጋና	-10.2903
▁ለምትሰጡኝ	-10.2903
▁ለምትወዱኝና	-10.2903
▁ለምንድነው?››	-10.2903
▁ለምዕተ-ዓመታት	-10.2903
▁ለሞት	-10.2903
▁ለሥራ	-10.2903
▁ለሩአግ	-10.2903
▁ለራሳቸው	-10.2903
▁ለስላሳ	-10.2903
▁ለቃ	-10.2903
▁ለቅሶዬን	-10.2903
▁ለቅንጅቱ	-10.2903
▁ለቋንቋው	-10.2903
▁ለብሰዋል፤	-10.2903
▁ለብሷል፡፡	-10.2903
▁ለተመድ	-10.2903
▁ለተጨፍጫፊዎቹ	-10.2903
▁ለተፈጸመባቸው	-10.2903
▁ለቱትሲዎች፣	-10.2903
▁ለትዋዎች	-10.2903
▁ለችምና	-10.2903
▁ለነሱ	-10.2903
▁ለአማርኛ	-10.2903
▁ለአባ	-10.2903
▁ለአክስቶቼ	-10.2903
▁ለአዲሱ	-10.2903
▁ለኤይማብል፣	-10.2903
▁ለእነርሱ	-10.2903
▁ለእናቴ	-10.2903
▁ለእግር	-10.2903
▁ለክረምት	-10.2903
▁ለኮሎኔሉ	-10.2903
▁ለወደፊቱ	-10.2903
▁ለወገን	-10.2903
▁ለውድ	-10.2903
▁ለውጦኛል፡፡	-10.2903
▁ለዘለቄታው	-10.2903
▁ለዚህም	-10.2903
▁ለያይቶ	-10.2903
▁ለይተው	-10.2903
▁ለይቶ	-10.2903
▁ለይዘቱ	-10.2903
▁ለዱዜንጄ	-10.2903
▁ለዳማሲን	-10.2903
▁ለጅምላ	-10.2903
▁ለግሩም	-10.2903
▁ለግሳቸዋች፡፡	-10.2903
▁ለጓደኞቼ	-10.2903
▁ለጸሎት	-10.2903
▁ለጽሑፉ	-10.2903
▁ለፈተናዎቼ	-10.2903
▁ለፍጅት	-10.2903
▁ሊመጣ	-10.2903
▁ሊሞት	-10.2903
▁ሊሰማቸው	-10.2903
▁ሊሰማኝ	-10.2903
▁ሊሰጠው	-10.2903
▁ሊሴ	-10.2903
▁ሊቀመንበር	-10.2903
▁ሊተላለፍ	-10.2903
▁ሊኖረኝ	-10.2903
▁ሊኖረው	-10.2903
▁ሊኦናርድና	-10.2903
▁ሊኦፖልድ	-10.2903
▁ሊወነጅሉት	-10.2903
▁ሊያልቅ	-10.2903
▁ሊያምን	-10.2903
▁ሊያሠራጭ	-10.2903
▁ሊያስመልሰኝ	-10.2903
▁ሊያደርጉ	-10.2903
▁ሊያደርጉን	-10.2903
▁ሊገደሉ	-10.2903
▁ሊገድለን	-10.2903
▁ሊገድለኝ	-10.2903
▁ሊገድሉኝ	-10.2903
▁ሊገድሏቸው	-10.2903
▁ሊጠይቋቸው	-10.2903
▁ላለማስቀጠል	-10.2903
▁ላለማድረግም	-10.2903
▁ላስበው	-10.2903
▁ላባ	-10.2903
▁ላንዴና	-10.2903
▁ላውቃት	-10.2903
▁ላውቅ	-10.2903
▁ላዩን	-10.2903
▁ላይሆንልኝ	-10.2903
▁ላይ፣	-10.2903
▁ላደርግ	-10.2903
▁ሌላኛዋ	-10.2903
▁ሌላኛው	-10.2903
▁ሌሎቹም	-10.2903
▁ሌፍት	-10.2903
▁ልል	-10.2903
▁ልማዳችን	-10.2903
▁ልማድ	-10.2903
▁ልምድ	-10.2903
▁ልረዳው	-10.2903
▁ልስት	-10.2903
▁ልቡ	-10.2903
▁ልባጥ	-10.2903
▁ልብሳችንን	-10.2903
▁ልብሴ	-10.2903
▁ልብሶቻችን	-10.2903
▁ልብሶቻችንን	-10.2903
▁ልብሶቼ	-10.2903
▁ልብሶችና	-10.2903
▁ልብሶችን	-10.2903
▁ልብሽን	-10.2903
▁ልቦናዬን	-10.2903
▁ልተርጉም	-10.2903
▁ልትመጪ	-10.2903
▁ልነግረው	-10.2903
▁ልናገኝ	-10.2903
▁ልንሆን	-10.2903
▁ልንሞት	-10.2903
▁ልንረዳ	-10.2903
▁ልንስት	-10.2903
▁ልንናጥ	-10.2903
▁ልዩነትን	-10.2903
▁ልጄ?››	-10.2903
▁ልጄን	-10.2903
▁ልጅ፣	-10.2903
▁ልጆቼ፣	-10.2903
▁ልጇን	-10.2903
▁ልግስናቸውን	-10.2903
▁ሐ.	-10.2903
▁ሐረግ	-10.2903
▁ሐሳብሽን	-10.2903
▁ሐሳቦቼን	-10.2903
▁ሐሳቦች	-10.2903
▁ሐብታቸው	-10.2903
▁ሐኪም፣	-10.2903
▁ሐይቁም	-10.2903
▁ሐይቆቿ	-10.2903
▁ሕልምም	-10.2903
▁ሕመሙ	-10.2903
▁ሕንጻዎቹ	-10.2903
▁ሕያው	-10.2903
▁ሕይወቱ	-10.2903
▁ሕይወት፣	-10.2903
▁ሕይወቶቻቸውን	-10.2903
▁ሕገ-መንግሥት	-10.2903
▁ሕግ	-10.2903
▁ሕጻናትን	-10.2903
▁ሕጻን	-10.2903
▁ሕፃኑን	-10.2903
▁ሕፃን	-10.2903
▁መ.	-10.2903
▁መሄዱን	-10.2903
▁መሄጃችን	-10.2903
▁መሆናቸው	-10.2903
▁መሆናቸውን	-10.2903
▁መሆንሽን	-10.2903
▁መሆኗን	-10.2903
▁መለሱልኝ፡፡	-10.2903
▁መለስተኛ	-10.2903
▁መለስኩለት፡፡	-10.2903
▁መለስኩለት፤	-10.2903
▁መለኮታዊ	-10.2903
▁መለወጥ	-10.2903
▁መለየትና	-10.2903
▁መለያዎች	-10.2903
▁መላውን	-10.2903
▁መላዕክት	-10.2903
▁መልበስ	-10.2903
▁መልከዓምድር፣	-10.2903
▁መልክ	-10.2903
▁መመገቢያ	-10.2903
▁መማማር	-10.2903
▁መማሩንና	-10.2903
▁መምህሬን	-10.2903
▁መምህርት	-10.2903
▁መምህርነት	-10.2903
▁መምሬ››	-10.2903
▁መምጣቱ	-10.2903
▁መምጣቱን	-10.2903
▁መሣሪያዎቹን	-10.2903
▁መሣቅ	-10.2903
▁መሥመር	-10.2903
▁መረሬ	-10.2903
▁መረበሽ	-10.2903
▁መረዳት	-10.2903
▁መረጃቸውን	-10.2903
▁መሬቱን	-10.2903
▁መርህ	-10.2903
▁መርቷቸው	-10.2903
▁መርዘኛ	-10.2903
▁መርዝ	-10.2903
▁መሰሉኝ፡፡	-10.2903
▁መሰልኩ፡፡	-10.2903
▁መሰናክሎችን	-10.2903
▁መሰካታቸው	-10.2903
▁መሳል	-10.2903
▁መሳጭነት	-10.2903
▁መስመሮች	-10.2903
▁መስቀል	-10.2903
▁መስተዋት	-10.2903
▁መስታወት	-10.2903
▁መሸጥ	-10.2903
▁መሻት	-10.2903
▁መቀያየር	-10.2903
▁መቀጠል	-10.2903
▁መቁረጡን	-10.2903
▁መቁጠሪያም	-10.2903
▁መቁጠሪያውን	-10.2903
▁መቃቃሮችንና	-10.2903
▁መቃብርም	-10.2903
▁መቅጨት	-10.2903
▁መቆም	-10.2903
▁መቋጫ	-10.2903
▁መባረር	-10.2903
▁መተማመኔ	-10.2903
▁መተንፈስ	-10.2903
▁መተኛታችንን	-10.2903
▁መተው	-10.2903
▁መታረቅ	-10.2903
▁መታሰር	-10.2903
▁መታው፡፡	-10.2903
▁መታደል	-10.2903
▁መታጠቢያው	-10.2903
▁መትረፍ	-10.2903
▁መትተው	-10.2903
▁መቻላችንን	-10.2903
▁መቻል	-10.2903
▁መች	-10.2903
▁መነሳሳት	-10.2903
▁መነሳሳትን	-10.2903
▁መነሳታቸውን	-10.2903
▁መነኩሲቶቹ	-10.2903
▁መነጋገር	-10.2903
▁መናፍስት	-10.2903
▁መንሰቅሰቄም	-10.2903
▁መንስኤአቸው	-10.2903
▁መንስኤው	-10.2903
▁መንታ	-10.2903
▁መንደሩ	-10.2903
▁መንደሩን	-10.2903
▁መንደሬ	-10.2903
▁መንገዳቸውን	-10.2903
▁መንገዳችንን	-10.2903
▁መንፈሳዊት	-10.2903
▁መንፈሷ	-10.2903
▁መኖሩ	-10.2903
▁መኖራቸው	-10.2903
▁መኮሳተር	-10.2903
▁መኰንኑን	-10.2903
▁መዋቅርት	-10.2903
▁መውደቅን	-10.2903
▁መውጣት	-10.2903
▁መውጫ	-10.2903
▁መዐዛ	-10.2903
▁መዘመር	-10.2903
▁መዘዋወር	-10.2903
▁መዘዝ	-10.2903
▁መዘጋጀት	-10.2903
▁መዝሙሩ	-10.2903
▁መዝሙሮች	-10.2903
▁መዝሙሮችን	-10.2903
▁መዝገበ-ቃላቱን	-10.2903
▁መደረጉን	-10.2903
▁መደረግ	-10.2903
▁መደበቂያ	-10.2903
▁መድረቅና	-10.2903
▁መድኃኒት	-10.2903
▁መጀመራቸው	-10.2903
▁መገለጫዎቹን	-10.2903
▁መገምገምም	-10.2903
▁መገናኘት	-10.2903
▁መገንዘብ	-10.2903
▁መገንፈሌ	-10.2903
▁መገኘት	-10.2903
▁መገደላቸውን	-10.2903
▁መገዳደር	-10.2903
▁መጋረጣቸውን	-10.2903
▁መግለጫ	-10.2903
▁መግለጽ	-10.2903
▁መግደላቸው	-10.2903
▁መግደልን	-10.2903
▁መጎተት	-10.2903
▁መጠለያውን	-10.2903
▁መጠቀሙም	-10.2903
▁መጠቀም	-10.2903
▁መጠበቂያ	-10.2903
▁መጡ!››	-10.2903
▁መጡና	-10.2903
▁መጣብኝ፡፡	-10.2903
▁መጣችሁ	-10.2903
▁መጥራት	-10.2903
▁መጥተን	-10.2903
▁መጥፎውን	-10.2903
▁መጨረሻው	-10.2903
▁መጨፍጨፍ፣	-10.2903
▁መጪ	-10.2903
▁መጸለዬን	-10.2903
▁መጸዳጃውን	-10.2903
▁መጻፉን	-10.2903
▁መጽሔት	-10.2903
▁መጽናናት	-10.2903
▁መፈለጉን	-10.2903
▁መፈለግ	-10.2903
▁መፈንቅለ-መንግሥት	-10.2903
▁መፋቅ	-10.2903
▁ሙሪንዚም	-10.2903
▁ሙታኑን	-10.2903
▁ሚስቱንና	-10.2903
▁ሚስትና	-10.2903
▁ሚኒስትሯ	-10.2903
▁ሚናውን	-10.2903
▁ማለም	-10.2903
▁ማለቱን	-10.2903
▁ማላባ	-10.2903
▁ማልቀሴን	-10.2903
▁ማመስገኔን	-10.2903
▁ማመስገን	-10.2903
▁ማመኑን	-10.2903
▁ማምጣት	-10.2903
▁ማረጋገጥ	-10.2903
▁ማራቅና	-10.2903
▁ማርያም	-10.2903
▁ማሰለፍ	-10.2903
▁ማሰቡ	-10.2903
▁ማስቀመጥ	-10.2903
▁ማስቀረት	-10.2903
▁ማስተናገድ	-10.2903
▁ማስገባት	-10.2903
▁ማስፈራሪያ	-10.2903
▁ማስፈራሪያዎች	-10.2903
▁ማሸጊያውን	-10.2903
▁ማቆየት	-10.2903
▁ማቆያ	-10.2903
▁ማቋረጥ	-10.2903
▁ማበረታቻችሁ	-10.2903
▁ማበረታቻና	-10.2903
▁ማኅበረሰባችን	-10.2903
▁ማኅበረሰብም	-10.2903
▁ማነው	-10.2903
▁ማናችንም	-10.2903
▁ማንበቡም	-10.2903
▁ማንነታቸውን	-10.2903
▁ማንኛችንም	-10.2903
▁ማንኛውም	-10.2903
▁ማእከላዊት	-10.2903
▁ማእከል	-10.2903
▁ማኪዩሌ	-10.2903
▁ማወቁ	-10.2903
▁ማወዳደር	-10.2903
▁ማወጁ	-10.2903
▁ማውሳት	-10.2903
▁ማዕበሎች	-10.2903
▁ማየቱን	-10.2903
▁ማየታቸውን	-10.2903
▁ማደራጀት	-10.2903
▁ማዶ	-10.2903
▁ማገዙ	-10.2903
▁ማጋነን	-10.2903
▁ማግኘትም	-10.2903
▁ማጣት	-10.2903
▁ማጥናት	-10.2903
▁ማጥፋቱ	-10.2903
▁ሜትር	-10.2903
▁ም	-10.2903
▁ምሁራን	-10.2903
▁ምሁር	-10.2903
▁ምልልስ	-10.2903
▁ምልክቶች	-10.2903
▁ምሬት	-10.2903
▁ምርምር	-10.2903
▁ምርምሮች	-10.2903
▁ምስሉን	-10.2903
▁ምስጢራዊ	-10.2903
▁ምሽቱ	-10.2903
▁ምሽቱን	-10.2903
▁ምኅረት፣	-10.2903
▁ምኑ	-10.2903
▁ምንድነው?››	-10.2903
▁ምንድን	-10.2903
▁ምንጠራና	-10.2903
▁ምንጩ	-10.2903
▁ምክርህና	-10.2903
▁ምክንያታዊነት	-10.2903
▁ምክንያቴም	-10.2903
▁ምክንያቶች	-10.2903
▁ምድራዊ	-10.2903
▁ምድር››	-10.2903
▁ሞላው፡፡	-10.2903
▁ሞቃት፣	-10.2903
▁ሞተውባቸው	-10.2903
▁ሞታቸው	-10.2903
▁ሞትኩ	-10.2903
▁ሞኝ	-10.2903
▁ሠ.	-10.2903
▁ሠራተኛዬን	-10.2903
▁ሠራዊትም	-10.2903
▁ሠግተው	-10.2903
▁ሣልኩት፡፡	-10.2903
▁ሥልጣንና	-10.2903
▁ሥሜቴን	-10.2903
▁ሥራችሁ	-10.2903
▁ሥራችንን	-10.2903
▁ሥራና	-10.2903
▁ሥራዎችና	-10.2903
▁ሥቃይና	-10.2903
▁ሥነ	-10.2903
▁ረ.	-10.2903
▁ረስቼው	-10.2903
▁ረቂቁን	-10.2903
▁ረብሻ	-10.2903
▁ረድተውኛል፡፡	-10.2903
▁ረጃጅም	-10.2903
▁ረጃጅም፣	-10.2903
▁ረጋ	-10.2903
▁ሩዋንዳዋ	-10.2903
▁ሩዋንዳውያን፣	-10.2903
▁ሩዋንዳ፣	-10.2903
▁ሪፐብሊክና	-10.2903
▁ሪፐብሊክ፣	-10.2903
▁ራሳችንንም	-10.2903
▁ራሴም	-10.2903
▁ራስሽን	-10.2903
▁ራስን	-10.2903
▁ራሶቻችን	-10.2903
▁ርቃ	-10.2903
▁ርዕሰ	-10.2903
▁ርዝመትና	-10.2903
▁ሮዝ፣	-10.2903
▁ሰ.	-10.2903
▁ሰለሞን	-10.2903
▁ሰለባዎቹ	-10.2903
▁ሰለባዎቻቸውን	-10.2903
▁ሰላምን	-10.2903
▁ሰላምንም	-10.2903
▁ሰላሳ	-10.2903
▁ሰሚ	-10.2903
▁ሰማሁት	-10.2903
▁ሰማሁት፡፡	-10.2903
▁ሰማሁና	-10.2903
▁ሰማሄ	-10.2903
▁ሰማኋቸው፡፡	-10.2903
▁ሰማነው፡፡	-10.2903
▁ሰማዩ	-10.2903
▁ሰምቻለሁ፡፡››	-10.2903
▁ሰሞን	-10.2903
▁ሰርብ	-10.2903
▁ሰርቷል፡፡	-10.2903
▁ሰርክዬ	-10.2903
▁ሰርግ	-10.2903
▁ሰቀቀኑ	-10.2903
▁ሰቀቀኗም	-10.2903
▁ሰባኪ	-10.2903
▁ሰብረው	-10.2903
▁ሰው!››	-10.2903
▁ሰውነቱ	-10.2903
▁ሰውነታቸውን	-10.2903
▁ሰዎች፣	-10.2903
▁ሰዓታትም	-10.2903
▁ሰየሟት፡፡	-10.2903
▁ሰይጣናት	-10.2903
▁ሰጠሁ፡፡	-10.2903
▁ሰጠኋቸው፡፡	-10.2903
▁ሰጡት፤	-10.2903
▁ሰጥቶኝ	-10.2903
▁ሰጥቻለሁ፡፡	-10.2903
▁ሰፈር	-10.2903
▁ሰፋሪዎች	-10.2903
▁ሰፍሯል፡፡	-10.2903
▁ሲሄዱም	-10.2903
▁ሲመለስ	-10.2903
▁ሲመላለሱ	-10.2903
▁ሲመጣና	-10.2903
▁ሲሞከር	-10.2903
▁ሲሠራ	-10.2903
▁ሲራኬ	-10.2903
▁ሲሰማኝ	-10.2903
▁ሲሰነዘር	-10.2903
▁ሲሲሌ	-10.2903
▁ሲሸነቁጠኝ	-10.2903
▁ሲቃረብ	-10.2903
▁ሲቆራርጠኝ	-10.2903
▁ሲታረዱና	-10.2903
▁ሲታይ	-10.2903
▁ሲነሣ	-10.2903
▁ሲንቀሳቀስ	-10.2903
▁ሲንኮታኮት	-10.2903
▁ሲኖር	-10.2903
▁ሲከበኝ	-10.2903
▁ሲያሳድድ፣	-10.2903
▁ሲያስር፣	-10.2903
▁ሲያስተምሩን	-10.2903
▁ሲያስነሡን	-10.2903
▁ሲያስገቡን	-10.2903
▁ሲያቅተን	-10.2903
▁ሲያየኝ	-10.2903
▁ሲያዩት	-10.2903
▁ሲያዩን	-10.2903
▁ሲያይ	-10.2903
▁ሲያደርጉም	-10.2903
▁ሲያገል፣	-10.2903
▁ሲያጎሳቁል፣	-10.2903
▁ሲደሰቱ	-10.2903
▁ሲደድር	-10.2903
▁ሲዳኙ	-10.2903
▁ሲገባ	-10.2903
▁ሲገባና	-10.2903
▁ሲገባኝ	-10.2903
▁ሲገደሉ	-10.2903
▁ሲገድል፣	-10.2903
▁ሲጋጭና	-10.2903
▁ሲጎዱ	-10.2903
▁ሲጠቀም	-10.2903
▁ሲጠይቀኝ	-10.2903
▁ሲጨባበጡ	-10.2903
▁ሲጨፈጭፉ	-10.2903
▁ሲጨፍሩ	-10.2903
▁ሲጫረስ	-10.2903
▁ሲፈልጉኝ	-10.2903
▁ሲፈጁና	-10.2903
▁ሲፈጸምም	-10.2903
▁ሲፈጽሙ፣	-10.2903
▁ሲፈጽም	-10.2903
▁ሲፋፋም	-10.2903
▁ሳህን	-10.2903
▁ሳላለቅስ	-10.2903
▁ሳላላውስ	-10.2903
▁ሳልፍ	-10.2903
▁ሳምታይምስ	-10.2903
▁ሳቂታነትና	-10.2903
▁ሳትቀጣ	-10.2903
▁ሳነሳላችሁ	-10.2903
▁ሳናውቅ	-10.2903
▁ሳንቲም	-10.2903
▁ሳያበላሹት	-10.2903
▁ሳይሰማ	-10.2903
▁ሳይቃጠል	-10.2903
▁ሳይቆጠር	-10.2903
▁ሳይተነፍስ	-10.2903
▁ሳይናገሩ	-10.2903
▁ሳይገፋፉትና	-10.2903
▁ሳይጎዳ	-10.2903
▁ሳይጨርሱ	-10.2903
▁ሳገኝ	-10.2903
▁ሳግ	-10.2903
▁ሳጠና	-10.2903
▁ሳጥኖቹ	-10.2903
▁ሳፈላልግ	-10.2903
▁ሴምቤባ፡፡	-10.2903
▁ሴቶቹን	-10.2903
▁ስለሄዱ	-10.2903
▁ስለሆነችና	-10.2903
▁ስለሆነና	-10.2903
▁ስለሆንክልኝ	-10.2903
▁ስለላከልኝ	-10.2903
▁ስለሌላቸው	-10.2903
▁ስለሚተማመንና	-10.2903
▁ስለሚከታተል፣	-10.2903
▁ስለሚያሳይ	-10.2903
▁ስለሚያስታውሰኝ፣	-10.2903
▁ስለሚያስፈልጋት	-10.2903
▁ስለሚያንሸራትተኝ	-10.2903
▁ስለሚያውቅ	-10.2903
▁ስለሚጎተጉተኝ	-10.2903
▁ስለማመድ	-10.2903
▁ስለማናውቅ	-10.2903
▁ስለማውቅ	-10.2903
▁ስለማይፈልጉ	-10.2903
▁ስለማይፈጸም	-10.2903
▁ስለማድረግ	-10.2903
▁ስለምትኖርና	-10.2903
▁ስለምትፈልግልኝ፣	-10.2903
▁ስለሠራቸው	-10.2903
▁ስለሩዋንዳ	-10.2903
▁ስለራሴ	-10.2903
▁ስለሰጠን	-10.2903
▁ስለሰጠኝ	-10.2903
▁ስለሰጣችሁኝ፡፡	-10.2903
▁ስለቤቱ	-10.2903
▁ስለተናደድኩባቸው	-10.2903
▁ስለተከሰተው	-10.2903
▁ስለተዋሃደኝ	-10.2903
▁ስለተፈጸሙት	-10.2903
▁ስለቱ	-10.2903
▁ስለታዘብኩ	-10.2903
▁ስለነካውና	-10.2903
▁ስለኔ	-10.2903
▁ስለወንድማችን	-10.2903
▁ስለው	-10.2903
▁ስለዘር	-10.2903
▁ስለዚህም	-10.2903
▁ስለደህንነታችን	-10.2903
▁ስለጥቁሮች	-10.2903
▁ስለፈሩ	-10.2903
▁ስለፈቀድሽልኝ	-10.2903
▁ስላለኝ	-10.2903
▁ስላለፈችበት	-10.2903
▁ስላላት	-10.2903
▁ስላላት፣	-10.2903
▁ስላልሆነ	-10.2903
▁ስላበረታታኸኝ	-10.2903
▁ስላወቅሁት	-10.2903
▁ስላደረጉኝ	-10.2903
▁ስላገኘኝ	-10.2903
▁ስሙ	-10.2903
▁ስማር	-10.2903
▁ስማጠን	-10.2903
▁ስሜታችን	-10.2903
▁ስሜታችንን	-10.2903
▁ስሜታዊነት	-10.2903
▁ስምምነቱ	-10.2903
▁ስምረት	-10.2903
▁ስምር	-10.2903
▁ስሞችን	-10.2903
▁ስሟ	-10.2903
▁ስራ	-10.2903
▁ስርዓት	-10.2903
▁ስሰናበት	-10.2903
▁ስቀብር	-10.2903
▁ስቅጥጥ	-10.2903
▁ስብከት	-10.2903
▁ስብዕናው	-10.2903
▁ስተረጉም	-10.2903
▁ስተነፍስ	-10.2903
▁ስታንተን	-10.2903
▁ስታወራ	-10.2903
▁ስታየኝ	-10.2903
▁ስቴትስ	-10.2903
▁ስትናገርም	-10.2903
▁ስትጠብቀኝ	-10.2903
▁ስናይ	-10.2903
▁ስናደርግ	-10.2903
▁ስናገር	-10.2903
▁ስንል	-10.2903
▁ስንመርጥ	-10.2903
▁ስንሰማ	-10.2903
▁ስንትና	-10.2903
▁ስንጥቁን	-10.2903
▁ስካይን	-10.2903
▁ስካፑላሩን	-10.2903
▁ስወርድ	-10.2903
▁ስደርስ	-10.2903
▁ስጀምር	-10.2903
▁ስገባ	-10.2903
▁ስገዳደር	-10.2903
▁ስጋ	-10.2903
▁ስጋቱም	-10.2903
▁ስጋዊ	-10.2903
▁ስጋፈጥ	-10.2903
▁ስጨርስ	-10.2903
▁ስፈራ	-10.2903
▁ስፍር	-10.2903
▁ሶላንዥ፡፡	-10.2903
▁ሸ.	-10.2903
▁ሸለቆዎቿና	-10.2903
▁ሸርተት	-10.2903
▁ሸንተረሮቿ፣	-10.2903
▁ሸፍና	-10.2903
▁ሹቲንግ	-10.2903
▁ሽብርና	-10.2903
▁ሽታ	-10.2903
▁ሽያጩም	-10.2903
▁ሾር	-10.2903
▁ቀልቷል፤	-10.2903
▁ቀልድ	-10.2903
▁ቀልዶቹም	-10.2903
▁ቀልዶች	-10.2903
▁ቀሚስ	-10.2903
▁ቀረብ	-10.2903
▁ቀሪውን	-10.2903
▁ቀርበዋል፣	-10.2903
▁ቀርቧል፡፡	-10.2903
▁ቀርተዋል፡፡	-10.2903
▁ቀርቶ	-10.2903
▁ቀስቃሽና	-10.2903
▁ቀቡኝ	-10.2903
▁ቀብር	-10.2903
▁ቀኑ	-10.2903
▁ቀኔ	-10.2903
▁ቀንድ	-10.2903
▁ቀዬ	-10.2903
▁ቀይሬያለሁ፡፡	-10.2903
▁ቀደምት	-10.2903
▁ቀዳሚው	-10.2903
▁ቀድመው	-10.2903
▁ቀድማ	-10.2903
▁ቀጣና	-10.2903
▁ቀጣዩ	-10.2903
▁ቀጣዩን	-10.2903
▁ቁልፉ	-10.2903
▁ቁልፎች	-10.2903
▁ቁርስ	-10.2903
▁ቁርኝት	-10.2903
▁ቁርጠኝነት	-10.2903
▁ቁስል	-10.2903
▁ቁና	-10.2903
▁ቁጢጥ	-10.2903
▁ቁጣዬን	-10.2903
▁ቃለ	-10.2903
▁ቃል-ኪዳን	-10.2903
▁ቄሱ?››	-10.2903
▁ቄሱና	-10.2903
▁ቅል	-10.2903
▁ቅስቀሳ	-10.2903
▁ቅን	-10.2903
▁ቅንጣት	-10.2903
▁ቅዠት	-10.2903
▁ቅዱሴን	-10.2903
▁ቅዱስህ	-10.2903
▁ቅዳሜ	-10.2903
▁ቅድመ-ከፍተኛ	-10.2903
▁ቅጥር-ግቢ	-10.2903
▁ቅጭም	-10.2903
▁ቆመዋል፤	-10.2903
▁ቆማ	-10.2903
▁ቆምን፡፡	-10.2903
▁ቆራርጦ	-10.2903
▁ቆርጠው	-10.2903
▁ቆርጦ	-10.2903
▁ቆርጫለሁ፡፡	-10.2903
▁ቆስሏል፡፡	-10.2903
▁ቆሻሻ	-10.2903
▁ቆንጆዋ	-10.2903
▁ቆንጆ፣	-10.2903
▁ቆዩ፡፡	-10.2903
▁ቆይታዬ	-10.2903
▁ቆይቷል፤	-10.2903
▁ቆዳው	-10.2903
▁ቆዳዬ	-10.2903
▁ቋሚውን	-10.2903
▁ቋንቋችን	-10.2903
▁ቋንቋውን	-10.2903
▁በ1959	-10.2903
▁በ19ኛው	-10.2903
▁በሀገሬ	-10.2903
▁በሁለተኛ	-10.2903
▁በሁለቱም	-10.2903
▁በሁካታ	-10.2903
▁በሃሳቤ	-10.2903
▁በሄሬሮዎች	-10.2903
▁በሄደ	-10.2903
▁በህግም፣	-10.2903
▁በሆነችው	-10.2903
▁በሆንኩበት	-10.2903
▁በለሆሳስም	-10.2903
▁በለምለም	-10.2903
▁በለኝ፡፡	-10.2903
▁በለየለት	-10.2903
▁በላያችን	-10.2903
▁በላይም	-10.2903
▁በልሳን	-10.2903
▁በልቤም	-10.2903
▁በልዩነቱ	-10.2903
▁በልዩነቶቻቸው	-10.2903
▁በልጅነታችን	-10.2903
▁በልጅነት	-10.2903
▁በልጆቿና	-10.2903
▁በልጦ	-10.2903
▁በሐምሌ	-10.2903
▁በሐሳብ	-10.2903
▁በሐዘኔታ	-10.2903
▁በሕልሜ	-10.2903
▁በሕልም	-10.2903
▁በሕያውነት	-10.2903
▁በሕይወቱ	-10.2903
▁በሕይወትና	-10.2903
▁በመሀላችን	-10.2903
▁በመሆን	-10.2903
▁በመላክ	-10.2903
▁በመመለስ	-10.2903
▁በመመኘቴ	-10.2903
▁በመማሪያ	-10.2903
▁በመሞከር	-10.2903
▁በመርጨት	-10.2903
▁በመሰረተ-ቢስ	-10.2903
▁በመስኮቱ	-10.2903
▁በመቀምሩ	-10.2903
▁በመቀጠል	-10.2903
▁በመተሳሰብ	-10.2903
▁በመተባበር	-10.2903
▁በመቻሉ	-10.2903
▁በመቻቻል	-10.2903
▁በመንገር	-10.2903
▁በመንፈስ	-10.2903
▁በመንፈግ	-10.2903
▁በመከላከልና	-10.2903
▁በመከልከልና	-10.2903
▁በመከፋፈል	-10.2903
▁በመካለኛው	-10.2903
▁በመካከለኛ	-10.2903
▁በመካከለኛው	-10.2903
▁በመወያየት፣	-10.2903
▁በመወደስ	-10.2903
▁በመውጣት	-10.2903
▁በመዘዋወር	-10.2903
▁በመያዜ	-10.2903
▁በመደበቅም	-10.2903
▁በመግባት	-10.2903
▁በመግደያ	-10.2903
▁በመጓዝ	-10.2903
▁በመጠለያው	-10.2903
▁በመጠነ-ሰፊነቱ	-10.2903
▁በመጠየቅ	-10.2903
▁በመጡ	-10.2903
▁በመጻሕፍት፣	-10.2903
▁በመጽሐፉ	-10.2903
▁በመጽሐፏ	-10.2903
▁በመፈቃቀርና	-10.2903
▁በመፈጸም	-10.2903
▁በመፍራት	-10.2903
▁በመፍታት	-10.2903
▁በሙቀጫ	-10.2903
▁በሚሆኑ	-10.2903
▁በሚለኝ	-10.2903
▁በሚሊዮን	-10.2903
▁በሚሰማው	-10.2903
▁በሚስብ	-10.2903
▁በሚስትነት	-10.2903
▁በሚቀጥለው	-10.2903
▁በሚነሣው	-10.2903
▁በሚኖር	-10.2903
▁በሚከተለው	-10.2903
▁በሚወርደው	-10.2903
▁በሚያስደተኝና	-10.2903
▁በሚያነብበት	-10.2903
▁በሚያንጸባርቅ	-10.2903
▁በሚያየውና	-10.2903
▁በሚገርም	-10.2903
▁በሚገባበት	-10.2903
▁በሚገባው	-10.2903
▁በማለት፡፡	-10.2903
▁በማላውቀው	-10.2903
▁በማልከም	-10.2903
▁በማልጸልይበት	-10.2903
▁በማመኔና	-10.2903
▁በማመን	-10.2903
▁በማርከስ	-10.2903
▁በማሰቃየት	-10.2903
▁በማስመሰል	-10.2903
▁በማስቆም	-10.2903
▁በማስተዳደር	-10.2903
▁በማስወጣት	-10.2903
▁በማስጠጋቷ	-10.2903
▁በማቀነባበር	-10.2903
▁በማቋቋም	-10.2903
▁በማብላላት፣	-10.2903
▁በማተኮሬ	-10.2903
▁በማንቋሸሽ	-10.2903
▁በማንበብና	-10.2903
▁በማንበብ፣	-10.2903
▁በማከናውንበትና	-10.2903
▁በማውጣት	-10.2903
▁በማይበልጥ	-10.2903
▁በማይችሉት	-10.2903
▁በማደጎ	-10.2903
▁በማድረጌ	-10.2903
▁በማግኘቴ	-10.2903
▁በማግኘት	-10.2903
▁በማግኘቷ	-10.2903
▁በምህረቱ	-10.2903
▁በምላሹ	-10.2903
▁በምመሰጥበት	-10.2903
▁በምርጫው	-10.2903
▁በምሽት	-10.2903
▁በምሽጋችን	-10.2903
▁በምታክል	-10.2903
▁በምትገኘው	-10.2903
▁በምቸገርበት	-10.2903
▁በምናባችን	-10.2903
▁በምን	-10.2903
▁በምጥርበት	-10.2903
▁በሠራሁበት	-10.2903
▁በሣቅ	-10.2903
▁በሥልጣን	-10.2903
▁በሥጋት	-10.2903
▁በረሮዎች፡፡	-10.2903
▁በረከት	-10.2903
▁በረጅሙ	-10.2903
▁በሩዋንዳም	-10.2903
▁በራሳቸው	-10.2903
▁በራስ-ወዳድነት	-10.2903
▁በራፉ	-10.2903
▁በርካቶች	-10.2903
▁በሰላም	-10.2903
▁በሰላምታ	-10.2903
▁በሰሜኑ	-10.2903
▁በሰቆቃ	-10.2903
▁በሰኔ	-10.2903
▁በሰንበት	-10.2903
▁በሰውነታቸው	-10.2903
▁በሰዓቱ	-10.2903
▁በሰፈራችን	-10.2903
▁በሰፈሬ	-10.2903
▁በሳዳም	-10.2903
▁በስተሰሜን	-10.2903
▁በስተቀር)	-10.2903
▁በስተቀር፡፡	-10.2903
▁በስጋት	-10.2903
▁በሸፈናቸው	-10.2903
▁በቀልድም	-10.2903
▁በቀሎቹ	-10.2903
▁በቀን	-10.2903
▁በቀዳዳዋ	-10.2903
▁በቀጣዩም	-10.2903
▁በቁርጠኝነት	-10.2903
▁በቂዬ	-10.2903
▁በቃላት	-10.2903
▁በቃ፡፡	-10.2903
▁በቅጠል	-10.2903
▁በቆየንበት	-10.2903
▁በበጎ	-10.2903
▁በቡሆሮ	-10.2903
▁በባሏ	-10.2903
▁በቤልጅዬሙ	-10.2903
▁በቤተሰቤ	-10.2903
▁በቤተክርስቲያን	-10.2903
▁በብሔረሰብ	-10.2903
▁በቪያኒ	-10.2903
▁በተለይም	-10.2903
▁በተመለከተ	-10.2903
▁በተመቻቸ	-10.2903
▁በተሞላ	-10.2903
▁በተረፈች	-10.2903
▁በተሽከርካሪ	-10.2903
▁በተቀናጀ	-10.2903
▁በተቃራኒ	-10.2903
▁በተቃራኒው	-10.2903
▁በተቸገርን	-10.2903
▁በተቻለን	-10.2903
▁በተቻላት	-10.2903
▁በተአምር	-10.2903
▁በተዓምራዊ	-10.2903
▁በተደራጀና	-10.2903
▁በተደበቀችበት	-10.2903
▁በተደበቅንበት	-10.2903
▁በተገናኘንበት	-10.2903
▁በተገደሉበት	-10.2903
▁በተግባርም፡፡	-10.2903
▁በተፈጥሮ	-10.2903
▁በተፈጥሯቸው	-10.2903
▁በቱትሲዎችና	-10.2903
▁በታሪኩ	-10.2903
▁በታቀደና	-10.2903
▁በትርጉሙ	-10.2903
▁በትከሻዬ	-10.2903
▁በትክክለኛው	-10.2903
▁በቸልታ	-10.2903
▁በችኮላ	-10.2903
▁በኅሊና	-10.2903
▁በነሐሴ	-10.2903
▁በነጻነት	-10.2903
▁በኒው	-10.2903
▁በንጋቷ	-10.2903
▁በንጹሐን	-10.2903
▁በንጹሕ	-10.2903
▁በንጽሕና	-10.2903
▁በኛና	-10.2903
▁በአሎይዜ	-10.2903
▁በአማርኛ	-10.2903
▁በአምላክ	-10.2903
▁በአረንጓዴ	-10.2903
▁በአሰቃቂ	-10.2903
▁በአስቸጋሪ	-10.2903
▁በአቅራቢያቸው	-10.2903
▁በአቅራቢያው	-10.2903
▁በአቅራቢያዬ	-10.2903
▁በአባታችን	-10.2903
▁በአባቷ	-10.2903
▁በአታ	-10.2903
▁በአንበሶች	-10.2903
▁በአንጸባራቂ	-10.2903
▁በአእምሮዬም	-10.2903
▁በአካል	-10.2903
▁በአካባቢያችን	-10.2903
▁በአገሪቱ	-10.2903
▁በአግራሞት	-10.2903
▁በአጠገባቸው	-10.2903
▁በአጠገቤ	-10.2903
▁በአጽንኦት	-10.2903
▁በአፍሪካ	-10.2903
▁በአፍቃሪ	-10.2903
▁በኢሜል	-10.2903
▁በኢትዮጵያና	-10.2903
▁በኢትዮጵያውያን	-10.2903
▁በኢንተርሃምዌ	-10.2903
▁በኤሌክትሪክ	-10.2903
▁በእለቱ	-10.2903
▁በእርስዎ	-10.2903
▁በእነርሱ	-10.2903
▁በእነዚያ	-10.2903
▁በእንጭጩ	-10.2903
▁በእኛ	-10.2903
▁በእጅዎት	-10.2903
▁በእግራቸው	-10.2903
▁በእግር	-10.2903
▁በእግሮቼ	-10.2903
▁በእግሯ	-10.2903
▁በእግዚአብሔርም	-10.2903
▁በኦቶማኖች	-10.2903
▁በከሰል	-10.2903
▁በከፊል	-10.2903
▁በኪቩ	-10.2903
▁በኪንያሩዋንዳ	-10.2903
▁በኮርኒሱ	-10.2903
▁በወላጆቼ	-10.2903
▁በወር	-10.2903
▁በወታደራዊ	-10.2903
▁በወንጌል	-10.2903
▁በወገኖቻቸው	-10.2903
▁በዋዜማው	-10.2903
▁በውስጡ	-10.2903
▁በውበታቸው	-10.2903
▁በውድቅት	-10.2903
▁በውጪው	-10.2903
▁በዓይኑ	-10.2903
▁በዘልማዳዊው	-10.2903
▁በዘውግ	-10.2903
▁በዘውግ1	-10.2903
▁በዚያኑ	-10.2903
▁በዜጎቻችን	-10.2903
▁በዝምታ	-10.2903
▁በየሀገሩ	-10.2903
▁በየሄድኩበት	-10.2903
▁በየመንገዱ	-10.2903
▁በየተወለዱበት	-10.2903
▁በየአህጉሩ	-10.2903
▁በየኬላው	-10.2903
▁በየወቅቱ	-10.2903
▁በየዕለቱ	-10.2903
▁በየዘውጉ	-10.2903
▁በያዙ	-10.2903
▁በደረቅ	-10.2903
▁በደረቴ	-10.2903
▁በደግነትና	-10.2903
▁በደፈናው	-10.2903
▁በዱላ	-10.2903
▁በዱሮ	-10.2903
▁በዳዮቿን	-10.2903
▁በድንበሩ	-10.2903
▁በድንገትም	-10.2903
▁በጀግንነት	-10.2903
▁በጄ	-10.2903
▁በገነትም	-10.2903
▁በገንዘብ	-10.2903
▁በገደላቸው	-10.2903
▁በገጀራዎቻቸው	-10.2903
▁በጉልህ	-10.2903
▁በጉልበታቸው	-10.2903
▁በጉልበቴ	-10.2903
▁በጉልበቶቹ	-10.2903
▁በጉዳዩ	-10.2903
▁በጉጉት	-10.2903
▁በጋት	-10.2903
▁በግማሽ	-10.2903
▁በግሩም	-10.2903
▁በግራ	-10.2903
▁በግቢያችን	-10.2903
▁በግንባር	-10.2903
▁በግድ	-10.2903
▁በጎበኘሁት	-10.2903
▁በጠመንጃው	-10.2903
▁በጠቅላላው	-10.2903
▁በጠዋት	-10.2903
▁በጣት	-10.2903
▁በጥልቀት	-10.2903
▁በጥልቅ	-10.2903
▁በጥሞና	-10.2903
▁በጥቂት	-10.2903
▁በጨፍጫፊዎቹ	-10.2903
▁በጭፍን	-10.2903
▁በጸሎትና	-10.2903
▁በጽንፈኞች	-10.2903
▁በፈረንሳውያኑ	-10.2903
▁በፈረንሳይ	-10.2903
▁በፈራረሱ	-10.2903
▁በፈጣሪ	-10.2903
▁በፊታችን	-10.2903
▁በፊቷ	-10.2903
▁በፋክት	-10.2903
▁በፍጹም፣	-10.2903
▁ቡሆሮን	-10.2903
▁ቡራኬ	-10.2903
▁ቡና	-10.2903
▁ቡናማ	-10.2903
▁ቡድኖቹ	-10.2903
▁ቢሆኑ?	-10.2903
▁ቢሆኑም	-10.2903
▁ቢሆኑ፡፡	-10.2903
▁ቢላዋና	-10.2903
▁ቢል	-10.2903
▁ቢመጡ	-10.2903
▁ቢመጣ	-10.2903
▁ቢሞክርም	-10.2903
▁ቢሰማኝም	-10.2903
▁ቢችሉ	-10.2903
▁ቢኖረኝ	-10.2903
▁ቢኖርም	-10.2903
▁ቢከሰት	-10.2903
▁ቢያስብ	-10.2903
▁ቢያጋጥመን	-10.2903
▁ቢያጠሉም፣	-10.2903
▁ቢገኝ	-10.2903
▁ቢገድሏችሁ	-10.2903
▁ቢፈሉም፣	-10.2903
▁ባህላዊ	-10.2903
▁ባህር	-10.2903
▁ባለሙያ	-10.2903
▁ባለማወቄ	-10.2903
▁ባለሥልጣናት	-10.2903
▁ባለችው	-10.2903
▁ባለውለታዎቼ	-10.2903
▁ባላገኘው	-10.2903
▁ባልችልም	-10.2903
▁ባልንጀሮቼን	-10.2903
▁ባሕላዊ	-10.2903
▁ባሳለፍናቸው	-10.2903
▁ባስብም	-10.2903
▁ባሻገር	-10.2903
▁ባቀረቡት	-10.2903
▁ባበረከትኳት	-10.2903
▁ባትደርስ	-10.2903
▁ባንተ	-10.2903
▁ባንድ	-10.2903
▁ባካሄዱት	-10.2903
▁ባውቅ	-10.2903
▁ባዚልን	-10.2903
▁ባያሌው	-10.2903
▁ባያሳዩንም	-10.2903
▁ባይነትና	-10.2903
▁ባይነትን	-10.2903
▁ባይካድም፣	-10.2903
▁ባይገቡ	-10.2903
▁ባጎስራ	-10.2903
▁ቤልጅየማውያኑ	-10.2903
▁ቤልጅየሞች	-10.2903
▁ቤተሰብሽ	-10.2903
▁ቤተሰብሽን	-10.2903
▁ቤተሰብና	-10.2903
▁ቤተሰቦቻቸውን	-10.2903
▁ቤተሰቧ	-10.2903
▁ቤተክርስቲያናችንን	-10.2903
▁ቤተክርስቲያንም	-10.2903
▁ቤቱም	-10.2903
▁ቤታችንንና	-10.2903
▁ቤት-አልባ	-10.2903
▁ቤቶችንና	-10.2903
▁ቤቶች፣	-10.2903
▁ብሄራዊው	-10.2903
▁ብሆን	-10.2903
▁ብሆንም	-10.2903
▁ብሆንስ	-10.2903
▁ብልህ	-10.2903
▁ብሎኝ	-10.2903
▁ብሏል፡፡	-10.2903
▁ብሔራዊ	-10.2903
▁ብሞክርም	-10.2903
▁ብረቱን	-10.2903
▁ብርቱ	-10.2903
▁ብርታቱ	-10.2903
▁ብርታቱን	-10.2903
▁ብርክ	-10.2903
▁ብትሆኚ	-10.2903
▁ብቸኛውን	-10.2903
▁ብቻውን	-10.2903
▁ብቻ፣	-10.2903
▁ብንሄድ	-10.2903
▁ብንራብም	-10.2903
▁ብንገኝም	-10.2903
▁ብዙኃን	-10.2903
▁ብዙው	-10.2903
▁ቦምቦችን	-10.2903
▁ቦርሳዋን	-10.2903
▁ቦስኒያ	-10.2903
▁ቦታና	-10.2903
▁ቦታዎች	-10.2903
▁ቦንቦች	-10.2903
▁ተለወጠ፡፡	-10.2903
▁ተለያይተን	-10.2903
▁ተለይተው	-10.2903
▁ተለይቼ	-10.2903
▁ተልዕኮ	-10.2903
▁ተመልሰሽ	-10.2903
▁ተመልሰው፡፡	-10.2903
▁ተመስርተው	-10.2903
▁ተመስጦ	-10.2903
▁ተመኘሁ፤	-10.2903
▁ተማሪዎቻቸውንና	-10.2903
▁ተማሪዎችን	-10.2903
▁ተምረዋል፡፡	-10.2903
▁ተምሳሌት	-10.2903
▁ተሞላ፡፡	-10.2903
▁ተሞልተው	-10.2903
▁ተራምዶ	-10.2903
▁ተራራ	-10.2903
▁ተራሮቿ፣	-10.2903
▁ተራፊ	-10.2903
▁ተራፊዎች	-10.2903
▁ተርታ	-10.2903
▁ተርጉሞ	-10.2903
▁ተርጓሚ	-10.2903
▁ተርጓሚው	-10.2903
▁ተሰማኝ...	-10.2903
▁ተሰበኩ	-10.2903
▁ተሰውረውብኝ	-10.2903
▁ተሳነኝ፡፡	-10.2903
▁ተሳናቸው፡፡	-10.2903
▁ተሳፍረው	-10.2903
▁ተስማሙ፡፡	-10.2903
▁ተስማሚ	-10.2903
▁ተስማማሁ፡፡	-10.2903
▁ተስፋዬ	-10.2903
▁ተሸሽጌያለሁ፡፡	-10.2903
▁ተሸከርካሪውን	-10.2903
▁ተሸከርካሪዎችን	-10.2903
▁ተሸከርካሪያችን	-10.2903
▁ተሸፍኗል፡፡	-10.2903
▁ተቀላቀልኩ፡፡	-10.2903
▁ተቀምጠዋል፡፡	-10.2903
▁ተቀርጾ	-10.2903
▁ተቀጥሬ	-10.2903
▁ተቃቀፍን፡፡	-10.2903
▁ተቃጥሎ	-10.2903
▁ተቆጥሯል	-10.2903
▁ተቋማዊ	-10.2903
▁ተባለ፡፡	-10.2903
▁ተተርኮበታል፡፡	-10.2903
▁ተተርጉሟል፤	-10.2903
▁ተቸከቸኩብኝ፡፡	-10.2903
▁ተቻችሎ	-10.2903
▁ተችሏቸዋል፡፡	-10.2903
▁ተነሡ!››	-10.2903
▁ተነሣሁ፡፡	-10.2903
▁ተነሥና	-10.2903
▁ተነሺ፡፡››	-10.2903
▁ተነፈስኩና	-10.2903
▁ተናነቀኝ፡፡	-10.2903
▁ተናገርኩ፡፡	-10.2903
▁ተናግራለች፡፡	-10.2903
▁ተናግሮ	-10.2903
▁ተንቀጠቀጥኩ፡፡	-10.2903
▁ተንበረከክሁ፡፡	-10.2903
▁ተንብዬ	-10.2903
▁ተንተገተገ፡፡	-10.2903
▁ተንኮታኮተ፡፡	-10.2903
▁ተንጠራርቼ	-10.2903
▁ተኝታ	-10.2903
▁ተከሰተ	-10.2903
▁ተከተለኝ፡፡	-10.2903
▁ተከታትለው	-10.2903
▁ተከትለን	-10.2903
▁ተኩል	-10.2903
▁ተኩራርተው	-10.2903
▁ተካሂዶ	-10.2903
▁ተወላጆችን	-10.2903
▁ተወራጆቻቸውን	-10.2903
▁ተወያይተናል፡፡	-10.2903
▁ተዋርዷል!	-10.2903
▁ተዋንያንን	-10.2903
▁ተዋጥን፡፡	-10.2903
▁ተዋፅዖ	-10.2903
▁ተውኩት፡፡	-10.2903
▁ተውጬ	-10.2903
▁ተዘጋ፡፡	-10.2903
▁ተዘግቷል፡፡	-10.2903
▁ተዛማጅ	-10.2903
▁ተዛምቷል፡፡	-10.2903
▁ተዪ	-10.2903
▁ተዪና	-10.2903
▁ተይዤ	-10.2903
▁ተደርገዋል፡፡	-10.2903
▁ተደሰቱ፡፡	-10.2903
▁ተደሰትኩ	-10.2903
▁ተደሰትኩ፤	-10.2903
▁ተደበቁ፡፡	-10.2903
▁ተደብቀው	-10.2903
▁ተደናግጬ	-10.2903
▁ተገረምኩ፡፡	-10.2903
▁ተገናኘን፡፡	-10.2903
▁ተገኙ፡፡	-10.2903
▁ተገኝቷል››	-10.2903
▁ተገደልኩ	-10.2903
▁ተገድለዋል፤	-10.2903
▁ተገጣጠሙ፡፡	-10.2903
▁ተግባራቱ	-10.2903
▁ተጠራጠርኩ፡፡	-10.2903
▁ተጠቅመውበታል፡፡	-10.2903
▁ተጠንቅቀው	-10.2903
▁ተጨነቁ፡፡	-10.2903
▁ተጨንቄ	-10.2903
▁ተጸጸትኩ፡፡	-10.2903
▁ተጽፏል፡፡	-10.2903
▁ተፍ	-10.2903
▁ቱትሲም	-10.2903
▁ቱትሲዎቹ	-10.2903
▁ቱትሲዎችም	-10.2903
▁ቱትሲዎችና	-10.2903
▁ቲዩኔስት	-10.2903
▁ታላላቅ	-10.2903
▁ታመመ፡፡	-10.2903
▁ታሪኬ	-10.2903
▁ታሪክሽን	-10.2903
▁ታሪኳ	-10.2903
▁ታስሮ	-10.2903
▁ታስቢያለሽ?››	-10.2903
▁ታትመዋል፡፡	-10.2903
▁ታክል	-10.2903
▁ታወቀኝ፡፡	-10.2903
▁ታዋቂ	-10.2903
▁ታውሮ	-10.2903
▁ታየኝ	-10.2903
▁ታይምስ	-10.2903
▁ታይምስም	-10.2903
▁ታደርጋላችሁ?	-10.2903
▁ታደርጓታላችሁ፡፡	-10.2903
▁ታደርጓታላችሁ፣	-10.2903
▁ታዳሚ	-10.2903
▁ታጅቦ	-10.2903
▁ታገግም	-10.2903
▁ታጣቂዎች	-10.2903
▁ታጣቂዎችም	-10.2903
▁ቴል	-10.2903
▁ቴሬሴ	-10.2903
▁ትልቁ	-10.2903
▁ትልቁን	-10.2903
▁ትልቅና	-10.2903
▁ትመስላለች፡፡	-10.2903
▁ትም	-10.2903
▁ትምህርትም	-10.2903
▁ትምህርት፣	-10.2903
▁ትራኦሬ	-10.2903
▁ትስስር	-10.2903
▁ትተን	-10.2903
▁ትታችሁ	-10.2903
▁ትቶ	-10.2903
▁ትነግረናለህ...	-10.2903
▁ትንሿን	-10.2903
▁ትንንሾቹን	-10.2903
▁ትንንሾቹንም	-10.2903
▁ትንፋሹን	-10.2903
▁ትከሻ	-10.2903
▁ትከሻው	-10.2903
▁ትከሻዎቿን	-10.2903
▁ትኩር	-10.2903
▁ትኩሳት	-10.2903
▁ትክክለኛ	-10.2903
▁ትክክለኛነት	-10.2903
▁ትክክለኛውን	-10.2903
▁ትዋዎች	-10.2903
▁ትውስታችን	-10.2903
▁ትውስታዎች	-10.2903
▁ትዕግሥት	-10.2903
▁ትዕግሥትና	-10.2903
▁ትዝብትና	-10.2903
▁ትግል	-10.2903
▁ትጠብቃላችሁ?	-10.2903
▁ትፈልጊያለሽ?››	-10.2903
▁ትፋፋለች::	-10.2903
▁ቶሎውኑ	-10.2903
▁ቻሉ፡፡	-10.2903
▁ቻድ፣	-10.2903
▁ችሎ	-10.2903
▁ችሮታ	-10.2903
▁ችግሮች	-10.2903
▁ኃላፊውን	-10.2903
▁ኃይለኛ	-10.2903
▁ኃይሉና	-10.2903
▁ኋላቀር	-10.2903
▁ነሽ፣	-10.2903
▁ነቀነቀ፡፡	-10.2903
▁ነቀነቅሁ፡፡	-10.2903
▁ነቅቼ	-10.2903
▁ነቅንቀው	-10.2903
▁ነበረብኝ	-10.2903
▁ነበረብኝ፡፡	-10.2903
▁ነበረኝ፡፡	-10.2903
▁ነበሩን፡፡	-10.2903
▁ነበርኩ	-10.2903
▁ነባራዊ	-10.2903
▁ነች...	-10.2903
▁ነች?››	-10.2903
▁ነኝ!››	-10.2903
▁ነኝ?››	-10.2903
▁ነኝ፣	-10.2903
▁ነው)፡፡	-10.2903
▁ነውር	-10.2903
▁ነውና	-10.2903
▁ነዎት?	-10.2903
▁ነዳጅ	-10.2903
▁ነገረ-ሥራ	-10.2903
▁ነገረችኝ፡	-10.2903
▁ነገርኩት፤	-10.2903
▁ነገር፣	-10.2903
▁ነገሮቹ	-10.2903
▁ነግረውናል፡፡	-10.2903
▁ነግሮ	-10.2903
▁ነግሷል፡፡	-10.2903
▁ነጠላ	-10.2903
▁ነጩን	-10.2903
▁ነፋሻ	-10.2903
▁ኑሮውን	-10.2903
▁ኒኪና	-10.2903
▁ና!	-10.2903
▁ናቸው)	-10.2903
▁ናቸው...	-10.2903
▁ናቸው፣	-10.2903
▁ናቸው›	-10.2903
▁ናችሁ	-10.2903
▁ናችሁ፡፡	-10.2903
▁ናዚ	-10.2903
▁ንሴንጄ	-10.2903
▁ንዋትሊ	-10.2903
▁ንዚማ	-10.2903
▁ንዚማን	-10.2903
▁ንድፍ	-10.2903
▁ንገረንና	-10.2903
▁ንጋት	-10.2903
▁ንግግሩ	-10.2903
▁ንግግሩን	-10.2903
▁ንጹሕና	-10.2903
▁ንጹሕ፣	-10.2903
▁ኖራለች፡፡	-10.2903
▁ኖሬያለሁ፤	-10.2903
▁ኖርኩም	-10.2903
▁አሁንስ	-10.2903
▁አለህ፡፡	-10.2903
▁አለመቻሉ	-10.2903
▁አለመቻሉን	-10.2903
▁አለመግባባቶችን	-10.2903
▁አለማመኑ	-10.2903
▁አለማንጋጠጥ	-10.2903
▁አለሽ?››	-10.2903
▁አለቀሱ፡፡	-10.2903
▁አለባቸው!››	-10.2903
▁አለባችሁ...	-10.2903
▁አለብን	-10.2903
▁አለብን!››	-10.2903
▁አለብን፡፡››	-10.2903
▁አለብኝ፡፡››	-10.2903
▁አለችና	-10.2903
▁አለችኝ	-10.2903
▁አለና	-10.2903
▁አለን፤	-10.2903
▁አለኝና	-10.2903
▁አለኝ››	-10.2903
▁አለው፤	-10.2903
▁አለፉ፡፡	-10.2903
▁አለፍ	-10.2903
▁አለ››	-10.2903
▁አሉት፡፡	-10.2903
▁አሉኝ፤	-10.2903
▁አሉኝ››	-10.2903
▁አሊ	-10.2903
▁አላሳሰበም	-10.2903
▁አላስቆማቸውም?	-10.2903
▁አላስፈላጊ	-10.2903
▁አላቀለለልኝም፡፡	-10.2903
▁አላቆምኩም!	-10.2903
▁አላባ	-10.2903
▁አላቸው	-10.2903
▁አላናደደኝም፡፡	-10.2903
▁አላወቅሁም፡፡	-10.2903
▁አላውቅም	-10.2903
▁አላውቅም፡፡››	-10.2903
▁አላውቅም፣	-10.2903
▁አልሆነልኝም፡፡	-10.2903
▁አልሰማኋቸውም፡፡	-10.2903
▁አልሰጠኝም፡፡	-10.2903
▁አልሰጣቸውም?	-10.2903
▁አልቀረንም፡፡	-10.2903
▁አልቀረኝም፡፡	-10.2903
▁አልቀረውም	-10.2903
▁አልባ	-10.2903
▁አልባብ	-10.2903
▁አልባነት	-10.2903
▁አልተመኘሁም፡፡	-10.2903
▁አልተቻለንም፡፡	-10.2903
▁አልተቻለውም፡፡	-10.2903
▁አልተነሣሽም፤	-10.2903
▁አልቻለችም፡፡	-10.2903
▁አልቻሉም፡፡	-10.2903
▁አልችልም	-10.2903
▁አልችልም...	-10.2903
▁አልችልም፤	-10.2903
▁አልነበረም	-10.2903
▁አልነበረም፤	-10.2903
▁አልነበራቸውም፡፡	-10.2903
▁አልኩና	-10.2903
▁አልኮል	-10.2903
▁አልኳቸው፡፡	-10.2903
▁አልወሰደብንም፡፡	-10.2903
▁አልገመትኩም	-10.2903
▁አልገቡም፡፡	-10.2903
▁አልገባቸውም	-10.2903
▁አልጋም	-10.2903
▁አልጋዬ	-10.2903
▁አልጠነከርኩም፡፡	-10.2903
▁አልፈለጉም፡፡	-10.2903
▁አልፈለግህም	-10.2903
▁አልፈልግም	-10.2903
▁አልፈቅድም፡፡	-10.2903
▁አልፏል፤	-10.2903
▁አሎይዜና	-10.2903
▁አሎይዜ፡፡	-10.2903
▁አመላካች	-10.2903
▁አመሰግናለሁ	-10.2903
▁አመሰግናለሁ፡፡	-10.2903
▁አመሰግናለሁ››	-10.2903
▁አመሰግናችኋለሁ	-10.2903
▁አመሰግናችኋለሁ፡፡	-10.2903
▁አመሰግንሃለሁ፡፡	-10.2903
▁አመቷ	-10.2903
▁አመቺ	-10.2903
▁አማካሪነት	-10.2903
▁አምላኬ!	-10.2903
▁አምስቱንም	-10.2903
▁አምሽተው	-10.2903
▁አምናለሁ፤	-10.2903
▁አምጥቶ	-10.2903
▁አሥረኛ	-10.2903
▁አረዳን፡፡	-10.2903
▁አረጋገጠልኝ፡፡	-10.2903
▁አረፍ	-10.2903
▁አረፍተ	-10.2903
▁አራተኛ	-10.2903
▁አራታችን	-10.2903
▁አራዊት፣	-10.2903
▁አርመኖች	-10.2903
▁አሰቀቀኝ፡፡	-10.2903
▁አሰቃቂነትና	-10.2903
▁አሰብኩ፤	-10.2903
▁አሰካክ፣	-10.2903
▁አሳለፍኩ፡፡	-10.2903
▁አሳልፋለሁ፡፡	-10.2903
▁አሳሳቢነት	-10.2903
▁አሳሳች	-10.2903
▁አሳስባለሁ፡፡	-10.2903
▁አሳቀኝ፡፡	-10.2903
▁አሳቢነት	-10.2903
▁አሳቢና	-10.2903
▁አሳዛኝ	-10.2903
▁አሳዩኝ	-10.2903
▁አሳጣኝ፤	-10.2903
▁አሳጥተዋቸዋል፡፡	-10.2903
▁አስሬ	-10.2903
▁አስቀምጧት፣	-10.2903
▁አስቀምጬ	-10.2903
▁አስቂኝ	-10.2903
▁አስበልጣችሁ	-10.2903
▁አስበዋል፡፡	-10.2903
▁አስባለሁ	-10.2903
▁አስብለውኛል፡፡	-10.2903
▁አስተሳሰብና	-10.2903
▁አስተባባሪ	-10.2903
▁አስተካካይ	-10.2903
▁አስተያየታቸውን	-10.2903
▁አስተያየቶች	-10.2903
▁አስተዳዳሪው	-10.2903
▁አስታወስኩና	-10.2903
▁አስታውሼ	-10.2903
▁አስቸጋሪውን	-10.2903
▁አስከሬኑን	-10.2903
▁አስከፊነት	-10.2903
▁አስወግዳ	-10.2903
▁አስደሳቹ	-10.2903
▁አስደሳች	-10.2903
▁አስደሳችም	-10.2903
▁አስደሳችና	-10.2903
▁አስገቡልን፡፡	-10.2903
▁አስገብተው	-10.2903
▁አስገኝቷታል፡፡	-10.2903
▁አስገዳጅነት	-10.2903
▁አስገድዶ	-10.2903
▁አስገድዷል፡፡	-10.2903
▁አስጠነቀቀን፡፡	-10.2903
▁አስፈለገኝ፡፡	-10.2903
▁አስፈሪም	-10.2903
▁አስፈሪው	-10.2903
▁አሸማቀቀኝ፡፡	-10.2903
▁አሸማቆት	-10.2903
▁አሸን	-10.2903
▁አሻራ	-10.2903
▁አሽቀንጥሮ	-10.2903
▁አሽቆጥቁጠውና	-10.2903
▁አቀበቱና	-10.2903
▁አቀናሁ፡፡	-10.2903
▁አቀድኩ፡፡	-10.2903
▁አቀፈችኝ፡፡	-10.2903
▁አቀፈኝ፡፡	-10.2903
▁አቀፉ	-10.2903
▁አቁሞ	-10.2903
▁አቃሰትኩ፡፡	-10.2903
▁አቅም	-10.2903
▁አቅርቤው	-10.2903
▁አቅርቦ	-10.2903
▁አቅቶት	-10.2903
▁አቅፎኝ	-10.2903
▁አቆመ፡፡	-10.2903
▁አቆጣጠር	-10.2903
▁አቋረጠኝ፡፡	-10.2903
▁አቋርጦ	-10.2903
▁አበላ	-10.2903
▁አባላትን	-10.2903
▁አባባ?	-10.2903
▁አባባም	-10.2903
▁አባባና	-10.2903
▁አባታዊ	-10.2903
▁አባትሽማ	-10.2903
▁አባዜ	-10.2903
▁አቤል	-10.2903
▁አብረዋት	-10.2903
▁አብራሩልን፡፡	-10.2903
▁አብራኝ	-10.2903
▁አብሮነታችንን	-10.2903
▁አብሮነትሽን	-10.2903
▁አብዛኛዎቹ	-10.2903
▁አብደዋል፡፡	-10.2903
▁አብዳለች፡፡	-10.2903
▁አቧራማ	-10.2903
▁አተኩረው	-10.2903
▁አተኩሬ	-10.2903
▁አታድርገኝ፣	-10.2903
▁አታድርግ፡፡	-10.2903
▁አትናሲያ	-10.2903
▁አትኩሮቴን	-10.2903
▁አትኩሮት	-10.2903
▁አነሳ፡፡	-10.2903
▁አነባለሁ፡፡	-10.2903
▁አነብ	-10.2903
▁አናውቅም፣	-10.2903
▁አንሆንም፡፡››	-10.2903
▁አንሾካሾኩ፤	-10.2903
▁አንቀጠቀጠኝ፡፡	-10.2903
▁አንባቢያን	-10.2903
▁አንብበውለት	-10.2903
▁አንብቤ	-10.2903
▁አንተው	-10.2903
▁አንደሚያዩን	-10.2903
▁አንደኛዋ	-10.2903
▁አንዳቸውም	-10.2903
▁አንዳንዶቹ	-10.2903
▁አንዴት	-10.2903
▁አንድስ	-10.2903
▁አንድነትና	-10.2903
▁አንዷና	-10.2903
▁አንጎል	-10.2903
▁አእምሮዬም	-10.2903
▁አከላቴን	-10.2903
▁አካሄድ	-10.2903
▁አካላቸው	-10.2903
▁አካባቢያችንን	-10.2903
▁አክስታችን	-10.2903
▁አክብሮታቸው	-10.2903
▁አኳኋን	-10.2903
▁አወራረድና	-10.2903
▁አወቅን፡፡	-10.2903
▁አወድሶታል፡፡	-10.2903
▁አዋቂ	-10.2903
▁አውሬ፣	-10.2903
▁አውሮፓውያን	-10.2903
▁አውቀነዋል፡፡	-10.2903
▁አውቀን	-10.2903
▁አውቀውታል...	-10.2903
▁አውቄዋለሁ	-10.2903
▁አውቄዋለሁ፡፡	-10.2903
▁አውታሮች፣	-10.2903
▁አውዳሚነት	-10.2903
▁አውዳሚነትና	-10.2903
▁አውጥቼ	-10.2903
▁አውጭዎች	-10.2903
▁አዛኝ፣	-10.2903
▁አዝናኝ	-10.2903
▁አየሁት	-10.2903
▁አየሁት፤	-10.2903
▁አየሩ	-10.2903
▁አየናቸው፡፡	-10.2903
▁አየኝና	-10.2903
▁አዩት፡፡	-10.2903
▁አዩኝና	-10.2903
▁አያመጣም፡፡	-10.2903
▁አያሻንም፡፡	-10.2903
▁አያውቁም፡፡	-10.2903
▁አያደርገውም፡፡	-10.2903
▁አያዳግትም፡፡	-10.2903
▁አያገጣብሩኝም!	-10.2903
▁አይሁን፡፡	-10.2903
▁አይሆንም፡፡	-10.2903
▁አይሆንም፣	-10.2903
▁አይሆንብኝም፡፡	-10.2903
▁አይመስለኝም፡፡››	-10.2903
▁አይመስልህም?	-10.2903
▁አይተውኝ	-10.2903
▁አይታ	-10.2903
▁አይታሰብም	-10.2903
▁አይታወቁም፡፡	-10.2903
▁አይቷል፡፡	-10.2903
▁አይቻለሁ፤	-10.2903
▁አይቻቸው	-10.2903
▁አይችልም፡፡	-10.2903
▁አይችልም››	-10.2903
▁አይነካኝም፣	-10.2903
▁አይኖረኝም፡፡	-10.2903
▁አይከብድም፡፡	-10.2903
▁አይደለሁም፤	-10.2903
▁አይደለሁም››	-10.2903
▁አይደለህም	-10.2903
▁አይደለም፡፡››	-10.2903
▁አይደሉም፤	-10.2903
▁አይደረግም	-10.2903
▁አይገርምም፡፡	-10.2903
▁አይጨነቁም፡፡	-10.2903
▁አደረኳቸው፡፡	-10.2903
▁አደረገ፡፡	-10.2903
▁አደረጉ፤	-10.2903
▁አደርጋለሁ፡፡››	-10.2903
▁አደጋን	-10.2903
▁አዳሪ	-10.2903
▁አድራሻቸውና	-10.2903
▁አድራጎትና	-10.2903
▁አድርቶባቸዋል፡፡	-10.2903
▁አድርጌው	-10.2903
▁አድነኝ፡፡	-10.2903
▁አድነኸኛል፤	-10.2903
▁አድኖ	-10.2903
▁አድጎ	-10.2903
▁አገላለጹ	-10.2903
▁አገላለጽ	-10.2903
▁አገሪቱ	-10.2903
▁አገራችንን	-10.2903
▁አገሬ	-10.2903
▁አገሮች	-10.2903
▁አገናዛቢ	-10.2903
▁አገኘሁ	-10.2903
▁አገኙን፡፡	-10.2903
▁አገኛለሁ፡፡	-10.2903
▁አገኛችኋለሁ፡፡	-10.2903
▁አገዛዙ	-10.2903
▁አጉል	-10.2903
▁አጋማሽ	-10.2903
▁አጋር	-10.2903
▁አጋጥሞኛል፡፡	-10.2903
▁አግባብ	-10.2903
▁አግኝተናል፡፡	-10.2903
▁አግኝተዋል››	-10.2903
▁አግኝተዋት	-10.2903
▁አግኝተው	-10.2903
▁አግኝቻት	-10.2903
▁አግዘውኛል፡፡	-10.2903
▁አጎት	-10.2903
▁አጎቶቻችሁን	-10.2903
▁አጎንብሼ	-10.2903
▁አጠራሩ	-10.2903
▁አጠቁ፡፡	-10.2903
▁አጠናክራለሁ፡፡	-10.2903
▁አጣመርኳቸው፤	-10.2903
▁አጥባቂ	-10.2903
▁አጥብቀው	-10.2903
▁አጥተዋል	-10.2903
▁አጥተው	-10.2903
▁አጥንቴ	-10.2903
▁አጥንቶቹን	-10.2903
▁አጥንቶቻችን	-10.2903
▁አጽንኦት	-10.2903
▁አፈሙዝ	-10.2903
▁አፈገፍጋለሁ፤	-10.2903
▁አፈጠጠ፡፡	-10.2903
▁አፌ	-10.2903
▁አፌን	-10.2903
▁አፍሪካውያን	-10.2903
▁አፍንጫ	-10.2903
▁አፍንጫቸው	-10.2903
▁አፍጠውብኛል፤	-10.2903
▁አፍጥጧል፡፡	-10.2903
▁ኢ.	-10.2903
▁ኢሊባጊዛ፣	-10.2903
▁ኢማኪዩሌ!	-10.2903
▁ኢማኪዩሌንና	-10.2903
▁ኢማኪዩሌን፡፡››	-10.2903
▁ኢብራሂምን	-10.2903
▁ኢትዮጵያዊ	-10.2903
▁ኢን	-10.2903
▁ኢንስፐሬሽን	-10.2903
▁ኢንተርሃምዌዎቹ	-10.2903
▁ኢንዲያንስ)	-10.2903
▁ኢየሱስን	-10.2903
▁ኤል.	-10.2903
▁ኤም.	-10.2903
▁ኤክስና	-10.2903
▁ኤይማብል፣	-10.2903
▁ኤፕሪል)	-10.2903
▁እሄዳለሁ፤	-10.2903
▁እህትህ	-10.2903
▁እህቶቼ	-10.2903
▁እህቷ	-10.2903
▁እሆናለሁ፡፡››	-10.2903
▁እሆን	-10.2903
▁እለዋለሁ፤	-10.2903
▁እላለሁ፡፡	-10.2903
▁እላቸዋለሁ...	-10.2903
▁እላችኋለሁ፣	-10.2903
▁እላዩ	-10.2903
▁እላያችን	-10.2903
▁እልቂትን	-10.2903
▁እልቂት፣	-10.2903
▁እመልሳለሁ፡፡	-10.2903
▁እመዝን	-10.2903
▁እማማን	-10.2903
▁እማራለሁ...	-10.2903
▁እምነቱ	-10.2903
▁እምነቴ	-10.2903
▁እምነትም	-10.2903
▁እረፍቴ	-10.2903
▁እራፊ	-10.2903
▁እርምጃዎች	-10.2903
▁እርሱንም	-10.2903
▁እርሳቸው፣	-10.2903
▁እርስዎን	-10.2903
▁እርሷን	-10.2903
▁እርዳኝ፡፡	-10.2903
▁እርግጠኝነት	-10.2903
▁እርግጠኞች	-10.2903
▁እሰማለሁ፡፡	-10.2903
▁እሰማዋለሁ፡፡	-10.2903
▁እሱም	-10.2903
▁እሱው	-10.2903
▁እሳቤ	-10.2903
▁እሳትም	-10.2903
▁እሴቶች	-10.2903
▁እስቲ	-10.2903
▁እስትንፋስ	-10.2903
▁እስከአሁን	-10.2903
▁እስከዘላለሙ	-10.2903
▁እስከዳር	-10.2903
▁እስከገባሁበት	-10.2903
▁እስኪልና	-10.2903
▁እስኪከብድ	-10.2903
▁እስኪወጣ	-10.2903
▁እስኪያልፍ	-10.2903
▁እስኪያቆም	-10.2903
▁እስኪያገኙን	-10.2903
▁እስኪያገኝ	-10.2903
▁እስኪጀምር	-10.2903
▁እስኪጠፋ	-10.2903
▁እስክተኛ	-10.2903
▁እስክንቆም	-10.2903
▁እስክንደርስ	-10.2903
▁እሷን	-10.2903
▁እቅዳቸው	-10.2903
▁እቅድ	-10.2903
▁እቆያለሁ፡፡	-10.2903
▁እበር	-10.2903
▁እባቦች	-10.2903
▁እባካችሁ	-10.2903
▁እባክህን	-10.2903
▁እቤቱ	-10.2903
▁እቤቴ	-10.2903
▁እተኛለሁ፡፡	-10.2903
▁እችላለሁ፡፡››	-10.2903
▁እችላለሁ፤	-10.2903
▁እችል	-10.2903
▁እነሆ	-10.2903
▁እነቃለሁ፡፡	-10.2903
▁እነዚህም	-10.2903
▁እናለቅስ	-10.2903
▁እናታችሁን	-10.2903
▁እናቴንና	-10.2903
▁እናትና	-10.2903
▁እናወራለን፡፡	-10.2903
▁እናደርጋለን፡፡	-10.2903
▁እናድርግ	-10.2903
▁እናፍቅሃለሁ	-10.2903
▁እንሂድ	-10.2903
▁እንሄዳለን	-10.2903
▁እንሄድ	-10.2903
▁እንተዋወቃለን፡፡	-10.2903
▁እንችላለን?	-10.2903
▁እንችላለን››	-10.2903
▁እንችል	-10.2903
▁እንኖራለን፡፡	-10.2903
▁እንከባከባቸው	-10.2903
▁እንደሆነም	-10.2903
▁እንደሆነው	-10.2903
▁እንደሆነ፣	-10.2903
▁እንደሆናችሁ	-10.2903
▁እንደሆንሽ	-10.2903
▁እንደሆንክ	-10.2903
▁እንደሌለው	-10.2903
▁እንደመሆናቸው	-10.2903
▁እንደመልህቅ	-10.2903
▁እንደመራኝ	-10.2903
▁እንደመጣሁ	-10.2903
▁እንደሚሆኑ	-10.2903
▁እንደሚለው	-10.2903
▁እንደሚል	-10.2903
▁እንደሚመደብና	-10.2903
▁እንደሚመጣልኝ	-10.2903
▁እንደሚመጣባቸው	-10.2903
▁እንደሚሰጠን	-10.2903
▁እንደሚሻል	-10.2903
▁እንደሚባለው	-10.2903
▁እንደሚታወሰኝ	-10.2903
▁እንደሚታይም	-10.2903
▁እንደሚቻል	-10.2903
▁እንደሚናገሩ	-10.2903
▁እንደሚናገሩት	-10.2903
▁እንደሚወደኝ	-10.2903
▁እንደሚያስከትል	-10.2903
▁እንደሚያትተው	-10.2903
▁እንደሚያገኙኝ	-10.2903
▁እንደሚገባን	-10.2903
▁እንደሚገድሉ	-10.2903
▁እንደሚጠቀሙበት	-10.2903
▁እንደሚፈልግ	-10.2903
▁እንደማልችል	-10.2903
▁እንደማትፈራ	-10.2903
▁እንደማያደርግ	-10.2903
▁እንደማይገድሉን	-10.2903
▁እንደማገኛቸው	-10.2903
▁እንደምምር	-10.2903
▁እንደምትኖር	-10.2903
▁እንደምችልም	-10.2903
▁እንደምናደርግ	-10.2903
▁እንደምንሆን	-10.2903
▁እንደምንረዳው	-10.2903
▁እንደምፈልግ	-10.2903
▁እንደሞተ	-10.2903
▁እንደሩዋንዳው	-10.2903
▁እንደርሳቸው	-10.2903
▁እንደሰሙት	-10.2903
▁እንደሰማነው	-10.2903
▁እንደቆመ	-10.2903
▁እንደቆዩ	-10.2903
▁እንደበግ	-10.2903
▁እንደተሳሰረና	-10.2903
▁እንደተኛሁ፣	-10.2903
▁እንደተወደድኩም	-10.2903
▁እንደተደረገው	-10.2903
▁እንደተደበቁት	-10.2903
▁እንደተገለጠልኝ	-10.2903
▁እንደተገኙ	-10.2903
▁እንደተገደለች	-10.2903
▁እንደተገደሉባት	-10.2903
▁እንደተገደሉና	-10.2903
▁እንደተጣለው	-10.2903
▁እንደተጣልኩ	-10.2903
▁እንደተፈጸመው	-10.2903
▁እንደቻለ	-10.2903
▁እንደነሱ	-10.2903
▁እንደነዚህ	-10.2903
▁እንደወረድኩ	-10.2903
▁እንደወትሮው	-10.2903
▁እንደወደቀ	-10.2903
▁እንደወጣ	-10.2903
▁እንደዘገየ	-10.2903
▁እንደደበቁ	-10.2903
▁እንደገባሁ	-10.2903
▁እንደገባኝ	-10.2903
▁እንደገናም	-10.2903
▁እንደጌጥ	-10.2903
▁እንደጻፉት	-10.2903
▁እንደፈለገ	-10.2903
▁እንደፈራ	-10.2903
▁እንዲሁ፡፡	-10.2903
▁እንዲሄድ	-10.2903
▁እንዲለብሱ	-10.2903
▁እንዲለይ	-10.2903
▁እንዲሉ	-10.2903
▁እንዲልክ	-10.2903
▁እንዲልክልኝ	-10.2903
▁እንዲሞት	-10.2903
▁እንዲሰማቸው	-10.2903
▁እንዲሰጠኝ	-10.2903
▁እንዲሰጡኝ	-10.2903
▁እንዲቀለው	-10.2903
▁እንዲቀጥል	-10.2903
▁እንዲተውም	-10.2903
▁እንዲታጠቡ	-10.2903
▁እንዲነግረኝ	-10.2903
▁እንዲከሰት	-10.2903
▁እንዲወስዱኝ	-10.2903
▁እንዲዛወሩ	-10.2903
▁እንዲያልቁ	-10.2903
▁እንዲያቆሙ	-10.2903
▁እንዲያቆም፣	-10.2903
▁እንዲያነቡት	-10.2903
▁እንዲያዩን	-10.2903
▁እንዲያድንላቸው	-10.2903
▁እንዲያገኙን	-10.2903
▁እንዲያግዘኝ	-10.2903
▁እንዲያግዛት	-10.2903
▁እንዲደርሱ	-10.2903
▁እንዲደበቅ	-10.2903
▁እንዲድኑ	-10.2903
▁እንዲገባ	-10.2903
▁እንዲጎለብት	-10.2903
▁እንዲጎነጩ	-10.2903
▁እንዲጠሉ	-10.2903
▁እንዲጠብቅ	-10.2903
▁እንዲጻፉ	-10.2903
▁እንዳለቀ	-10.2903
▁እንዳለንና	-10.2903
▁እንዳለኝም	-10.2903
▁እንዳላየ	-10.2903
▁እንዳልሆኑ	-10.2903
▁እንዳልሆንን፣	-10.2903
▁እንዳልቻለ	-10.2903
▁እንዳልን	-10.2903
▁እንዳልወድቅ	-10.2903
▁እንዳስተቻቸው	-10.2903
▁እንዳስቸገርኳቸው	-10.2903
▁እንዳስከተለና	-10.2903
▁እንዳቀርብ	-10.2903
▁እንዳቃናና	-10.2903
▁እንዳቆሙ	-10.2903
▁እንዳቆይ	-10.2903
▁እንዳተረፋት	-10.2903
▁እንዳተኩር	-10.2903
▁እንዳተኩርና	-10.2903
▁እንዳናገኛቸው	-10.2903
▁እንዳንሆንና	-10.2903
▁እንዳንቀበል፣	-10.2903
▁እንዳንዣበበ	-10.2903
▁እንዳኖራትና	-10.2903
▁እንዳካሂደው	-10.2903
▁እንዳያቆሙት	-10.2903
▁እንዳያካሂድ	-10.2903
▁እንዳይሰሙኝ	-10.2903
▁እንዳይሰማን	-10.2903
▁እንዳይሰፍን	-10.2903
▁እንዳይታሰብም	-10.2903
▁እንዳይደርስበትና	-10.2903
▁እንዳይደገም	-10.2903
▁እንዳይገቡ	-10.2903
▁እንዳይገባ፣	-10.2903
▁እንዳይገድሉ	-10.2903
▁እንድል	-10.2903
▁እንድመጣ	-10.2903
▁እንድማር	-10.2903
▁እንድምራቸው	-10.2903
▁እንድታይ	-10.2903
▁እንድትተፊበት	-10.2903
▁እንድትታጠብ	-10.2903
▁እንድትናገሪ	-10.2903
▁እንድናሳይ	-10.2903
▁እንድናሳድገው	-10.2903
▁እንድናስባቸው	-10.2903
▁እንድናስብ	-10.2903
▁እንድናገር	-10.2903
▁እንድንኖር	-10.2903
▁እንድንጥር	-10.2903
▁እንድንጨብጥ	-10.2903
▁እንድኖር	-10.2903
▁እንጀራ	-10.2903
▁እንገናኛለን፡፡	-10.2903
▁እንገናኝም	-10.2903
▁እንገደዳለን፡፡››	-10.2903
▁እንጋራዋለን፣	-10.2903
▁እንግሊዝኛዬን	-10.2903
▁እንግዶች	-10.2903
▁እንጠቀምበት	-10.2903
▁እንጸልይ፡፡››	-10.2903
▁እንፈልጋለን››	-10.2903
▁እኛስ	-10.2903
▁እኛና	-10.2903
▁እኛንም	-10.2903
▁እኩለ	-10.2903
▁እኮ፡፡	-10.2903
▁እወርዳለሁ፡፡	-10.2903
▁እወስዳለሁ፣	-10.2903
▁እወቂ፡፡	-10.2903
▁እወዳለሁ፡፡	-10.2903
▁እውቀት	-10.2903
▁እውነተኛው	-10.2903
▁እውነትም	-10.2903
▁እዚሁ	-10.2903
▁እዚህ፣	-10.2903
▁እዚያች	-10.2903
▁እየሆኑ	-10.2903
▁እየሞከርኩ	-10.2903
▁እየሠራች	-10.2903
▁እየሣቅን	-10.2903
▁እየቀረቡ	-10.2903
▁እየቀረቡን	-10.2903
▁እየበረበረ	-10.2903
▁እየተርበደበድኩ	-10.2903
▁እየተባለም	-10.2903
▁እየተቧደነ	-10.2903
▁እየተከላከሉን	-10.2903
▁እየተዘዋወሩ	-10.2903
▁እየተዘጋጀ	-10.2903
▁እየተያየን	-10.2903
▁እየተገደላችሁ	-10.2903
▁እየተጨነቀች	-10.2903
▁እየተጫወቱ	-10.2903
▁እየተፈበረኩ	-10.2903
▁እየታደናችሁና	-10.2903
▁እየነቀነቀች	-10.2903
▁እየነቀነቁ	-10.2903
▁እየነካካሁ	-10.2903
▁እየኖረ	-10.2903
▁እየወጣ	-10.2903
▁እየደማ	-10.2903
▁እየገደሉ	-10.2903
▁እየገደሉን	-10.2903
▁እየጎተቱ	-10.2903
▁እየጠሩ	-10.2903
▁እየጠራ	-10.2903
▁እየጠየኩህ	-10.2903
▁እየጠፋ	-10.2903
▁እየጣረ	-10.2903
▁እየጮሁና	-10.2903
▁እየጸለይኩ	-10.2903
▁እየፈለጉ	-10.2903
▁እየፈተነኝ	-10.2903
▁እያለቀሰች	-10.2903
▁እያለቀስኩ	-10.2903
▁እያለፍን	-10.2903
▁እያሉ፡፡	-10.2903
▁እያልኳቸው	-10.2903
▁እያሰቡ	-10.2903
▁እያሰብክ	-10.2903
▁እያሳየኝ	-10.2903
▁እያነሱ	-10.2903
▁እያንጠለጠለ	-10.2903
▁እያወራህ	-10.2903
▁እያወናጨፉ	-10.2903
▁እያውለበለቡት፡፡	-10.2903
▁እያየ	-10.2903
▁እያየችኝ	-10.2903
▁እያዩን	-10.2903
▁እያደረገን	-10.2903
▁እያደረገ፡፡	-10.2903
▁እያደራጁ	-10.2903
▁እያጠናሁና	-10.2903
▁እይታሽ	-10.2903
▁እይታውን	-10.2903
▁እድለኛ	-10.2903
▁እድሉ	-10.2903
▁እድሉን	-10.2903
▁እጅግም	-10.2903
▁እጆቼ	-10.2903
▁እጆቿን	-10.2903
▁እጇ	-10.2903
▁እገምታለሁ፡፡	-10.2903
▁እገባለሁ፤	-10.2903
▁እገናኛለሁ፡፡	-10.2903
▁እጋብዝዎታለሁ፡፡	-10.2903
▁እግሮቻቸው	-10.2903
▁እግሮቻቸውን	-10.2903
▁እግሮቼ	-10.2903
▁እግኝቻለሁ	-10.2903
▁እግዚአብሔርንም	-10.2903
▁እግዚአብሔር፤	-10.2903
▁እጠቀመዋለሁ፡፡	-10.2903
▁እጠቀማለሁ፡፡	-10.2903
▁እጠብቃለሁ፡፡	-10.2903
▁እጠብቅ	-10.2903
▁እጸልያለሁ፣	-10.2903
▁እጸልያለሁ፤	-10.2903
▁እጸልይ	-10.2903
▁እጽፋለሁ፡፡	-10.2903
▁እፈልጋሁ፡፡	-10.2903
▁እፈልጋለሁ	-10.2903
▁እፈልጋለሁ!››	-10.2903
▁እፈልጋለሁ፡፡››	-10.2903
▁እፈልጋለሁ››	-10.2903
▁እፈራለሁ፡፡	-10.2903
▁እፈራለሁ፡፡››	-10.2903
▁እፎይታን	-10.2903
▁ኦገስቲን፡፡	-10.2903
▁ኦፍቴ	-10.2903
▁ከ15	-10.2903
▁ከ19592	-10.2903
▁ከ1999	-10.2903
▁ከሀገራችን	-10.2903
▁ከሁሉ	-10.2903
▁ከሁኔታው	-10.2903
▁ከሄደ	-10.2903
▁ከላሞቹ	-10.2903
▁ከሌሊቱ	-10.2903
▁ከሌላኛው	-10.2903
▁ከልቡ	-10.2903
▁ከልጆቼ	-10.2903
▁ከሐይቁ	-10.2903
▁ከሕዝብ	-10.2903
▁ከመምጣቱ	-10.2903
▁ከመሞቱ	-10.2903
▁ከመሬት	-10.2903
▁ከመቀመጫችሁ	-10.2903
▁ከመቀመጫችን	-10.2903
▁ከመቀመጫዬ	-10.2903
▁ከመቶዎች	-10.2903
▁ከመንደሬ	-10.2903
▁ከመኝታችን	-10.2903
▁ከመካከላቸው	-10.2903
▁ከመዳን	-10.2903
▁ከመጀመሬ	-10.2903
▁ከመግደላቸው	-10.2903
▁ከመጡ	-10.2903
▁ከመጤፍ	-10.2903
▁ከመፍጀታቸው	-10.2903
▁ከሚሏቸው	-10.2903
▁ከሚታመኑና	-10.2903
▁ከሚታሰበውም	-10.2903
▁ከሚታየው	-10.2903
▁ከሚዋደዱ	-10.2903
▁ከሚያደርሱ	-10.2903
▁ከሚያደርጉት	-10.2903
▁ከሚጥሩ	-10.2903
▁ከማስረዳቱ	-10.2903
▁ከማንኛውም	-10.2903
▁ከማወቅ	-10.2903
▁ከማውቀው	-10.2903
▁ከማውቃቸው	-10.2903
▁ከማይነጥፍ	-10.2903
▁ከማይዋሹ፡፡››	-10.2903
▁ከምር	-10.2903
▁ከምሽጉ	-10.2903
▁ከምችለው	-10.2903
▁ከምናውቀው	-10.2903
▁ከሞቱት	-10.2903
▁ከሥራ	-10.2903
▁ከሩአግ	-10.2903
▁ከሩዋንዳው	-10.2903
▁ከራሱ	-10.2903
▁ከራሳቸው	-10.2903
▁ከራሴ	-10.2903
▁ከራስ	-10.2903
▁ከራሷ	-10.2903
▁ከሬድዮ	-10.2903
▁ከሰል	-10.2903
▁ከሰሚ	-10.2903
▁ከሰዎቹ	-10.2903
▁ከሳች	-10.2903
▁ከሴምቤባ	-10.2903
▁ከሴት	-10.2903
▁ከስቲቭ	-10.2903
▁ከቀየርሽ	-10.2903
▁ከበሩ	-10.2903
▁ከበደ	-10.2903
▁ከባለሥልጣናት	-10.2903
▁ከባዱ	-10.2903
▁ከባዱን	-10.2903
▁ከቤተሰቡ	-10.2903
▁ከቤተሰባችን	-10.2903
▁ከቤተሰቧ	-10.2903
▁ከቪያኒ	-10.2903
▁ከተመታ	-10.2903
▁ከተራሮቿ	-10.2903
▁ከተስማሙ	-10.2903
▁ከተቻለም	-10.2903
▁ከተጀመረ	-10.2903
▁ከተገናኘች	-10.2903
▁ከተጠቀሱት	-10.2903
▁ከተጨፍጫፊው	-10.2903
▁ከተጻፉት	-10.2903
▁ከተፈጠርንበት	-10.2903
▁ከተፈጸሙት	-10.2903
▁ከተፍ	-10.2903
▁ከቱትሲዎች	-10.2903
▁ከታሪኩ	-10.2903
▁ከታሪኬ	-10.2903
▁ከታትፎ	-10.2903
▁ከታዩት	-10.2903
▁ከትልልቅ	-10.2903
▁ከቶ	-10.2903
▁ከኋላ	-10.2903
▁ከነጨፍጫፊዎቻቸው	-10.2903
▁ከነጭራሹ	-10.2903
▁ከአሁኑ	-10.2903
▁ከአልጋዬ	-10.2903
▁ከአሎይዜ	-10.2903
▁ከአሜሪካ	-10.2903
▁ከአሥር	-10.2903
▁ከአስደሳች	-10.2903
▁ከአባቴና	-10.2903
▁ከአባትሽ	-10.2903
▁ከአብዛኞቹ	-10.2903
▁ከአብዛኞቻችን	-10.2903
▁ከአንዲት	-10.2903
▁ከአንዴም	-10.2903
▁ከአንድነቱ	-10.2903
▁ከአንድነት	-10.2903
▁ከአእምሮ	-10.2903
▁ከአእምሮዬ	-10.2903
▁ከአክራሪ	-10.2903
▁ከአውሬ	-10.2903
▁ከአውሬነት	-10.2903
▁ከአደጋ	-10.2903
▁ከአዲሱ	-10.2903
▁ከአዳዲስ	-10.2903
▁ከአጠገቤ	-10.2903
▁ከኤይማብል	-10.2903
▁ከእርሳቸው	-10.2903
▁ከእርሷና	-10.2903
▁ከእብነበረድ	-10.2903
▁ከእንግሊዝኛ	-10.2903
▁ከእንግሊዝኛው	-10.2903
▁ከእኩለ	-10.2903
▁ከእይታችን	-10.2903
▁ከኦገስቲን	-10.2903
▁ከኪሳቸው	-10.2903
▁ከክፍል	-10.2903
▁ከክፍሏ	-10.2903
▁ከወለሉ	-10.2903
▁ከወላጆቼ	-10.2903
▁ከወታደሮቹ	-10.2903
▁ከወትሮው	-10.2903
▁ከወጣን	-10.2903
▁ከውድመቱ	-10.2903
▁ከውድመት	-10.2903
▁ከውጪ	-10.2903
▁ከዓይኖቼ	-10.2903
▁ከዕድሜው	-10.2903
▁ከዢን	-10.2903
▁ከየልምዶቻችን	-10.2903
▁ከዩኒቨርሲቲ	-10.2903
▁ከያዘው	-10.2903
▁ከደስተኛ	-10.2903
▁ከደጃችን	-10.2903
▁ከደፋሪዎች	-10.2903
▁ከዳር	-10.2903
▁ከጀመሩ	-10.2903
▁ከጀመርኩ	-10.2903
▁ከገደሉት	-10.2903
▁ከገደልኩ	-10.2903
▁ከገዳዮችና	-10.2903
▁ከገዳዮቿ	-10.2903
▁ከግቢው	-10.2903
▁ከግንቡ	-10.2903
▁ከግድያ	-10.2903
▁ከግፍ	-10.2903
▁ከጎረቤቶቻችን	-10.2903
▁ከጓደኛ	-10.2903
▁ከጠራ	-10.2903
▁ከጥላቻ	-10.2903
▁ከጦርነት	-10.2903
▁ከጨለማው	-10.2903
▁ከጨፍጫፊውና	-10.2903
▁ከጸለይኩ	-10.2903
▁ከፈለጉ	-10.2903
▁ከፈለግሁ	-10.2903
▁ከፈለግሽ	-10.2903
▁ከፈልግሽ	-10.2903
▁ከፈረንሳውያኑ	-10.2903
▁ከፈቱት፡፡	-10.2903
▁ከፈፀሙት	-10.2903
▁ከፋፍለው	-10.2903
▁ከፍቶ	-10.2903
▁ከፒየር	-10.2903
▁ኩራት	-10.2903
▁ኩርዶች	-10.2903
▁ኩሽና	-10.2903
▁ኩበት	-10.2903
▁ኪሎሜትሮች	-10.2903
▁ካለቀባቸው	-10.2903
▁ካለነው	-10.2903
▁ካለዎት	-10.2903
▁ካላየኋቸው	-10.2903
▁ካልከለሉት	-10.2903
▁ካመጡበት	-10.2903
▁ካሬራ	-10.2903
▁ካባዪን	-10.2903
▁ካቶሊኮች	-10.2903
▁ካነበበልኝ	-10.2903
▁ካነበብኩት	-10.2903
▁ካነበብኳቸው	-10.2903
▁ካን	-10.2903
▁ካንተ	-10.2903
▁ካወቁና	-10.2903
▁ካየ	-10.2903
▁ካገኘሁ	-10.2903
▁ካጋሜ፣	-10.2903
▁ካጋጠሙኝ	-10.2903
▁ካጌዮ	-10.2903
▁ካጠገቤ	-10.2903
▁ካጡ	-10.2903
▁ክረምት	-10.2903
▁ክርስቲያናት	-10.2903
▁ክርስቲያን	-10.2903
▁ክርኖች	-10.2903
▁ክሱን	-10.2903
▁ክብርም	-10.2903
▁ክብደት	-10.2903
▁ክፍለ-ሀገር፣	-10.2903
▁ክፍልን	-10.2903
▁ክፍል፣	-10.2903
▁ክፍያ	-10.2903
▁ክፍያዬን	-10.2903
▁ክፍፍሎችን	-10.2903
▁ኮረብታ	-10.2903
▁ኮርኒስ	-10.2903
▁ኮስታራ	-10.2903
▁ኮተት	-10.2903
▁ኮንጓውያን	-10.2903
▁ኮፍያ	-10.2903
▁ወለድ	-10.2903
▁ወላጆቼም	-10.2903
▁ወላፈን	-10.2903
▁ወልዳ	-10.2903
▁ወልዶ	-10.2903
▁ወረቀት፡፡››	-10.2903
▁ወረዱ፡፡	-10.2903
▁ወረድን፡፡	-10.2903
▁ወረድኩ፡፡	-10.2903
▁ወሬዎች	-10.2903
▁ወሬዎችና	-10.2903
▁ወርሃዊ	-10.2903
▁ወርዶ	-10.2903
▁ወሰነ	-10.2903
▁ወሰዱን፡፡	-10.2903
▁ወስነናል››	-10.2903
▁ወስደን	-10.2903
▁ወስዷል፣	-10.2903
▁ወተትና	-10.2903
▁ወታደሮቹም	-10.2903
▁ወታደሮችና	-10.2903
▁ወትሮው	-10.2903
▁ወንበሯን	-10.2903
▁ወንዙ	-10.2903
▁ወንድማማቾች	-10.2903
▁ወንድማችን	-10.2903
▁ወንድሜም	-10.2903
▁ወንድሜንና	-10.2903
▁ወንድሜ፡፡	-10.2903
▁ወንድምሽን	-10.2903
▁ወንድሞቼን	-10.2903
▁ወንድሞቼንም	-10.2903
▁ወንድሞችሽን	-10.2903
▁ወደሆነው	-10.2903
▁ወደሚገኘው	-10.2903
▁ወደቅሁ፡፡	-10.2903
▁ወደተቀመጡበት	-10.2903
▁ወደኋላዬ	-10.2903
▁ወደድኩት፡፡	-10.2903
▁ወዳለ	-10.2903
▁ወዳለሁበት	-10.2903
▁ወዳለው	-10.2903
▁ወዳላቸው	-10.2903
▁ወዳድ	-10.2903
▁ወዳጄና	-10.2903
▁ወዳጅነት	-10.2903
▁ወዳጆቼ	-10.2903
▁ወዳጆቼና	-10.2903
▁ወዴት	-10.2903
▁ወድቀዋል፡፡	-10.2903
▁ወድቀው	-10.2903
▁ወገቡ	-10.2903
▁ወገናዊነትና	-10.2903
▁ወግ	-10.2903
▁ወጡ፡፡	-10.2903
▁ወጣሁ፡፡	-10.2903
▁ወጥተዋል፤	-10.2903
▁ወጪ	-10.2903
▁ወጪያቸውን	-10.2903
▁ወፍ	-10.2903
▁ወፎች	-10.2903
▁ዋነኞቹ	-10.2903
▁ዋናውን	-10.2903
▁ዌይን	-10.2903
▁ውሃው	-10.2903
▁ውለታ	-10.2903
▁ውል	-10.2903
▁ውር	-10.2903
▁ውርር	-10.2903
▁ውሱን	-10.2903
▁ውሳኔዎች	-10.2903
▁ውስጣዊ	-10.2903
▁ውስጤን	-10.2903
▁ውስጥም	-10.2903
▁ውሸትን	-10.2903
▁ውሸቶች	-10.2903
▁ውሻ	-10.2903
▁ውቤ	-10.2903
▁ውቧን	-10.2903
▁ውይይት	-10.2903
▁ውድመት	-10.2903
▁ውድቅት	-10.2903
▁ውጫለሁ፡፡	-10.2903
▁ዎች	-10.2903
▁ዓለማችንም	-10.2903
▁ዓለምም	-10.2903
▁ዓላማቸውን	-10.2903
▁ዓመቱን	-10.2903
▁ዓይነቱን	-10.2903
▁ዓይነቶች	-10.2903
▁ዓይኑ	-10.2903
▁ዓይኑን	-10.2903
▁ዓይናቸው	-10.2903
▁ዓይኔ	-10.2903
▁ዓይንሽን	-10.2903
▁ዓይኖችም	-10.2903
▁ዓይኖቿ	-10.2903
▁ዕውቀት	-10.2903
▁ዕድሜ-ልካቸውን	-10.2903
▁ዕድሜያቸው	-10.2903
▁ዕድሜዬ	-10.2903
▁ዕጣቸው	-10.2903
▁ዘመርኩላቸው፡፡	-10.2903
▁ዘመቻዎች	-10.2903
▁ዘመኔ	-10.2903
▁ዘረኝነትና	-10.2903
▁ዘረኞች	-10.2903
▁ዘረገፍኩት፡፡	-10.2903
▁ዘርግተው	-10.2903
▁ዘበኞቹ	-10.2903
▁ዘጉት፡፡	-10.2903
▁ዘግተው	-10.2903
▁ዘግናኝ	-10.2903
▁ዘግናኝነት	-10.2903
▁ዛየር፣	-10.2903
▁ዜጋ	-10.2903
▁ዜጎቻቸውን	-10.2903
▁ዝርዝሩ	-10.2903
▁ዝርዝርም	-10.2903
▁ዝርያ	-10.2903
▁ዝነኛ	-10.2903
▁ዝናቡ	-10.2903
▁ዞረው	-10.2903
▁ዠቅ	-10.2903
▁ዣኔትን	-10.2903
▁የ	-10.2903
▁የ12ኛ	-10.2903
▁የ18	-10.2903
▁የ1994	-10.2903
▁የ20ኛውን	-10.2903
▁የሁለት	-10.2903
▁የሁቱዎች	-10.2903
▁የሃይማኖት	-10.2903
▁የሆነበት	-10.2903
▁የሆነች	-10.2903
▁የሆነን	-10.2903
▁የሆንኩ	-10.2903
▁የለም፤	-10.2903
▁የለም››	-10.2903
▁የለበትም፡፡	-10.2903
▁የለብሽም	-10.2903
▁የለብንም፡፡	-10.2903
▁የለውም፡፡	-10.2903
▁የለዎትም፣	-10.2903
▁የለገሳችሁኝ	-10.2903
▁የለ፣	-10.2903
▁የሌለ	-10.2903
▁የሌሊት	-10.2903
▁የሌሎች	-10.2903
▁የልቤን	-10.2903
▁የልጃገረዶች	-10.2903
▁የልጅ	-10.2903
▁የሐሰት	-10.2903
▁የሕመም	-10.2903
▁የሕክምና	-10.2903
▁የሕይወቴን	-10.2903
▁የመልዕክት	-10.2903
▁የመረመሩ	-10.2903
▁የመራራት	-10.2903
▁የመሰለው	-10.2903
▁የመስጠቱ	-10.2903
▁የመቁጠሪያው	-10.2903
▁የመንደራችን	-10.2903
▁የመንግሥትን	-10.2903
▁የመጀመሪያዎቹ	-10.2903
▁የመግለጻቸውን	-10.2903
▁የመጡ	-10.2903
▁የመጡትን	-10.2903
▁የመጣሁት	-10.2903
▁የመጣው	-10.2903
▁የመጣው፡፡	-10.2903
▁የመጤ	-10.2903
▁የመጨረሻዋ	-10.2903
▁የመጽሐፍ	-10.2903
▁የመፈወስ	-10.2903
▁የሙዝ	-10.2903
▁የሚመች	-10.2903
▁የሚመደቡ	-10.2903
▁የሚመገቡ፣	-10.2903
▁የሚሠራ	-10.2903
▁የሚረብሽ	-10.2903
▁የሚሰማው	-10.2903
▁የሚሰሩት	-10.2903
▁የሚሰራው	-10.2903
▁የሚሰጠው	-10.2903
▁የሚሰጡት	-10.2903
▁የሚቀጥሉት?	-10.2903
▁የሚቆጠር	-10.2903
▁የሚበቃውን	-10.2903
▁የሚተረጎም	-10.2903
▁የሚተርክ	-10.2903
▁የሚተሳሰቡበትና	-10.2903
▁የሚተፋ	-10.2903
▁የሚታሰቡትን	-10.2903
▁የሚታወሰኝም	-10.2903
▁የሚታይበት	-10.2903
▁የሚችልበት	-10.2903
▁የሚችልበትን	-10.2903
▁የሚችልን	-10.2903
▁የሚነሱት	-10.2903
▁የሚነካና	-10.2903
▁የሚነግሯቸውን	-10.2903
▁የሚንጸባረቅበትና	-10.2903
▁የሚከለክል	-10.2903
▁የሚከራከሩ	-10.2903
▁የሚከባበሩበት፣	-10.2903
▁የሚከብድ	-10.2903
▁የሚከተሉት	-10.2903
▁የሚከትፈው?	-10.2903
▁የሚወልደውን	-10.2903
▁የሚወርደው	-10.2903
▁የሚወቅጠው?	-10.2903
▁የሚወተውቱ	-10.2903
▁የሚወድ	-10.2903
▁የሚያልቅበት	-10.2903
▁የሚያምን፣	-10.2903
▁የሚያሠራጯቸው	-10.2903
▁የሚያረጋግጥ	-10.2903
▁የሚያረጋግጥ››	-10.2903
▁የሚያርበደብድ	-10.2903
▁የሚያሳምም	-10.2903
▁የሚያሳየውን	-10.2903
▁የሚያሳዩ	-10.2903
▁የሚያሳድጉት	-10.2903
▁የሚያስብለኝ	-10.2903
▁የሚያስታውሰን	-10.2903
▁የሚያስከትለውን	-10.2903
▁የሚያስጨንቅ	-10.2903
▁የሚያስፈልጋቸውን	-10.2903
▁የሚያሻሽሉልኝን	-10.2903
▁የሚያነሳውን	-10.2903
▁የሚያንገፈግፋቸውና	-10.2903
▁የሚያንጸባርቅ	-10.2903
▁የሚያውለው	-10.2903
▁የሚያውቀው	-10.2903
▁የሚያውቁት	-10.2903
▁የሚያደርገው	-10.2903
▁የሚያደርገው)፣	-10.2903
▁የሚያደርገው?	-10.2903
▁የሚያደርግና	-10.2903
▁የሚያድኗት	-10.2903
▁የሚያጠፋላቸውን	-10.2903
▁የሚይዝና	-10.2903
▁የሚደርሰውን	-10.2903
▁የሚገልጸውን	-10.2903
▁የሚገልጽ	-10.2903
▁የሚገርም	-10.2903
▁የሚገባው	-10.2903
▁የሚገባውን	-10.2903
▁የሚገኙ	-10.2903
▁የሚገዙ	-10.2903
▁የሚገደል	-10.2903
▁የሚገፋው፣	-10.2903
▁የሚጠሉ	-10.2903
▁የሚጠሉና	-10.2903
▁የሚጠሯትም	-10.2903
▁የሚጠቀሱ	-10.2903
▁የሚጠናወታቸው	-10.2903
▁የሚጠጉ	-10.2903
▁የሚጥል?	-10.2903
▁የሚፈልጉ	-10.2903
▁የሚፈነዳ	-10.2903
▁የሚፈጥሩ	-10.2903
▁የማለዳው	-10.2903
▁የማላውቀውን	-10.2903
▁የማልመውን	-10.2903
▁የማልችላቸውን	-10.2903
▁የማምለጫ	-10.2903
▁የማምለጫው	-10.2903
▁የማራገብ	-10.2903
▁የማሰላስልበትና	-10.2903
▁የማስጠንቀቂያ	-10.2903
▁የማቆየትን	-10.2903
▁የማኅበረሰባችንን	-10.2903
▁የማውቅበት	-10.2903
▁የማየት	-10.2903
▁የማየው	-10.2903
▁የማያሳይና	-10.2903
▁የማያድኑት	-10.2903
▁የማይሞላ	-10.2903
▁የማይሞላላቸውን	-10.2903
▁የማይረበሽ	-10.2903
▁የማይታሰቡ	-10.2903
▁የማይቻል	-10.2903
▁የማይነግረን	-10.2903
▁የማይናወጥ	-10.2903
▁የማይገኝለት	-10.2903
▁የማይጠገቡት	-10.2903
▁የማገኘው	-10.2903
▁የማገዝ	-10.2903
▁የማጉላትና	-10.2903
▁የምሄደው	-10.2903
▁የምሄድበት	-10.2903
▁የምስጋና	-10.2903
▁የምሽቱ	-10.2903
▁የምሽጉን	-10.2903
▁የምታውቀው	-10.2903
▁የምትሆን	-10.2903
▁የምትለው	-10.2903
▁የምትመስለውን	-10.2903
▁የምትመግበንን	-10.2903
▁የምትዪው?››	-10.2903
▁የምችል	-10.2903
▁የምኅረትን	-10.2903
▁የምነጋገርበት፣	-10.2903
▁የምናገረው	-10.2903
▁የምንረግጠው	-10.2903
▁የምንሸክፈው	-10.2903
▁የምንችልበት	-10.2903
▁የምንከባከብበት	-10.2903
▁የምንገደለው!››	-10.2903
▁የምወዳቸውን	-10.2903
▁የምፈራው	-10.2903
▁የሞቱ	-10.2903
▁የሞቱት	-10.2903
▁የሞት	-10.2903
▁የሠለጠኑት	-10.2903
▁የሠራ	-10.2903
▁የሥም	-10.2903
▁የረዳት	-10.2903
▁የሩአጉ	-10.2903
▁የሩዝና	-10.2903
▁የራስህ	-10.2903
▁የራስሽ	-10.2903
▁የራስን	-10.2903
▁የሬሳ	-10.2903
▁የርዕሰ-ብሔር	-10.2903
▁የሰማሁትን	-10.2903
▁የሰበከው	-10.2903
▁የሰብአዊ	-10.2903
▁የሰነዘሩት	-10.2903
▁የሰውነታቸውን	-10.2903
▁የሰውነታችን	-10.2903
▁የሰውነቴን	-10.2903
▁የሰዓት	-10.2903
▁የሰጠ	-10.2903
▁የሰጡኝን	-10.2903
▁የሳመኝ	-10.2903
▁የሳትኩ	-10.2903
▁የስሜት	-10.2903
▁የስም	-10.2903
▁የስቃይዋ	-10.2903
▁የሸሚዙን	-10.2903
▁የሹክሹክታ	-10.2903
▁የሽምግልና	-10.2903
▁የቀረበችኝን	-10.2903
▁የቀሩትን	-10.2903
▁የቀሰምኩበት	-10.2903
▁የቀበረ	-10.2903
▁የቀጠፈው	-10.2903
▁የቁም	-10.2903
▁የቃላቱ	-10.2903
▁የቃላት	-10.2903
▁የቄስ	-10.2903
▁የቅዠት	-10.2903
▁የቆረጡትን	-10.2903
▁የቆሻሻ	-10.2903
▁የቆየ	-10.2903
▁የቋንቋው	-10.2903
▁የበላይ	-10.2903
▁የበርካታ	-10.2903
▁የበቀለችውና	-10.2903
▁የበቃች	-10.2903
▁የቤተሰቧ	-10.2903
▁የቤታችን	-10.2903
▁የብሔር	-10.2903
▁የቦን	-10.2903
▁የቦንን	-10.2903
▁የቧንቧ	-10.2903
▁የተለመደ	-10.2903
▁የተለዩትን	-10.2903
▁የተመለሰችው	-10.2903
▁የተመሠረቱ	-10.2903
▁የተመሰረተና	-10.2903
▁የተመዱን	-10.2903
▁የተመድ3	-10.2903
▁የተመድን	-10.2903
▁የተማረ	-10.2903
▁የተማሩ	-10.2903
▁የተሞላበት	-10.2903
▁የተረኩት	-10.2903
▁የተረጎምኩት	-10.2903
▁የተሰበረ	-10.2903
▁የተሰነጣጠቀች	-10.2903
▁የተሰኘው	-10.2903
▁የተሳተፈበትና	-10.2903
▁የተሸከርካሪው	-10.2903
▁የተሻለች	-10.2903
▁የተቀላቀለ	-10.2903
▁የተቀመጠ	-10.2903
▁የተቀመጠችው	-10.2903
▁የተቀደሰ	-10.2903
▁የተበረከተላት	-10.2903
▁የተባለ	-10.2903
▁የተተረጎመ	-10.2903
▁የተቸሩ	-10.2903
▁የተናገሩት	-10.2903
▁የተከሰተው	-10.2903
▁የተኩስ	-10.2903
▁የተካሄደባቸው	-10.2903
▁የተካሄደውና	-10.2903
▁የተወሳሰበ	-10.2903
▁የተዋወቅሁት	-10.2903
▁የተዘረጋ	-10.2903
▁የተዛቡ	-10.2903
▁የተደረገች	-10.2903
▁የተደራጁና	-10.2903
▁የተደበቀ	-10.2903
▁የተገኘ	-10.2903
▁የተገኘውን	-10.2903
▁የተገደለችውን	-10.2903
▁የተገደለችው፡፡	-10.2903
▁የተገደለው	-10.2903
▁የተገደሉበት	-10.2903
▁የተገደሉት፡፡	-10.2903
▁የተጠቀሙበት	-10.2903
▁የተጠቀሱት	-10.2903
▁የተጨፈጨፉ	-10.2903
▁የተጨፈጨፉበት	-10.2903
▁የተጻፉ	-10.2903
▁የተፈጁበትን	-10.2903
▁የተፈጥሮ	-10.2903
▁የተፈጸመበት	-10.2903
▁የተፈጸመባቸው	-10.2903
▁የተፈጸመውን	-10.2903
▁የቱትሲዋ	-10.2903
▁የቱትሲዎች	-10.2903
▁የታለመ	-10.2903
▁የታለፈው	-10.2903
▁የታሪክ	-10.2903
▁የታሸገ	-10.2903
▁የታየበት	-10.2903
▁የታደለችው	-10.2903
▁የትርጉሜን	-10.2903
▁የትርጉምን	-10.2903
▁የትንሣኤ	-10.2903
▁የትኛውም	-10.2903
▁የትግል	-10.2903
▁የቻለው	-10.2903
▁የችግሩ	-10.2903
▁የኅብረተሰብ	-10.2903
▁የነበረች	-10.2903
▁የነበረውና	-10.2903
▁የነበረ፣	-10.2903
▁የነበሩትንም	-10.2903
▁የነበርኩ	-10.2903
▁የነባርና	-10.2903
▁የነገረችኝ፡፡	-10.2903
▁የናዚ	-10.2903
▁የናዚዎችና	-10.2903
▁የኔም	-10.2903
▁የንዴት	-10.2903
▁የአሊሹ	-10.2903
▁የአማርኛ	-10.2903
▁የአማርኛውን	-10.2903
▁የአማጽያኑ	-10.2903
▁የአሜሪካን	-10.2903
▁የአረፍተ	-10.2903
▁የአራዊትን	-10.2903
▁የአርመኖች	-10.2903
▁የአሳቢነትና	-10.2903
▁የአባባን	-10.2903
▁የአና	-10.2903
▁የአንባቢውን	-10.2903
▁የአካባቢያችን	-10.2903
▁የአክስቴ	-10.2903
▁የአክብሮት	-10.2903
▁የአየሩም	-10.2903
▁የአደን	-10.2903
▁የአዲሲቷ	-10.2903
▁የአድናቆት	-10.2903
▁የአፍሪካ	-10.2903
▁የእርስዎን	-10.2903
▁የእርሷ	-10.2903
▁የእርሷን	-10.2903
▁የእርሻ	-10.2903
▁የእባብ	-10.2903
▁የእንኳን	-10.2903
▁የእንግሊዝኛን	-10.2903
▁የእንግሊዝኛውንና	-10.2903
▁የእኛን	-10.2903
▁የእያንዳንዳችን	-10.2903
▁የእጃቸውን	-10.2903
▁የእፎይታ	-10.2903
▁የከበበኝን	-10.2903
▁የከፋውን	-10.2903
▁የካምቦዲያው	-10.2903
▁የክልልና	-10.2903
▁የክርስቶፈር	-10.2903
▁የክብር	-10.2903
▁የክፍል	-10.2903
▁የኮንጎ	-10.2903
▁የወላጆቻቸውን	-10.2903
▁የወላጆቼ	-10.2903
▁የወርቅ	-10.2903
▁የወታደር	-10.2903
▁የወንድሞቼን	-10.2903
▁የወደፊቱን	-10.2903
▁የወጣት	-10.2903
▁የውሰት	-10.2903
▁የውስጥ	-10.2903
▁የውይይት	-10.2903
▁የዚህች	-10.2903
▁የዚህችን	-10.2903
▁የዚች	-10.2903
▁የዚያ	-10.2903
▁የዜግነት	-10.2903
▁የዢን	-10.2903
▁የየራሳችን	-10.2903
▁የዩኒቨርሲቲን	-10.2903
▁የያዘ	-10.2903
▁የይቅርታና	-10.2903
▁የዮሃንስን	-10.2903
▁የደም	-10.2903
▁የደረሰባቸው	-10.2903
▁የደረሰብንን	-10.2903
▁የደረሱበት	-10.2903
▁የዳኘ	-10.2903
▁የድሆችንና	-10.2903
▁የድረሱልኝ	-10.2903
▁የጄኖሳይድ	-10.2903
▁የጆሮ	-10.2903
▁የገረፋትን	-10.2903
▁የገባቸው	-10.2903
▁የገደሉ	-10.2903
▁የገደሏቸውን	-10.2903
▁የጊዜ	-10.2903
▁የጋቻቻ4	-10.2903
▁የጌታ	-10.2903
▁የጌታዬ	-10.2903
▁የግብረገብ	-10.2903
▁የጎሣ፣	-10.2903
▁የጎረቤቶቼን	-10.2903
▁የጠለቀ	-10.2903
▁የጠቀሰችው	-10.2903
▁የጠበቀ	-10.2903
▁የጠየኩትን	-10.2903
▁የጣት	-10.2903
▁የጥቁር	-10.2903
▁የጥቃቶቻቸው	-10.2903
▁የጦርነት	-10.2903
▁የጨረሰው	-10.2903
▁የጭስ	-10.2903
▁የጭፍጨፋ	-10.2903
▁የጻፈችው	-10.2903
▁የጽድ	-10.2903
▁የፈለግሁት	-10.2903
▁የፈረንሳውያኑ	-10.2903
▁የፈረንሳዩ	-10.2903
▁የፈረንሳይኛ	-10.2903
▁የፈሩ	-10.2903
▁የፈራረሱ	-10.2903
▁የፈጸሙትም	-10.2903
▁የፍርድ	-10.2903
▁የፍጅቱን	-10.2903
▁የፎሶሊያ	-10.2903
▁ዩኒቨርሲቲዎች	-10.2903
▁ዩናሚር	-10.2903
▁ዩናይትድ	-10.2903
▁ያህልም	-10.2903
▁ያለሁ	-10.2903
▁ያለመኖር	-10.2903
▁ያለብን	-10.2903
▁ያለብኝ	-10.2903
▁ያለብኝ፡፡	-10.2903
▁ያለንበትን	-10.2903
▁ያለውና	-10.2903
▁ያለው፤	-10.2903
▁ያለዚያ	-10.2903
▁ያለፈው	-10.2903
▁ያለፍኩት	-10.2903
▁ያሉትን፡፡	-10.2903
▁ያሉና	-10.2903
▁ያላችሁት፡፡	-10.2903
▁ያልሆኑት	-10.2903
▁ያልተለመደ	-10.2903
▁ያልተጠቀመባቸው?››	-10.2903
▁ያልተፈጸመ	-10.2903
▁ያመለጡት	-10.2903
▁ያምጡት፡፡››	-10.2903
▁ያሠራል፡፡	-10.2903
▁ያረዱትንም	-10.2903
▁ያርዳ	-10.2903
▁ያሰለጥናሉ፡፡	-10.2903
▁ያሰበልኝ	-10.2903
▁ያሰብኩት	-10.2903
▁ያሰኘኛል፡፡	-10.2903
▁ያሰጥመናል፡፡	-10.2903
▁ያሳስበዋል፡፡	-10.2903
▁ያሳያሉ፡፡	-10.2903
▁ያሳያል፡፡	-10.2903
▁ያስባሉ፡፡	-10.2903
▁ያስተምረናል፡፡	-10.2903
▁ያስደስተኝ	-10.2903
▁ያስገነዝበናል፡፡	-10.2903
▁ያስገድዳል፡፡	-10.2903
▁ያስፈልገናል፡፡	-10.2903
▁ያቀናበረው	-10.2903
▁ያቅዱ	-10.2903
▁ያበጅለት	-10.2903
▁ያባረራቸውን	-10.2903
▁ያብዛልን!	-10.2903
▁ያተኮረበት	-10.2903
▁ያችን	-10.2903
▁ያነሰ	-10.2903
▁ያነሳሳል	-10.2903
▁ያንተን	-10.2903
▁ያንተው	-10.2903
▁ያካሄደው	-10.2903
▁ያኮራኛል፡፡	-10.2903
▁ያወደመውን	-10.2903
▁ያወጣ	-10.2903
▁ያውቃሉ	-10.2903
▁ያውቃሉ፡፡	-10.2903
▁ያውቅ	-10.2903
▁ያዘጋጇቸዋል፡፡	-10.2903
▁ያዘ፡፡	-10.2903
▁ያዙ፡፡	-10.2903
▁ያዝኩና	-10.2903
▁ያዝኩ፤	-10.2903
▁ያየኋቸው	-10.2903
▁ያየነው	-10.2903
▁ያየውን	-10.2903
▁ያደረገ	-10.2903
▁ያደረገው	-10.2903
▁ያደረጉ	-10.2903
▁ያደረጉት	-10.2903
▁ያደረግሁት	-10.2903
▁ያደረጓት	-10.2903
▁ያደራጁ	-10.2903
▁ያደርጉ	-10.2903
▁ያደርጉታል፡፡	-10.2903
▁ያደርጋሉ	-10.2903
▁ያደርጋሉ፡፡	-10.2903
▁ያገኘሁት	-10.2903
▁ያገኘው	-10.2903
▁ያገኙ	-10.2903
▁ያጠቃልላል፡፡	-10.2903
▁ይሁንልኝ፡፡	-10.2903
▁ይሂዱ	-10.2903
▁ይሄዳል፡፡	-10.2903
▁ይህንንም	-10.2903
▁ይሆናል››	-10.2903
▁ይሆን?››	-10.2903
▁ይለናል	-10.2903
▁ይለዋል፡፡	-10.2903
▁ይላሉ	-10.2903
▁ይላል	-10.2903
▁ይል	-10.2903
▁ይልቁንም	-10.2903
▁ይልና	-10.2903
▁ይሏቸው	-10.2903
▁ይመር	-10.2903
▁ይመስላል	-10.2903
▁ይመስገን	-10.2903
▁ይመጡና	-10.2903
▁ይመጣል፡፡	-10.2903
▁ይረዳ	-10.2903
▁ይሰማል፡፡	-10.2903
▁ይሰማል፤	-10.2903
▁ይሰማናል፡፡	-10.2903
▁ይሰማን	-10.2903
▁ይሰማኛል	-10.2903
▁ይሰጡናል፡፡	-10.2903
▁ይሰጡኝ	-10.2903
▁ይቁጠረው!	-10.2903
▁ይብሱኑ	-10.2903
▁ይተካዋል፡፡	-10.2903
▁ይታዩኛል	-10.2903
▁ይታያል፡፡	-10.2903
▁ይታይ	-10.2903
▁ይታገሣል፣	-10.2903
▁ይችሉ	-10.2903
▁ይችላሉ፡፡››	-10.2903
▁ይችላል?	-10.2903
▁ይናገራሉ	-10.2903
▁ይናፍቁኝ	-10.2903
▁ይንገሩኝ	-10.2903
▁ይኖሩባታል	-10.2903
▁ይኖራሉ፡፡	-10.2903
▁ይኖራል	-10.2903
▁ይኖር	-10.2903
▁ይከብሃል፡፡	-10.2903
▁ይኩራሩማል፡፡	-10.2903
▁ይካሄድ	-10.2903
▁ይዋጋ	-10.2903
▁ይዘዋወራሉ፡፡	-10.2903
▁ይዘውን	-10.2903
▁ይዛ	-10.2903
▁ይዞ፣	-10.2903
▁ይዟት	-10.2903
▁ይዤ፡፡	-10.2903
▁ይደረጋል፡፡	-10.2903
▁ይደርሳል፡፡	-10.2903
▁ይደግፈኛል፡፡	-10.2903
▁ይድረስህ፡፡	-10.2903
▁ይድረስልኝ፡፡	-10.2903
▁ይድነቃቸው	-10.2903
▁ይጀምራሉ፡፡	-10.2903
▁ይገልጻሉ፡፡	-10.2903
▁ይገልጻቸዋል	-10.2903
▁ይገባል፡፡	-10.2903
▁ይገባል፤	-10.2903
▁ይገባቸዋል	-10.2903
▁ይገባችኋል	-10.2903
▁ይገባኛል	-10.2903
▁ይገባኝና	-10.2903
▁ይገድሉናል፡፡››	-10.2903
▁ይገድሉኛል...	-10.2903
▁ይጋርድሃል፣	-10.2903
▁ይግባህ!	-10.2903
▁ይግባሽ፡፡	-10.2903
▁ይግባውና	-10.2903
▁ይጎዳብኛል	-10.2903
▁ይጠለፍብኛል	-10.2903
▁ይጠርግላቸዋል፡፡	-10.2903
▁ይጠብቁት	-10.2903
▁ይጠብቃል፡፡	-10.2903
▁ይጨፈጭፋሉ፡፡	-10.2903
▁ይጮሃሉ፡፡	-10.2903
▁ይፈረጃሉ፡፡	-10.2903
▁ይፈርጁና	-10.2903
▁ይፈጸማል›፣	-10.2903
▁ይፈጸም	-10.2903
▁ይፈጽማሉ፡፡	-10.2903
▁ይፈጽም	-10.2903
▁ደ	-10.2903
▁ደመና	-10.2903
▁ደምስሶ	-10.2903
▁ደረሰ	-10.2903
▁ደረቴን	-10.2903
▁ደሴት	-10.2903
▁ደስተኝነት	-10.2903
▁ደስታችን	-10.2903
▁ደብቆ	-10.2903
▁ደብተሬን	-10.2903
▁ደብዳቤዎች	-10.2903
▁ደብዳቤዬ	-10.2903
▁ደነገጡ	-10.2903
▁ደከም	-10.2903
▁ደክሞን፣	-10.2903
▁ደወል	-10.2903
▁ደደብ	-10.2903
▁ደገፍ	-10.2903
▁ደጋግመው	-10.2903
▁ደጋግሜ	-10.2903
▁ደግነት፣	-10.2903
▁ደግና	-10.2903
▁ደግ፣	-10.2903
▁ደፋሪዎች	-10.2903
▁ዱብ	-10.2903
▁ዲሞክራሲያዊ	-10.2903
▁ዲያቢሎስ	-10.2903
▁ዲያብሎስን	-10.2903
▁ዳማሲንንም	-10.2903
▁ዳርፉርም	-10.2903
▁ዳኒዳ	-10.2903
▁ዳንኤልን	-10.2903
▁ዳኞቹ	-10.2903
▁ዳዊት	-10.2903
▁ዳግመኛ	-10.2903
▁ዳግማዊ	-10.2903
▁ድል	-10.2903
▁ድምጼ	-10.2903
▁ድምፅና	-10.2903
▁ድርድር	-10.2903
▁ድርድሮችና	-10.2903
▁ድርጊታቸውም	-10.2903
▁ድርጊታችን	-10.2903
▁ድርጊቶቹን	-10.2903
▁ድርጊቶቻችንን	-10.2903
▁ድቅን	-10.2903
▁ድብቅ	-10.2903
▁ድኅነት	-10.2903
▁ድንገተኛ	-10.2903
▁ድንገትም	-10.2903
▁ድንጋጤ	-10.2903
▁ድው	-10.2903
▁ድድብና	-10.2903
▁ድግስ	-10.2903
▁ዶክትሬት	-10.2903
▁ዶግስ፣	-10.2903
▁ዶፍ	-10.2903
▁ጀመረች፡፡	-10.2903
▁ጀመሩ፡፡	-10.2903
▁ጀመርኩ፤	-10.2903
▁ጀምራ	-10.2903
▁ጀርባውን	-10.2903
▁ገለጻና	-10.2903
▁ገለጽኩለት፡፡	-10.2903
▁ገላዬ፡፡	-10.2903
▁ገላጭ	-10.2903
▁ገላጭነት፣	-10.2903
▁ገመትኩ፡፡	-10.2903
▁ገማመሰው፡፡	-10.2903
▁ገረመኝ፡፡	-10.2903
▁ገረመው	-10.2903
▁ገረፍ	-10.2903
▁ገበየሁ	-10.2903
▁ገቢ	-10.2903
▁ገባሁ፤	-10.2903
▁ገባች	-10.2903
▁ገነትን	-10.2903
▁ገንቢ	-10.2903
▁ገንዘብም	-10.2903
▁ገደብ	-10.2903
▁ገደብ-የለሽ	-10.2903
▁ገዳዩ	-10.2903
▁ገዳይ፡፡	-10.2903
▁ገዳዮችም	-10.2903
▁ገዳዮችና	-10.2903
▁ገዳዮችን	-10.2903
▁ገድለዋል››	-10.2903
▁ገጀራው	-10.2903
▁ገጀራዎች	-10.2903
▁ገጸ-በረከቱ	-10.2903
▁ገፋፋሁት፡፡	-10.2903
▁ገፋፍቷቸዋል፡፡	-10.2903
▁ጉራማይሌ	-10.2903
▁ጉዳይና	-10.2903
▁ጉዳዮች	-10.2903
▁ጊዜያችን	-10.2903
▁ጊዜያችንን	-10.2903
▁ጋርቪ	-10.2903
▁ጋር፤	-10.2903
▁ጋሼ፣	-10.2903
▁ጋዜጠኛ	-10.2903
▁ጋዜጠኛና	-10.2903
▁ጋዝ	-10.2903
▁ጌሾ	-10.2903
▁ጌታቸው	-10.2903
▁ጌጤ	-10.2903
▁ግል	-10.2903
▁ግሪጎሪ	-10.2903
▁ግራና	-10.2903
▁ግርፋት	-10.2903
▁ግቢና	-10.2903
▁ግብዓት	-10.2903
▁ግንቦት	-10.2903
▁ግንኙነትም	-10.2903
▁ግንዛቤዬን	-10.2903
▁ግንድ	-10.2903
▁ግዙፍና	-10.2903
▁ግደሏቸው	-10.2903
▁ግዳይ	-10.2903
▁ግድያቸውን	-10.2903
▁ግድያን	-10.2903
▁ግድያዎችና	-10.2903
▁ግድያዎችን	-10.2903
▁ግጥም	-10.2903
▁ግጭት	-10.2903
▁ግጭቶችን	-10.2903
▁ግፍ	-10.2903
▁ጎረቤት	-10.2903
▁ጎራዎች	-10.2903
▁ጎሳ	-10.2903
▁ጎሳና	-10.2903
▁ጎትተው	-10.2903
▁ጎንበስ	-10.2903
▁ጓደኛም	-10.2903
▁ጓደኛዬ፣	-10.2903
▁ጓደኞቹን	-10.2903
▁ጓደኞቻችን	-10.2903
▁ጓደኞች	-10.2903
▁ጓደኞችን	-10.2903
▁ጓደኞቿ	-10.2903
▁ጓድ	-10.2903
▁ጠላቻ	-10.2903
▁ጠመንጃና	-10.2903
▁ጠመንጃዎቻቸውን	-10.2903
▁ጠመንጃዎችና	-10.2903
▁ጠመንጃዎችን	-10.2903
▁ጠቃሚ	-10.2903
▁ጠቆሙና	-10.2903
▁ጠበቅ	-10.2903
▁ጠበቅሁ፡፡	-10.2903
▁ጠብቁኝ፤	-10.2903
▁ጠንቅ	-10.2903
▁ጠንቆች	-10.2903
▁ጠንካራም	-10.2903
▁ጠንክሬ	-10.2903
▁ጠየቀው፡፡	-10.2903
▁ጠየቅኋቸው፡፡	-10.2903
▁ጠየኩት	-10.2903
▁ጠየኳት፡፡	-10.2903
▁ጠይቄያቸው	-10.2903
▁ጠገብና	-10.2903
▁ጠጋ	-10.2903
▁ጠፋ፣	-10.2903
▁ጢል	-10.2903
▁ጣቶቼ	-10.2903
▁ጣጣ	-10.2903
▁ጤናማ	-10.2903
▁ጤዛ	-10.2903
▁ጥላቸውን	-10.2903
▁ጥላቻ፣	-10.2903
▁ጥሎባቸው	-10.2903
▁ጥርሱ	-10.2903
▁ጥርቅም	-10.2903
▁ጥርጣሬም	-10.2903
▁ጥሻ	-10.2903
▁ጥቅሶች	-10.2903
▁ጥናት	-10.2903
▁ጥንካሬው	-10.2903
▁ጥያቄዎችን	-10.2903
▁ጥጋት፡፡	-10.2903
▁ጥፋተኛ	-10.2903
▁ጥፋትነቱ?›	-10.2903
▁ጦርነቱም	-10.2903
▁ጦርና	-10.2903
▁ጦር፣	-10.2903
▁ጦስ	-10.2903
▁ጨረስኩ፡፡	-10.2903
▁ጨረቃ	-10.2903
▁ጨበጥ	-10.2903
▁ጨፈንኩ፡፡	-10.2903
▁ጨፈንኳቸው፤	-10.2903
▁ጨፍጫፊዎችና	-10.2903
▁ጩኸቱን	-10.2903
▁ጩኸቶች	-10.2903
▁ጫና	-10.2903
▁ጫካዎቿ	-10.2903
▁ጭብጥ	-10.2903
▁ጭኖች	-10.2903
▁ጭፍን	-10.2903
▁ጭፍጨፋና	-10.2903
▁ጮህኩ	-10.2903
▁ጮኸበት፡፡	-10.2903
▁ጸለይን፡፡	-10.2903
▁ጸለይኩ	-10.2903
▁ጸለይኩ፣	-10.2903
▁ጸለይኩ፤	-10.2903
▁ጸልያለሁ፡፡	-10.2903
▁ጸልዬበት	-10.2903
▁ጸልዬአለሁ፡፡	-10.2903
▁ጸሎቴ	-10.2903
▁ጸሎትም	-10.2903
▁ጸሎቶቼን	-10.2903
▁ጸጉሩ	-10.2903
▁ጸጉራችንን	-10.2903
▁ጸጋ	-10.2903
▁ጽ/ቤት	-10.2903
▁ጽሑፎችን	-10.2903
▁ጽሕፈት	-10.2903
▁ጽናት	-10.2903
▁ጽናትና	-10.2903
▁ጽናቷ	-10.2903
▁ጽንፈኝነት	-10.2903
▁ጽዋ	-10.2903
▁ጽፈውልኛል፡፡	-10.2903
▁ፈለገ	-10.2903
▁ፈለግሁ፣	-10.2903
▁ፈልቅቆ	-10.2903
▁ፈረንሳውያንን	-10.2903
▁ፈረንሳዮች	-10.2903
▁ፈራን፡፡	-10.2903
▁ፈርተን	-10.2903
▁ፈርጆ	-10.2903
▁ፈተናውን	-10.2903
▁ፈተናዎቼ	-10.2903
▁ፈተናዎች	-10.2903
▁ፈታኝ	-10.2903
▁ፈንታችን	-10.2903
▁ፈንታዬ	-10.2903
▁ፈንታዬን	-10.2903
▁ፈንጂዎች	-10.2903
▁ፈጁ	-10.2903
▁ፈገግታውን	-10.2903
▁ፈጠጡ)፡፡	-10.2903
▁ፈጠጡ፡፡	-10.2903
▁ፈጣሪዬ	-10.2903
▁ፊልሞች	-10.2903
▁ፊተኛው	-10.2903
▁ፊቶቻቸውን	-10.2903
▁ፊቶች፡፡	-10.2903
▁ፊቷን	-10.2903
▁ፋሪ፣	-10.2903
▁ፍልቅልቅ	-10.2903
▁ፍሎሬንስና	-10.2903
▁ፍም	-10.2903
▁ፍራቻችንን	-10.2903
▁ፍራንክል፣	-10.2903
▁ፍራንክን	-10.2903
▁ፍራንክ›	-10.2903
▁ፍራይስ	-10.2903
▁ፍርሃትና	-10.2903
▁ፍቅራችን	-10.2903
▁ፍትሃዊ	-10.2903
▁ፍንክች	-10.2903
▁ፍጅትንና	-10.2903
▁ፍጅቶች	-10.2903
▁ፍጠኑ!››	-10.2903
▁ፎሶሊያ	-10.2903
▁ፎጣዬን	-10.2903
▁ፒ.ኤች.ዲ፣	-10.2903
▁ፖሊሲዎችን	-10.2903
▁ፖልንና	-10.2903
▁ፖት	-10.2903
▁፩	-10.2903
▁‹ሩዋንዳዊቷ	-10.2903
▁‹በረሮ›	-10.2903
▁‹ቱትሲዎች	-10.2903
▁‹ቱትሲ›	-10.2903
▁‹አይፈጸምም›	-10.2903
▁‹እየገደልን	-10.2903
▁‹ፍጅት	-10.2903
▁‹‹ሁሉንም	-10.2903
▁‹‹ሁቱ	-10.2903
▁‹‹ሊኦናርድ	-10.2903
▁‹‹ሊኦናርድ!	-10.2903
▁‹‹ልቤ	-10.2903
▁‹‹ምናልባት	-10.2903
▁‹‹ምንድነው	-10.2903
▁‹‹ቃል	-10.2903
▁‹‹ቆንጆዋ	-10.2903
▁‹‹በሬድዮ	-10.2903
▁‹‹በእግዚአብሔር	-10.2903
▁‹‹በዚህ	-10.2903
▁‹‹በጄ፣	-10.2903
▁‹‹ባዶ	-10.2903
▁‹‹ቦምቦችንና	-10.2903
▁‹‹ተስፋ	-10.2903
▁‹‹ቱትሲዎቹ	-10.2903
▁‹‹ቱትሲዎችን	-10.2903
▁‹‹ትዋዛን	-10.2903
▁‹‹ችግር	-10.2903
▁‹‹አሎይዜ	-10.2903
▁‹‹አመሰግናለሁ	-10.2903
▁‹‹አምላኬ	-10.2903
▁‹‹አባባ	-10.2903
▁‹‹አትጨነቂ	-10.2903
▁‹‹አንድን	-10.2903
▁‹‹አእምሮዬን	-10.2903
▁‹‹አዬ፣	-10.2903
▁‹‹አይ!	-10.2903
▁‹‹አይ...	-10.2903
▁‹‹አዳምጭኝ	-10.2903
▁‹‹ኢማኪዩሌ!	-10.2903
▁‹‹ኤይማብል	-10.2903
▁‹‹እርስዎ	-10.2903
▁‹‹እባክዎን	-10.2903
▁‹‹እቤት	-10.2903
▁‹‹እቤትሽ	-10.2903
▁‹‹እነዚያ	-10.2903
▁‹‹እና	-10.2903
▁‹‹እንደምን	-10.2903
▁‹‹እንደዚያ	-10.2903
▁‹‹እኛ	-10.2903
▁‹‹ከኛ	-10.2903
▁‹‹ካባዪ	-10.2903
▁‹‹ወላጆችሽ	-10.2903
▁‹‹ወንድሜ	-10.2903
▁‹‹ውጪ	-10.2903
▁‹‹ዢን	-10.2903
▁‹‹የሰውን	-10.2903
▁‹‹የኢማኪዩሌ	-10.2903
▁‹‹የዘላለማዊ	-10.2903
▁‹‹የዘር	-10.2903
▁‹‹የዳማሲንን	-10.2903
▁‹‹ያንን	-10.2903
▁‹‹ይቅርታ››	-10.2903
▁‹‹ይዘው	-10.2903
▁‹‹ጌታዬ	-10.2903
▁‹‹ጥሩ	-10.2903
▁‹‹ጥፋተኛ	-10.2903
▁‹‹ጦርነቱ	-10.2903
▁‹‹ጽንፈኛ	-10.2903
▁(1	-10.9834
▁(1-7ን)	-10.9834
▁(ሁሉም	-10.9834
▁(ለአብዛኞቹ	-10.9834
▁(ሊያዩን	-10.9834
▁(መጀመሪያ	-10.9834
▁(ሩአግ)	-10.9834
▁(በሀገሪቱ	-10.9834
▁(በኋላ	-10.9834
▁(በነገራችን	-10.9834
▁(በአማርኛ	-10.9834
▁(ባቄላ፣	-10.9834
▁(ቤተሰቦቻችንን	-10.9834
▁(ቦን	-10.9834
▁(አባባ፣	-10.9834
▁(ኢሊባጊዛ)	-10.9834
▁(እቤቴ	-10.9834
▁(እንዲያውም	-10.9834
▁(እንዳያያዛቸውማ	-10.9834
▁(ከለችምና	-10.9834
▁(ከሴምቤባ	-10.9834
▁(ከደበቀቻቸው	-10.9834
▁(ወይም	-10.9834
▁(የተመድ)	-10.9834
▁(የኪቩ	-10.9834
▁(ይህ	-10.9834
▁-ብሔር	-10.9834
▁-ኮሌቲ	-10.9834
▁..	-10.9834
▁..................	-10.9834
▁...............................	-10.9834
▁...................................	-10.9834
▁.....................................	-10.9834
▁......................................	-10.9834
▁........................................	-10.9834
▁...............................................	-10.9834
▁................................................	-10.9834
▁.................................................	-10.9834
▁....................................................	-10.9834
▁............................................................	-10.9834
▁.............................................................	-10.9834
▁...............................................................	-10.9834
▁...................................................................	-10.9834
▁......................................................................	-10.9834
▁.............................................................................	-10.9834
▁..........................................................................................	-10.9834
▁.................................................................................................	-10.9834
▁...............................................................................................................	-10.9834
▁...................................................................................................................	-10.9834
▁....................................................................................................................	-10.9834
▁.....................................................................................................................	-10.9834
▁......................................................................................................................	-10.9834
▁100	-10.9834
▁102	-10.9834
▁103	-10.9834
▁104	-10.9834
▁105	-10.9834
▁106	-10.9834
▁108	-10.9834
▁10፡	-10.9834
▁112	-10.9834
▁116	-10.9834
▁117	-10.9834
▁118	-10.9834
▁11:	-10.9834
▁11፡	-10.9834
▁11፡23)፡፡	-10.9834
▁120	-10.9834
▁121	-10.9834
▁122	-10.9834
▁123	-10.9834
▁124	-10.9834
▁125	-10.9834
▁126	-10.9834
▁127	-10.9834
▁128	-10.9834
▁12:	-10.9834
▁130	-10.9834
▁131	-10.9834
▁132	-10.9834
▁133	-10.9834
▁134	-10.9834
▁135	-10.9834
▁136	-10.9834
▁137	-10.9834
▁139	-10.9834
▁13:	-10.9834
▁13፣	-10.9834
▁140	-10.9834
▁141	-10.9834
▁142	-10.9834
▁144	-10.9834
▁145	-10.9834
▁146	-10.9834
▁147	-10.9834
▁148	-10.9834
▁149	-10.9834
▁14:	-10.9834
▁151	-10.9834
▁152	-10.9834
▁154	-10.9834
▁155	-10.9834
▁156	-10.9834
▁157	-10.9834
▁158	-10.9834
▁159	-10.9834
▁15:	-10.9834
▁160	-10.9834
▁161	-10.9834
▁162	-10.9834
▁163	-10.9834
▁164	-10.9834
▁166	-10.9834
▁167	-10.9834
▁168	-10.9834
▁169	-10.9834
▁16:	-10.9834
▁171	-10.9834
▁172	-10.9834
▁173	-10.9834
▁174	-10.9834
▁175	-10.9834
▁176	-10.9834
▁177	-10.9834
▁178	-10.9834
▁179	-10.9834
▁17:	-10.9834
▁180	-10.9834
▁181	-10.9834
▁182	-10.9834
▁184	-10.9834
▁185	-10.9834
▁186	-10.9834
▁187	-10.9834
▁188	-10.9834
▁18:	-10.9834
▁190	-10.9834
▁191	-10.9834
▁192	-10.9834
▁193	-10.9834
▁194	-10.9834
▁195	-10.9834
▁196	-10.9834
▁197	-10.9834
▁1973ቱ	-10.9834
▁199	-10.9834
▁19:	-10.9834
▁1:	-10.9834
▁1፡80	-10.9834
▁200	-10.9834
▁2000	-10.9834
▁201	-10.9834
▁202	-10.9834
▁203	-10.9834
▁204	-10.9834
▁205	-10.9834
▁206	-10.9834
▁207	-10.9834
▁209	-10.9834
▁20:	-10.9834
▁210	-10.9834
▁211	-10.9834
▁212	-10.9834
▁213	-10.9834
▁214	-10.9834
▁216	-10.9834
▁217	-10.9834
▁218	-10.9834
▁21:	-10.9834
▁220	-10.9834
▁221	-10.9834
▁222	-10.9834
▁223	-10.9834
▁224	-10.9834
▁226	-10.9834
▁227	-10.9834
▁22:	-10.9834
▁230	-10.9834
▁231	-10.9834
▁233	-10.9834
▁234	-10.9834
▁235	-10.9834
▁237	-10.9834
▁23:	-10.9834
▁24)፡፡	-10.9834
▁24:	-10.9834
▁25	-10.9834
▁26	-10.9834
▁27	-10.9834
▁28	-10.9834
▁29	-10.9834
▁2:	-10.9834
▁300	-10.9834
▁31	-10.9834
▁32	-10.9834
▁33	-10.9834
▁34	-10.9834
▁35	-10.9834
▁36	-10.9834
▁37	-10.9834
▁38	-10.9834
▁39	-10.9834
▁3:	-10.9834
▁4-8)	-10.9834
▁42	-10.9834
▁43	-10.9834
▁44	-10.9834
▁45	-10.9834
▁46	-10.9834
▁47	-10.9834
▁47ቱ	-10.9834
▁48	-10.9834
▁4:	-10.9834
▁500	-10.9834
▁5000	-10.9834
▁51	-10.9834
▁53	-10.9834
▁54	-10.9834
▁56	-10.9834
▁57	-10.9834
▁58	-10.9834
▁59	-10.9834
▁5:	-10.9834
▁5፡00	-10.9834
▁62	-10.9834
▁63	-10.9834
▁65	-10.9834
▁66	-10.9834
▁67	-10.9834
▁68	-10.9834
▁69	-10.9834
▁6:	-10.9834
▁6፣	-10.9834
▁70	-10.9834
▁71	-10.9834
▁72	-10.9834
▁73	-10.9834
▁74	-10.9834
▁76	-10.9834
▁77	-10.9834
▁78	-10.9834
▁79	-10.9834
▁7:	-10.9834
▁7፣	-10.9834
▁81	-10.9834
▁82	-10.9834
▁84	-10.9834
▁86	-10.9834
▁87	-10.9834
▁88	-10.9834
▁89	-10.9834
▁8:	-10.9834
▁8፡00	-10.9834
▁90	-10.9834
▁92	-10.9834
▁93	-10.9834
▁95	-10.9834
▁96	-10.9834
▁97	-10.9834
▁98	-10.9834
▁99	-10.9834
▁9:	-10.9834
▁?	-10.9834
▁All	-10.9834
▁Blog	-10.9834
▁E-mail	-10.9834
▁Reserved!	-10.9834
▁Rights	-10.9834
▁mezemirethiopia.blogspot.com	-10.9834
▁mezemirgirma@gmail.com	-10.9834
▁©	-10.9834
▁ሀ.	-10.9834
▁ሀሉም	-10.9834
▁ሀገሩ	-10.9834
▁ሀገሪቷ	-10.9834
▁ሀገራቸውን	-10.9834
▁ሁለመናችን	-10.9834
▁ሁለመናዎን	-10.9834
▁ሁለተኛዋ	-10.9834
▁ሁለተኛው	-10.9834
▁ሁለተኛውን	-10.9834
▁ሁለታችሁ	-10.9834
▁ሁለታችን	-10.9834
▁ሁለንተናዊ	-10.9834
▁ሁለገብ	-10.9834
▁ሁሉ.....	-10.9834
▁ሁሉም!	-10.9834
▁ሁሉንም፡፡	-10.9834
▁ሁሉ፣	-10.9834
▁ሁሉ፤	-10.9834
▁ሁላ!	-10.9834
▁ሁላ!››	-10.9834
▁ሁላቸውም	-10.9834
▁ሁቱትሲን	-10.9834
▁ሁቱዋን	-10.9834
▁ሁቱዎችም	-10.9834
▁ሁኑ፡፡	-10.9834
▁ሁኑ፤	-10.9834
▁ሁናቴ	-10.9834
▁ሁናቴዎች	-10.9834
▁ሁኔታውን	-10.9834
▁ሁኔታዎቹን	-10.9834
▁ሁኔታ፣	-10.9834
▁ሁኚ፣	-10.9834
▁ሁከት	-10.9834
▁ሁከትንም	-10.9834
▁ሁካታውን	-10.9834
▁ሂትለርም	-10.9834
▁ሂያጅ	-10.9834
▁ሂደቱ	-10.9834
▁ሂደቱን	-10.9834
▁ሂደትም	-10.9834
▁ሂደቶችን	-10.9834
▁ሂዱ..	-10.9834
▁ሂዱ››	-10.9834
▁ሂድልኝ፡፡	-10.9834
▁ሂጂልኝ፡፡››	-10.9834
▁ሂጂና	-10.9834
▁ሂጂ፡፡	-10.9834
▁ሂጂ፡፡››	-10.9834
▁ሂጂ፤	-10.9834
▁ሂጅልኝ	-10.9834
▁ሃሳባቸውን	-10.9834
▁ሃሳቤ	-10.9834
▁ሃኪሞች	-10.9834
▁ሃዋዪ	-10.9834
▁ሃው	-10.9834
▁ሃዘኔታን	-10.9834
▁ሃያልነት	-10.9834
▁ሃይማኖተኛም	-10.9834
▁ሃይማኖትን	-10.9834
▁ሃፍረቴ	-10.9834
▁ሃፍረቴን፣	-10.9834
▁ሃፍረትና	-10.9834
▁ሄደ?›	-10.9834
▁ሄደሽ	-10.9834
▁ሄደንም	-10.9834
▁ሄደዋል....	-10.9834
▁ሄደዋል...ሄደዋል!››	-10.9834
▁ሄደዋል፡፡››	-10.9834
▁ሄደ፤	-10.9834
▁ሄዱ፡፡››	-10.9834
▁ሄዳ	-10.9834
▁ሄዳችሁ	-10.9834
▁ሄድኩና	-10.9834
▁ሄድኩ፤	-10.9834
▁ሄዶልን	-10.9834
▁ሄዷል፡፡	-10.9834
▁ሄዷል፡፡››	-10.9834
▁ህልሞቻችንን፡-	-10.9834
▁ህልሞቼ	-10.9834
▁ህልሞች	-10.9834
▁ህመሜ	-10.9834
▁ህመሞች	-10.9834
▁ህንዳዊቷን	-10.9834
▁ህዝባዊ	-10.9834
▁ህዝቦች	-10.9834
▁ህገወጥ	-10.9834
▁ህጎች	-10.9834
▁ህጎች!	-10.9834
▁ሆነ!	-10.9834
▁ሆነሃል?››	-10.9834
▁ሆነልኝ	-10.9834
▁ሆነሽ	-10.9834
▁ሆነሽብኛል››	-10.9834
▁ሆነች	-10.9834
▁ሆነች፤	-10.9834
▁ሆነናል፡፡	-10.9834
▁ሆነንም	-10.9834
▁ሆነን፡፡	-10.9834
▁ሆኑብኝ፡፡	-10.9834
▁ሆኑ፡፡	-10.9834
▁ሆናችሁ	-10.9834
▁ሆናችሁ?	-10.9834
▁ሆን	-10.9834
▁ሆንን!	-10.9834
▁ሆንን፡፡	-10.9834
▁ሆንክ	-10.9834
▁ሆኖማ	-10.9834
▁ሆኖብሽ	-10.9834
▁ሆኖናል፡፡	-10.9834
▁ሆኗል	-10.9834
▁ሆኛለሁና፡፡	-10.9834
▁ሆይ...	-10.9834
▁ሆይ፡፡	-10.9834
▁ሆይ››	-10.9834
▁ሆደ-ቡቡነት	-10.9834
▁ሆዴ	-10.9834
▁ሆዴ?››	-10.9834
▁ሆዴ፡፡	-10.9834
▁ሆዴ፡፡››	-10.9834
▁ሆዷና	-10.9834
▁ለ11	-10.9834
▁ለ55	-10.9834
▁ለሁለተኛ	-10.9834
▁ለሁላችሁም	-10.9834
▁ለሁቱ	-10.9834
▁ለሁቱዎች	-10.9834
▁ለሄይ	-10.9834
▁ለሆነው	-10.9834
▁ለለመድኩት	-10.9834
▁ለለችምና	-10.9834
▁ለለገሳችሁኝ	-10.9834
▁ለሌለ	-10.9834
▁ለሌላቸው	-10.9834
▁ለሌላችን	-10.9834
▁ለልመናዬ	-10.9834
▁ለልብሽ	-10.9834
▁ለልጄ	-10.9834
▁ለልጆቻቸውም	-10.9834
▁ለልጆችሽ	-10.9834
▁ለልጆቿ	-10.9834
▁ለሕዝቡ	-10.9834
▁ለሕዝብ	-10.9834
▁ለመሆንና	-10.9834
▁ለመሆን፣	-10.9834
▁ለመመገብ	-10.9834
▁ለመምጣት	-10.9834
▁ለመረጃው	-10.9834
▁ለመራመድም	-10.9834
▁ለመሰለኝ	-10.9834
▁ለመሳል	-10.9834
▁ለመሳምና	-10.9834
▁ለመስማት፣	-10.9834
▁ለመስጠትና	-10.9834
▁ለመስፋት	-10.9834
▁ለመሸማቀቅ	-10.9834
▁ለመሸበር	-10.9834
▁ለመሸጥ	-10.9834
▁ለመሸፈን	-10.9834
▁ለመሻገር	-10.9834
▁ለመቀለድ	-10.9834
▁ለመቀበልስ	-10.9834
▁ለመቀበልና	-10.9834
▁ለመቁረጥ	-10.9834
▁ለመቃኘት	-10.9834
▁ለመቆም	-10.9834
▁ለመበርታት	-10.9834
▁ለመበርታትና	-10.9834
▁ለመበቀል	-10.9834
▁ለመበደር	-10.9834
▁ለመባል	-10.9834
▁ለመብረር	-10.9834
▁ለመብራት	-10.9834
▁ለመተንበይ	-10.9834
▁ለመተኛት	-10.9834
▁ለመተካት	-10.9834
▁ለመተው	-10.9834
▁ለመተያየት	-10.9834
▁ለመታደግ	-10.9834
▁ለመታጠቢያ	-10.9834
▁ለመትረፍ	-10.9834
▁ለመቻል	-10.9834
▁ለመነቻቸው	-10.9834
▁ለመነችኝ፡፡	-10.9834
▁ለመነችው፡፡	-10.9834
▁ለመነኝ፡፡	-10.9834
▁ለመናገርም	-10.9834
▁ለመንቀል	-10.9834
▁ለመንነው፡፡	-10.9834
▁ለመንኩት	-10.9834
▁ለመንኳቸው፡፡	-10.9834
▁ለመንደራቸው	-10.9834
▁ለመንደር	-10.9834
▁ለመከለል	-10.9834
▁ለመከታተል	-10.9834
▁ለመክፈል	-10.9834
▁ለመወያየት	-10.9834
▁ለመዋኘት፣	-10.9834
▁ለመውረርና	-10.9834
▁ለመውረድ	-10.9834
▁ለመዘዋወር	-10.9834
▁ለመዘገጃጀት	-10.9834
▁ለመዘጋጀት››	-10.9834
▁ለመዳሰስ	-10.9834
▁ለመድሎው	-10.9834
▁ለመጀመሪያና	-10.9834
▁ለመገመት	-10.9834
▁ለመገናኘት	-10.9834
▁ለመገናኘትና	-10.9834
▁ለመገደል	-10.9834
▁ለመጋራት	-10.9834
▁ለመጋፈጥ	-10.9834
▁ለመግባባት	-10.9834
▁ለመግባትና	-10.9834
▁ለመግዛት	-10.9834
▁ለመጓዝ	-10.9834
▁ለመጠየቅ፣	-10.9834
▁ለመጠያየቅና	-10.9834
▁ለመጠጋትና	-10.9834
▁ለመጠጣት	-10.9834
▁ለመጥራት	-10.9834
▁ለመጥቀስም	-10.9834
▁ለመጨረስ	-10.9834
▁ለመጭው	-10.9834
▁ለመጻጻፍ	-10.9834
▁ለመጻጻፍ፣	-10.9834
▁ለመፈልግ	-10.9834
▁ለመፈተሽ	-10.9834
▁ለመፈተን	-10.9834
▁ለመፍራት	-10.9834
▁ለመፍጠር	-10.9834
▁ለሙያ	-10.9834
▁ለሚሆኑ	-10.9834
▁ለሚቋጭ	-10.9834
▁ለሚበልጥ	-10.9834
▁ለሚባል	-10.9834
▁ለሚኖሩት	-10.9834
▁ለሚያምኗቸው	-10.9834
▁ለሚያስቸግረው	-10.9834
▁ለሚያገኟቸው	-10.9834
▁ለሚገኙበት	-10.9834
▁ለሚገጥሙኝ	-10.9834
▁ለሚጠብቀኝ	-10.9834
▁ለሚፈልጉ	-10.9834
▁ለማለም	-10.9834
▁ለማለፍ	-10.9834
▁ለማላባ	-10.9834
▁ለማልቀስም	-10.9834
▁ለማልቀስና	-10.9834
▁ለማልበስ	-10.9834
▁ለማመልከት	-10.9834
▁ለማመቻቸት	-10.9834
▁ለማም	-10.9834
▁ለማምራት	-10.9834
▁ለማምጣትና	-10.9834
▁ለማሠራቸው	-10.9834
▁ለማሠጋደድ፣	-10.9834
▁ለማረጋጋት፡፡	-10.9834
▁ለማረፍ	-10.9834
▁ለማሰባሰብ	-10.9834
▁ለማሰብ	-10.9834
▁ለማሰተዋወቅ	-10.9834
▁ለማሳለፍ	-10.9834
▁ለማሳፈርና	-10.9834
▁ለማስተማር፡፡	-10.9834
▁ለማስተካከል፣	-10.9834
▁ለማስተካካልም	-10.9834
▁ለማስተዳደርና	-10.9834
▁ለማስደሰት	-10.9834
▁ለማስገባት	-10.9834
▁ለማስገኘት	-10.9834
▁ለማስፈራሪያ	-10.9834
▁ለማሸማቀቅ	-10.9834
▁ለማሸማቀቅ፣	-10.9834
▁ለማቅለል	-10.9834
▁ለማቋረጥ	-10.9834
▁ለማባረር	-10.9834
▁ለማብቃት	-10.9834
▁ለማናገር	-10.9834
▁ለማንም፡፡››	-10.9834
▁ለማንሳት	-10.9834
▁ለማንቃት	-10.9834
▁ለማንጸባረቅ	-10.9834
▁ለማከፋፈል፣	-10.9834
▁ለማዋራት	-10.9834
▁ለማዋራትና	-10.9834
▁ለማውደም	-10.9834
▁ለማውገዝ	-10.9834
▁ለማውጣት	-10.9834
▁ለማዘገጃጀትና	-10.9834
▁ለማዘጋጀት	-10.9834
▁ለማየትም	-10.9834
▁ለማያውቀው	-10.9834
▁ለማያያዝ	-10.9834
▁ለማይዋጥለት	-10.9834
▁ለማይደርስና	-10.9834
▁ለማደራጀት	-10.9834
▁ለማደን	-10.9834
▁ለማድመጥ	-10.9834
▁ለማድረግም	-10.9834
▁ለማድረግና	-10.9834
▁ለማድረግ፣	-10.9834
▁ለማገልገል	-10.9834
▁ለማጉረፍ	-10.9834
▁ለማጋራትና	-10.9834
▁ለማግኘትና	-10.9834
▁ለማግኘት፣	-10.9834
▁ለማጎልበት	-10.9834
▁ለማጠራቀም	-10.9834
▁ለማጠቢያና	-10.9834
▁ለማጥመድ	-10.9834
▁ለማጥቃት	-10.9834
▁ለማጽናት፣	-10.9834
▁ለማጽዳት	-10.9834
▁ለማፋጠን	-10.9834
▁ለማፍቀር	-10.9834
▁ለማፍታታት	-10.9834
▁ለምርቃቴ	-10.9834
▁ለምሳሌ	-10.9834
▁ለምታኖረኝ	-10.9834
▁ለምትልኪያቸው	-10.9834
▁ለምትረዳው	-10.9834
▁ለምትኖረው	-10.9834
▁ለምትዪኝ	-10.9834
▁ለምትፈልጊያቸው	-10.9834
▁ለምኅረት	-10.9834
▁ለምናባዊ	-10.9834
▁ለምን?	-10.9834
▁ለምንም	-10.9834
▁ለምንስ	-10.9834
▁ለምክራችሁና	-10.9834
▁ለምክር	-10.9834
▁ለምክንያት	-10.9834
▁ለምጋራህ	-10.9834
▁ለምግብና	-10.9834
▁ለሞትም	-10.9834
▁ለሠርግ	-10.9834
▁ለሥቃይ	-10.9834
▁ለረጅሙ	-10.9834
▁ለሩዋንዳ	-10.9834
▁ለራሱ	-10.9834
▁ለራሳችን	-10.9834
▁ለራሷ	-10.9834
▁ለራት	-10.9834
▁ለራይድ	-10.9834
▁ለራይድም	-10.9834
▁ለሰብዓዊነት	-10.9834
▁ለሰጠችኝ	-10.9834
▁ለሱ	-10.9834
▁ለሳምንት	-10.9834
▁ለሳራ	-10.9834
▁ለሳንባዎቼ	-10.9834
▁ለሴት	-10.9834
▁ለሴትዮዋ	-10.9834
▁ለሴቶቹ	-10.9834
▁ለሽርሽር	-10.9834
▁ለቀሽ	-10.9834
▁ለቀቁባት፡፡	-10.9834
▁ለቀናትም	-10.9834
▁ለቀጣዮቹም	-10.9834
▁ለቁርሳችን	-10.9834
▁ለቃሉ	-10.9834
▁ለቄሱና	-10.9834
▁ለቄስ	-10.9834
▁ለቅሶ	-10.9834
▁ለቅሶሽን	-10.9834
▁ለቅሶና	-10.9834
▁ለቅሶውን	-10.9834
▁ለቅቀን	-10.9834
▁ለቅቄያት	-10.9834
▁ለቆኛል፡፡	-10.9834
▁ለበለጠ	-10.9834
▁ለበዓሉ	-10.9834
▁ለበዓል	-10.9834
▁ለበጎ	-10.9834
▁ለባለቤትህ	-10.9834
▁ለባብሼና	-10.9834
▁ለቤልጅየማውያኑ	-10.9834
▁ለቤተሰቡ	-10.9834
▁ለቤተሰቤ	-10.9834
▁ለቤተሰብሽ	-10.9834
▁ለቤታቸው	-10.9834
▁ለብሰን	-10.9834
▁ለብሰው	-10.9834
▁ለብሰው፣	-10.9834
▁ለብሳ	-10.9834
▁ለብሳለች፡፡	-10.9834
▁ለብሶ	-10.9834
▁ለብሶ!	-10.9834
▁ለብሷል፣	-10.9834
▁ለብሻለሁ፡፡	-10.9834
▁ለቪያኒም	-10.9834
▁ለተማመንኩበት	-10.9834
▁ለተረፉት	-10.9834
▁ለተሰጠኝ	-10.9834
▁ለተሸበሩ	-10.9834
▁ለተቀመጠው	-10.9834
▁ለተቃቃረ	-10.9834
▁ለተቋሙ	-10.9834
▁ለተባለው	-10.9834
▁ለተባረክሽው	-10.9834
▁ለተባበሩት	-10.9834
▁ለተከሰተው	-10.9834
▁ለተከታታይ	-10.9834
▁ለተኩላ	-10.9834
▁ለተዝናናችሁበት	-10.9834
▁ለተገደሉ	-10.9834
▁ለተጨማሪ	-10.9834
▁ለታላላቆቼ	-10.9834
▁ለትንሣኤ	-10.9834
▁ለችምንና	-10.9834
▁ለችሮታቸው	-10.9834
▁ለነበሩት	-10.9834
▁ለነበሩኝ	-10.9834
▁ለነዚህ	-10.9834
▁ለነፍሴ	-10.9834
▁ለናታሻም	-10.9834
▁ለናፍቆት	-10.9834
▁ለንስሐ	-10.9834
▁ለንጋት	-10.9834
▁ለንጽሕናው	-10.9834
▁ለአልኮል	-10.9834
▁ለአማጽያኑ	-10.9834
▁ለአምላክ	-10.9834
▁ለአምስት	-10.9834
▁ለአሠቃዮቿ	-10.9834
▁ለአሰሳ	-10.9834
▁ለአስተያየትዎና	-10.9834
▁ለአስተዳዳሪው	-10.9834
▁ለአባሺ	-10.9834
▁ለአባቱ	-10.9834
▁ለአባቴም	-10.9834
▁ለአባቴና	-10.9834
▁ለአብነት	-10.9834
▁ለአብያተክርስቲያናት	-10.9834
▁ለአነስተኞቹም	-10.9834
▁ለአንዱ	-10.9834
▁ለአንዲት	-10.9834
▁ለአንዲትና	-10.9834
▁ለአንዴና	-10.9834
▁ለአንዷ	-10.9834
▁ለአክስቶቼና	-10.9834
▁ለአክስቶቼ፣	-10.9834
▁ለአያቴ፣	-10.9834
▁ለአዳኛችን፡፡	-10.9834
▁ለአዶልፍ	-10.9834
▁ለአጎቶቼና	-10.9834
▁ለአጭሯ	-10.9834
▁ለአፍ	-10.9834
▁ለአፍቃሪ	-10.9834
▁ለኢማኪዩሌ?››	-10.9834
▁ለኤይማብልም	-10.9834
▁ለእራት	-10.9834
▁ለእርሱና	-10.9834
▁ለእርሳቸው	-10.9834
▁ለእርሷ	-10.9834
▁ለእርድ	-10.9834
▁ለእነዚህ	-10.9834
▁ለእናቴና	-10.9834
▁ለእናንተም	-10.9834
▁ለእንስሶቹም	-10.9834
▁ለእንባ	-10.9834
▁ለእገዛ	-10.9834
▁ለእገዛችሁ፣	-10.9834
▁ለኦሜጋ	-10.9834
▁ለከለላ	-10.9834
▁ለካ	-10.9834
▁ለክስተቱ	-10.9834
▁ለወላጆቹ	-10.9834
▁ለወንጀለኞች	-10.9834
▁ለወደፊቱም	-10.9834
▁ለወጣቶች	-10.9834
▁ለዋሪያራ	-10.9834
▁ለውዷ	-10.9834
▁ለውጠዋታል፡፡	-10.9834
▁ለውጦች	-10.9834
▁ለዓለምአቀፍ	-10.9834
▁ለዓላማ	-10.9834
▁ለዘር	-10.9834
▁ለዘብተኛ፣	-10.9834
▁ለዘወትር	-10.9834
▁ለዘውግ	-10.9834
▁ለዚህች	-10.9834
▁ለዚያም	-10.9834
▁ለዚያች	-10.9834
▁ለዚያን	-10.9834
▁ለዚያውም	-10.9834
▁ለዝርዝር	-10.9834
▁ለዢን	-10.9834
▁ለየሁት፡፡	-10.9834
▁ለየኋቸው	-10.9834
▁ለይቼዋለሁ	-10.9834
▁ለዮሃንስ	-10.9834
▁ለዮሃንስና	-10.9834
▁ለደሃ	-10.9834
▁ለደህንነታችን	-10.9834
▁ለደሆች	-10.9834
▁ለደቂቃ	-10.9834
▁ለደቂቃዎች	-10.9834
▁ለዲያብሎስ	-10.9834
▁ለድንቁርናው	-10.9834
▁ለጂል	-10.9834
▁ለገሰኝ፡፡	-10.9834
▁ለገና	-10.9834
▁ለገደሉት	-10.9834
▁ለገዳዮቹም	-10.9834
▁ለገጠር	-10.9834
▁ለጉድ	-10.9834
▁ለጌታ	-10.9834
▁ለግማሽ	-10.9834
▁ለግሰኝና	-10.9834
▁ለግድያ	-10.9834
▁ለጓደኞቹ	-10.9834
▁ለጠቅላይ	-10.9834
▁ለጠፋቸውና	-10.9834
▁ለጤናችንና	-10.9834
▁ለጥልቅ	-10.9834
▁ለጥሩ	-10.9834
▁ለጥቂት	-10.9834
▁ለጥቃት	-10.9834
▁ለጥፋቱ	-10.9834
▁ለጥፌ	-10.9834
▁ለጦርነቱ	-10.9834
▁ለጨለምተኛ	-10.9834
▁ለጨካኝ	-10.9834
▁ለጭፍጨፋ	-10.9834
▁ለጭፍጨፋቸው	-10.9834
▁ለጸሎት፣	-10.9834
▁ለጸባይሽና	-10.9834
▁ለፈረንሳውያን	-10.9834
▁ለፈረንሳዮቹ	-10.9834
▁ለፈተና	-10.9834
▁ለፈተናዎች	-10.9834
▁ለፈጣሪ	-10.9834
▁ለፈጣሪዬ	-10.9834
▁ለፈጸሙት	-10.9834
▁ለፈጸሟቸው	-10.9834
▁ለፊቱ	-10.9834
▁ለፊታቸው	-10.9834
▁ለፊታችን	-10.9834
▁ለፊታችው	-10.9834
▁ለፊቷ	-10.9834
▁ለፍርሃቴ	-10.9834
▁ለፍርድ	-10.9834
▁ለፍቅራችሁ	-10.9834
▁ለፍቼ	-10.9834
▁ሊ...	-10.9834
▁ሊሄድ	-10.9834
▁ሊለቀኝ	-10.9834
▁ሊለን	-10.9834
▁ሊሉኝ	-10.9834
▁ሊላ	-10.9834
▁ሊላክ	-10.9834
▁ሊልብኝ	-10.9834
▁ሊልከን	-10.9834
▁ሊልኩን	-10.9834
▁ሊልክ	-10.9834
▁ሊመልሰው	-10.9834
▁ሊመረምረን	-10.9834
▁ሊሠራ	-10.9834
▁ሊሰበር	-10.9834
▁ሊሰናበቱን	-10.9834
▁ሊሰጡን	-10.9834
▁ሊሰጣት	-10.9834
▁ሊሴን	-10.9834
▁ሊስቡ	-10.9834
▁ሊስቡኝ	-10.9834
▁ሊሸሽገው	-10.9834
▁ሊሻሻሉልን	-10.9834
▁ሊሻሻል	-10.9834
▁ሊሾ	-10.9834
▁ሊቀመንበርን	-10.9834
▁ሊቀይር	-10.9834
▁ሊቀይርሽ	-10.9834
▁ሊቀጣው	-10.9834
▁ሊቆራርጡን	-10.9834
▁ሊቆርጡሽ	-10.9834
▁ሊቆርጥላት	-10.9834
▁ሊቆይ	-10.9834
▁ሊቆጣጠሩት	-10.9834
▁ሊበላን	-10.9834
▁ሊበራቲ	-10.9834
▁ሊበቃችሁ	-10.9834
▁ሊባል	-10.9834
▁ሊቦጫጭቁት	-10.9834
▁ሊተናኮሉ	-10.9834
▁ሊተዉን	-10.9834
▁ሊታመንባቸው	-10.9834
▁ሊትረል	-10.9834
▁ሊትረል፣	-10.9834
▁ሊነጋ	-10.9834
▁ሊነግረን	-10.9834
▁ሊነግሩን	-10.9834
▁ሊንከባከበኝ	-10.9834
▁ሊን፣	-10.9834
▁ሊኖሩ	-10.9834
▁ሊኖሩኝ	-10.9834
▁ሊኖራቸው	-10.9834
▁ሊኖራችሁ	-10.9834
▁ሊኦናርድ!	-10.9834
▁ሊኦናርድ!››	-10.9834
▁ሊኦናርድ?››	-10.9834
▁ሊኦናርድ፡፡	-10.9834
▁ሊከስም	-10.9834
▁ሊከተለው	-10.9834
▁ሊወስደኝ	-10.9834
▁ሊወስዳችሁ	-10.9834
▁ሊውጣቸው?›	-10.9834
▁ሊውጣቸው?››	-10.9834
▁ሊያመራ	-10.9834
▁ሊያመጡልን	-10.9834
▁ሊያመጡት	-10.9834
▁ሊያመጧቸው	-10.9834
▁ሊያምኑ	-10.9834
▁ሊያሣርደን	-10.9834
▁ሊያረጋግጥ	-10.9834
▁ሊያረግብ	-10.9834
▁ሊያርመው	-10.9834
▁ሊያሰጥሙበት	-10.9834
▁ሊያሳስረው	-10.9834
▁ሊያሳዩን	-10.9834
▁ሊያሳድዱን	-10.9834
▁ሊያስሱብን	-10.9834
▁ሊያስቆመው	-10.9834
▁ሊያስተምረኝ	-10.9834
▁ሊያስተምሩኝ	-10.9834
▁ሊያስኬደን	-10.9834
▁ሊያስወግዳቸው	-10.9834
▁ሊያስገድለን	-10.9834
▁ሊያቀርቡልኝ	-10.9834
▁ሊያቅፈኝ	-10.9834
▁ሊያቆመው	-10.9834
▁ሊያቆየን	-10.9834
▁ሊያቆየው	-10.9834
▁ሊያበረታታቸው	-10.9834
▁ሊያበቃልኝም	-10.9834
▁ሊያባብስ	-10.9834
▁ሊያተርፉን	-10.9834
▁ሊያነቃቁን	-10.9834
▁ሊያነብ	-10.9834
▁ሊያናግሩን	-10.9834
▁ሊያናግሩኝ	-10.9834
▁ሊያወጡንም	-10.9834
▁ሊያውቁ	-10.9834
▁ሊያዞሩብን	-10.9834
▁ሊያየኝ	-10.9834
▁ሊያዩን	-10.9834
▁ሊያዩኝ	-10.9834
▁ሊያደርጉላችሁ	-10.9834
▁ሊያደርግ	-10.9834
▁ሊያድነን	-10.9834
▁ሊያድነኝ	-10.9834
▁ሊያድኑን	-10.9834
▁ሊያገኘኝ	-10.9834
▁ሊያገኙ	-10.9834
▁ሊያገኙሽ	-10.9834
▁ሊያገኙን	-10.9834
▁ሊያገኝ	-10.9834
▁ሊያገኝልኝ	-10.9834
▁ሊያግዘን	-10.9834
▁ሊያግዘኝ	-10.9834
▁ሊያግዙ	-10.9834
▁ሊያግዙኝ	-10.9834
▁ሊያጓጉዛቸው	-10.9834
▁ሊያጠፉህ	-10.9834
▁ሊያጽናናኝ	-10.9834
▁ሊያፈርሱት	-10.9834
▁ሊይዟቸው	-10.9834
▁ሊደብቀው	-10.9834
▁ሊደግም	-10.9834
▁ሊደፍሩሽ	-10.9834
▁ሊጀምሩ	-10.9834
▁ሊገምት	-10.9834
▁ሊገቡ	-10.9834
▁ሊገባቸው	-10.9834
▁ሊገኙ	-10.9834
▁ሊገደል	-10.9834
▁ሊገድለን፣	-10.9834
▁ሊገድለው	-10.9834
▁ሊገድሉሽ	-10.9834
▁ሊገድሉት	-10.9834
▁ሊገድል	-10.9834
▁ሊገፉት	-10.9834
▁ሊጋጭ	-10.9834
▁ሊጎዱን	-10.9834
▁ሊጎዱኝ	-10.9834
▁ሊጠለሉ	-10.9834
▁ሊጠረጥር	-10.9834
▁ሊጠይቀኝ	-10.9834
▁ሊጠይቁ	-10.9834
▁ሊጠይቁኝ	-10.9834
▁ሊጣሩ	-10.9834
▁ሊጥለን	-10.9834
▁ሊጨክኑባችሁ	-10.9834
▁ሊፈራ	-10.9834
▁ሊፈጽሙብኝ	-10.9834
▁ላለመስማት	-10.9834
▁ላለመስጠት	-10.9834
▁ላለመታየት	-10.9834
▁ላለመንካት	-10.9834
▁ላለመዳጥ	-10.9834
▁ላለመጉዳት	-10.9834
▁ላለመጠቀም	-10.9834
▁ላለማሰብና	-10.9834
▁ላለማበላሸት	-10.9834
▁ላለማንሳት	-10.9834
▁ላለማውራት	-10.9834
▁ላለቅስ	-10.9834
▁ላለብሳት	-10.9834
▁ላሉ	-10.9834
▁ላላቸውና	-10.9834
▁ላላችሁ	-10.9834
▁ላልቀመሱት	-10.9834
▁ላልቻልካቸውና	-10.9834
▁ላልቻልኳቸው	-10.9834
▁ላመጣ	-10.9834
▁ላም	-10.9834
▁ላምነው	-10.9834
▁ላሞቹ	-10.9834
▁ላሞቻችንና	-10.9834
▁ላሞቻችንን	-10.9834
▁ላሞች	-10.9834
▁ላሞች፣	-10.9834
▁ላረጋግጥልዎ	-10.9834
▁ላራግፈው	-10.9834
▁ላሰፍራቸው	-10.9834
▁ላሳውቀው	-10.9834
▁ላሳየኸኝ	-10.9834
▁ላሳይሽ፡፡››	-10.9834
▁ላስመስልልዎት፡፡››	-10.9834
▁ላስብበት፡፡››	-10.9834
▁ላስብበት፣	-10.9834
▁ላስይዘው	-10.9834
▁ላስደስት	-10.9834
▁ላቆመው	-10.9834
▁ላቆም	-10.9834
▁ላቆየው	-10.9834
▁ላነሰ	-10.9834
▁ላናውጠው	-10.9834
▁ላናግርሽ?››	-10.9834
▁ላንሆን	-10.9834
▁ላንቺና	-10.9834
▁ላንናገር	-10.9834
▁ላንዳችን	-10.9834
▁ላከልን፡፡	-10.9834
▁ላኩኛ፡፡	-10.9834
▁ላክልኝ፡፡	-10.9834
▁ላወራው	-10.9834
▁ላዋራቸው	-10.9834
▁ላውቃቸው	-10.9834
▁ላዘገያቸው	-10.9834
▁ላዝንላቸው	-10.9834
▁ላየው	-10.9834
▁ላያገኛቸው	-10.9834
▁ላይ!	-10.9834
▁ላይሄድ	-10.9834
▁ላይመጡ	-10.9834
▁ላይማ	-10.9834
▁ላይም	-10.9834
▁ላይሳካልኝ	-10.9834
▁ላደረጉልኝ	-10.9834
▁ላድርገው	-10.9834
▁ላድርግ?	-10.9834
▁ላድርግልህ	-10.9834
▁ላጅብሽ	-10.9834
▁ላገባው	-10.9834
▁ላገኘሁት	-10.9834
▁ላገኘው	-10.9834
▁ላገኙት	-10.9834
▁ላገኛቸው	-10.9834
▁ላገኛችሁ	-10.9834
▁ላገኝ	-10.9834
▁ላገኝሽ	-10.9834
▁ላጓጉዝሽና	-10.9834
▁ላጣሁት	-10.9834
▁ላጣሽ	-10.9834
▁ላጽናናው	-10.9834
▁ላጽናናውም	-10.9834
▁ላጽዳ	-10.9834
▁ሌሊቱ	-10.9834
▁ሌሊቶችን	-10.9834
▁ሌላቸውን	-10.9834
▁ሌላኛው፡፡	-10.9834
▁ሌላዋን	-10.9834
▁ሌሎቻቸውን	-10.9834
▁ሌሎቻችሁ	-10.9834
▁ሌሰር፣	-10.9834
▁ሌቦች	-10.9834
▁ሌቪን፣	-10.9834
▁ልሂድ	-10.9834
▁ልሄድ	-10.9834
▁ልለምናችሁ	-10.9834
▁ልለው	-10.9834
▁ልልሽ	-10.9834
▁ልመና	-10.9834
▁ልመናና	-10.9834
▁ልሙት	-10.9834
▁ልማትና	-10.9834
▁ልማዷ	-10.9834
▁ልምምድም	-10.9834
▁ልምሻ	-10.9834
▁ልሞት	-10.9834
▁ልሞክር	-10.9834
▁ልረዳቸው	-10.9834
▁ልርዳሽ	-10.9834
▁ልርዳሽ?››	-10.9834
▁ልርዳቸው፤	-10.9834
▁ልርዳችሁ?››	-10.9834
▁ልሰማው	-10.9834
▁ልሰጥህ	-10.9834
▁ልስልስ	-10.9834
▁ልስቅ	-10.9834
▁ልስጥሽ?››	-10.9834
▁ልቀሰቅሳት	-10.9834
▁ልቀሰቅስበት	-10.9834
▁ልቀዳ	-10.9834
▁ልቅ	-10.9834
▁ልቆርጥ	-10.9834
▁ልቆጣቸው	-10.9834
▁ልቆጣጠራቸው	-10.9834
▁ልቋቋመው	-10.9834
▁ልበላቸው?	-10.9834
▁ልበልሻ፣	-10.9834
▁ልቡን	-10.9834
▁ልባሽ	-10.9834
▁ልባቸውን	-10.9834
▁ልባችን	-10.9834
▁ልብሰ-ተክህኗቸውን	-10.9834
▁ልብሱ	-10.9834
▁ልብሱም	-10.9834
▁ልብሳቸው	-10.9834
▁ልብሴን	-10.9834
▁ልብስና	-10.9834
▁ልብሶቹ	-10.9834
▁ልብሶቻቸውን	-10.9834
▁ልብሶቻችንም	-10.9834
▁ልብሶቼን፣	-10.9834
▁ልብሶችህን	-10.9834
▁ልብሷን	-10.9834
▁ልብሷንና	-10.9834
▁ልብንና	-10.9834
▁ልብወለዱን	-10.9834
▁ልብ፡፡	-10.9834
▁ልቦቻችን	-10.9834
▁ልቦቻችንም	-10.9834
▁ልቦቻችንን	-10.9834
▁ልቦና	-10.9834
▁ልቦናችንን	-10.9834
▁ልቦናና	-10.9834
▁ልቦናንና	-10.9834
▁ልቧ	-10.9834
▁ልተርፍ	-10.9834
▁ልተነፍስ	-10.9834
▁ልተኛበት››	-10.9834
▁ልተውሽ	-10.9834
▁ልታሳዩ	-10.9834
▁ልታስገድለኝ	-10.9834
▁ልታነጋግረኝ	-10.9834
▁ልታውቅ	-10.9834
▁ልታዪን	-10.9834
▁ልታያቸው	-10.9834
▁ልታደርግ	-10.9834
▁ልታደርግልን	-10.9834
▁ልታዳምጠው	-10.9834
▁ልታግዘኝ	-10.9834
▁ልታጠልቀው	-10.9834
▁ልታጡ	-10.9834
▁ልታጽናናኝ	-10.9834
▁ልትሄድ	-10.9834
▁ልትሆኑም	-10.9834
▁ልትለቀኝ	-10.9834
▁ልትሉ	-10.9834
▁ልትላወሱ	-10.9834
▁ልትል	-10.9834
▁ልትልክ	-10.9834
▁ልትሞት	-10.9834
▁ልትሞቺ	-10.9834
▁ልትረዱት	-10.9834
▁ልትረዳን	-10.9834
▁ልትረዷቸው	-10.9834
▁ልትሰሚ	-10.9834
▁ልትቀየር	-10.9834
▁ልትተርፊ	-10.9834
▁ልትነሺ	-10.9834
▁ልትነግረኝ	-10.9834
▁ልትነግሯት	-10.9834
▁ልትኖሩ	-10.9834
▁ልትከላከሉልኝ	-10.9834
▁ልትወጣ	-10.9834
▁ልትገደሉ	-10.9834
▁ልትጠይቃቸው	-10.9834
▁ልትጠፋ	-10.9834
▁ልትጨነቁ	-10.9834
▁ልትጽፊው	-10.9834
▁ልትፈሩም	-10.9834
▁ልትፈነዳ	-10.9834
▁ልነግረውና	-10.9834
▁ልነግርሽ	-10.9834
▁ልኑር	-10.9834
▁ልኑር፤	-10.9834
▁ልናመልጥ	-10.9834
▁ልናምን	-10.9834
▁ልናስቆማቸውም	-10.9834
▁ልናነበው	-10.9834
▁ልናወራ	-10.9834
▁ልናይ	-10.9834
▁ልናደርግ	-10.9834
▁ልናገር	-10.9834
▁ልናገር?	-10.9834
▁ልናገኝላቸው	-10.9834
▁ልንመለስ	-10.9834
▁ልንመልስላቸው	-10.9834
▁ልንረዳው	-10.9834
▁ልንሰማ	-10.9834
▁ልንሰማቸው	-10.9834
▁ልንቀመጥ	-10.9834
▁ልንቆይ	-10.9834
▁ልንታረድ	-10.9834
▁ልንነሳ	-10.9834
▁ልንወስዳችሁ	-10.9834
▁ልንወያይበት	-10.9834
▁ልንዋኝ	-10.9834
▁ልንዘጋው	-10.9834
▁ልንደርስ	-10.9834
▁ልንገራችሁ	-10.9834
▁ልንገርሽ፤	-10.9834
▁ልንጎዳ	-10.9834
▁ልከላከላቸው	-10.9834
▁ልከፍተው	-10.9834
▁ልኮልኛል፡፡	-10.9834
▁ልኮልኝ	-10.9834
▁ልኮኝ	-10.9834
▁ልኳን	-10.9834
▁ልወስዳችሁ	-10.9834
▁ልወቅሰው	-10.9834
▁ልወጣው፡፡	-10.9834
▁ልውሰድሽ፤	-10.9834
▁ልውጣቸው	-10.9834
▁ልዑል	-10.9834
▁ልዘን፡፡››	-10.9834
▁ልየው!››	-10.9834
▁ልዩነቱ	-10.9834
▁ልዩነቶቻችን	-10.9834
▁ልዩነቶች	-10.9834
▁ልዩውን	-10.9834
▁ልዩ፣	-10.9834
▁ልደታችሁ	-10.9834
▁ልደት፣	-10.9834
▁ልደውልለት	-10.9834
▁ልጀምር	-10.9834
▁ልጀቿ	-10.9834
▁ልጃቸውና	-10.9834
▁ልጃቸውን	-10.9834
▁ልጃችንን	-10.9834
▁ልጃገረዶቹንም	-10.9834
▁ልጄ!››	-10.9834
▁ልጄ፡፡	-10.9834
▁ልጄ፣	-10.9834
▁ልጅህም	-10.9834
▁ልጅና	-10.9834
▁ልጅ፡፡››	-10.9834
▁ልጅ፤	-10.9834
▁ልጆቹም፣	-10.9834
▁ልጆቻቸውም	-10.9834
▁ልጆቻቸውና	-10.9834
▁ልጆቻቸውንና	-10.9834
▁ልጆቻቸውን፡፡	-10.9834
▁ልጆቻቸውን፣	-10.9834
▁ልጆቻችንን፣	-10.9834
▁ልጆቼ?	-10.9834
▁ልጆቼም	-10.9834
▁ልጆቼስ	-10.9834
▁ልጆቼን	-10.9834
▁ልጆቼ፤	-10.9834
▁ልጆቼ››	-10.9834
▁ልጆችህ	-10.9834
▁ልጆችነታችን	-10.9834
▁ልጆችና	-10.9834
▁ልጆችንም	-10.9834
▁ልጆች፣	-10.9834
▁ልጆቿንም	-10.9834
▁ልገምት	-10.9834
▁ልገድላችሁ	-10.9834
▁ልግስናውን	-10.9834
▁ልግባ?	-10.9834
▁ልግደል	-10.9834
▁ልጠራቸው	-10.9834
▁ልጠብልህ	-10.9834
▁ልጠይቃቸው	-10.9834
▁ልጠይቅ	-10.9834
▁ልጣል	-10.9834
▁ልጥ	-10.9834
▁ልጩህበት	-10.9834
▁ልፈልግላችሁ››	-10.9834
▁ልፈልግ››	-10.9834
▁ልፋት	-10.9834
▁ሎሬንትን	-10.9834
▁ሐሜት	-10.9834
▁ሐምሌ	-10.9834
▁ሐረጋት	-10.9834
▁ሐሩር	-10.9834
▁ሐሰት፣	-10.9834
▁ሐሰት››	-10.9834
▁ሐሳቤ	-10.9834
▁ሐሳብህ	-10.9834
▁ሐሳብ፣	-10.9834
▁ሐሳቦ	-10.9834
▁ሐሳቦቻችንንና	-10.9834
▁ሐሴት	-10.9834
▁ሐኪሙ	-10.9834
▁ሐውልቶቹን	-10.9834
▁ሐውልቶች	-10.9834
▁ሐዘኑ	-10.9834
▁ሐዘኑን	-10.9834
▁ሐይቁን	-10.9834
▁ሐገሬን	-10.9834
▁ሐፍረቱ	-10.9834
▁ሒሳብ	-10.9834
▁ሒሳብንና	-10.9834
▁ሕልሙ	-10.9834
▁ሕመሙና	-10.9834
▁ሕመሙ፣	-10.9834
▁ሕመማቸው	-10.9834
▁ሕመማቸውን	-10.9834
▁ሕመሜም	-10.9834
▁ሕመሜን	-10.9834
▁ሕመሜንና	-10.9834
▁ሕመምና	-10.9834
▁ሕመሞች	-10.9834
▁ሕትመቱን	-10.9834
▁ሕንጻው	-10.9834
▁ሕንጻዎችም	-10.9834
▁ሕክምና	-10.9834
▁ሕዝቡም	-10.9834
▁ሕዝባዊ	-10.9834
▁ሕይወታችሁ	-10.9834
▁ሕይወቴም	-10.9834
▁ሕይወቴና	-10.9834
▁ሕይወትሽን	-10.9834
▁ሕይወትና	-10.9834
▁ሕይወትዎን	-10.9834
▁ሕይወት፡፡	-10.9834
▁ሕይወቶቼ	-10.9834
▁ሕይወቶችን	-10.9834
▁ሕይወቷ	-10.9834
▁ሕይወቷን	-10.9834
▁ሕጋዊ	-10.9834
▁ሕጻናት	-10.9834
▁ሕጻን፣	-10.9834
▁ሕፃኑ	-10.9834
▁ሕፃናታቸውን	-10.9834
▁ሕፃናትና	-10.9834
▁ሕፃናትን	-10.9834
▁መሃሪዋን	-10.9834
▁መሄዳቸውን	-10.9834
▁መሄዳችን	-10.9834
▁መሄድሽ	-10.9834
▁መሄድና	-10.9834
▁መሆኑንም	-10.9834
▁መሆኑን፣	-10.9834
▁መሆኑ፡፡	-10.9834
▁መሆናችሁን	-10.9834
▁መሆናችንና	-10.9834
▁መሆንሽ	-10.9834
▁መሆንና	-10.9834
▁መሆንን፡፡	-10.9834
▁መሆኗንም	-10.9834
▁መለሎው፣	-10.9834
▁መለሰልን፡፡	-10.9834
▁መለሰችልኝ፡፡	-10.9834
▁መለሱ	-10.9834
▁መለሱኝ	-10.9834
▁መለሱ፡፡	-10.9834
▁መለስኩላት፡፡	-10.9834
▁መለስኳቸው፡፡	-10.9834
▁መለኪያ	-10.9834
▁መለኮት	-10.9834
▁መለያዎቻችን	-10.9834
▁መለያየታችን	-10.9834
▁መለያያ	-10.9834
▁መላላኪያ	-10.9834
▁መላላኪያም	-10.9834
▁መላመድ	-10.9834
▁መላኩ	-10.9834
▁መላክ	-10.9834
▁መላክና	-10.9834
▁መላወስ	-10.9834
▁መላዕክቴ	-10.9834
▁መላዕክቴን	-10.9834
▁መላጥ	-10.9834
▁መልሰህ	-10.9834
▁መልሱ	-10.9834
▁መልሳ	-10.9834
▁መልከ-ቀናውና	-10.9834
▁መልከዓ-ምድር	-10.9834
▁መልኩና	-10.9834
▁መልኩ፡፡	-10.9834
▁መልካምና	-10.9834
▁መልካም፣	-10.9834
▁መልካም››	-10.9834
▁መልካቸው	-10.9834
▁መልካችንን	-10.9834
▁መልክዓምድር	-10.9834
▁መልዕክተኞች	-10.9834
▁መልዕክቱ	-10.9834
▁መልዕክቶችሽ	-10.9834
▁መልፋት	-10.9834
▁መሐል	-10.9834
▁መሐሪ	-10.9834
▁መሐሪው	-10.9834
▁መመለስና	-10.9834
▁መመረዙ	-10.9834
▁መመረዝ	-10.9834
▁መመሪያ	-10.9834
▁መመሳሰልን	-10.9834
▁መመሳሰያ	-10.9834
▁መመስረትን	-10.9834
▁መመስረት፣	-10.9834
▁መመንኮስ	-10.9834
▁መመከቻም	-10.9834
▁መመደቤ	-10.9834
▁መመድመድ	-10.9834
▁መምህራችን	-10.9834
▁መምህራችን፣	-10.9834
▁መምህራኑም	-10.9834
▁መምህሬ	-10.9834
▁መምህር?››	-10.9834
▁መምህርትና	-10.9834
▁መምህርት፣	-10.9834
▁መምህርቷ	-10.9834
▁መምህር፡፡››	-10.9834
▁መምህር፣	-10.9834
▁መምረጡን	-10.9834
▁መምሬ!	-10.9834
▁መምሬ፡፡	-10.9834
▁መምሬ፡፡››	-10.9834
▁መምሰላቸው	-10.9834
▁መምጣታቸው	-10.9834
▁መምጣታቸውን	-10.9834
▁መምጣታቸውንና	-10.9834
▁መምጣትሽን	-10.9834
▁መሞላታቸውን	-10.9834
▁መሞቱ	-10.9834
▁መሞታቸውን	-10.9834
▁መሞትሽ	-10.9834
▁መሞትን	-10.9834
▁መሟገቴ	-10.9834
▁መሟገት	-10.9834
▁መሠረትም	-10.9834
▁መሣሪያችሁን	-10.9834
▁መሣሪያነት	-10.9834
▁መሥራታችንን፣	-10.9834
▁መሥራትና	-10.9834
▁መሥዋዕትነት	-10.9834
▁መረጥኩ፡፡	-10.9834
▁መሪዎች	-10.9834
▁መራመዱ	-10.9834
▁መራመዴን	-10.9834
▁መራራ፣	-10.9834
▁መራር	-10.9834
▁መራርነት፡፡	-10.9834
▁መራቅ	-10.9834
▁መራበሽ	-10.9834
▁መሬቱም	-10.9834
▁መሬቷ	-10.9834
▁መሬቷም	-10.9834
▁መሬቷን	-10.9834
▁መርሃ-	-10.9834
▁መርሃ-ግብሩ	-10.9834
▁መርሃ-ግብሩን	-10.9834
▁መርሃ-ግብር	-10.9834
▁መርሃ-ግብርና	-10.9834
▁መርቄሻለሁ	-10.9834
▁መርበድበድ	-10.9834
▁መርተሃቸው	-10.9834
▁መርቶኛል፤	-10.9834
▁መርቷቸዋል	-10.9834
▁መርዝን	-10.9834
▁መርዶ	-10.9834
▁መርጦ	-10.9834
▁መርጧል	-10.9834
▁መርጧልና፤	-10.9834
▁መርፌ	-10.9834
▁መሮጡን	-10.9834
▁መሮጥ	-10.9834
▁መሰለሽ	-10.9834
▁መሰለሽ፡፡››	-10.9834
▁መሰለችኝ፡፡	-10.9834
▁መሰለኝ!	-10.9834
▁መሰለኝ፡፡››	-10.9834
▁መሰለኝ፤	-10.9834
▁መሰለኝ››	-10.9834
▁መሰሉ፡፡	-10.9834
▁መሰላቸው፡፡	-10.9834
▁መሰሪ	-10.9834
▁መሰቃየት	-10.9834
▁መሰናበት	-10.9834
▁መሰናክሎች	-10.9834
▁መሳለቂያቸው	-10.9834
▁መሳም	-10.9834
▁መሳሪያ	-10.9834
▁መሳቂያ	-10.9834
▁መሳቢያ	-10.9834
▁መሳፈሪያ	-10.9834
▁መሳፍርት	-10.9834
▁መስለናል፡፡	-10.9834
▁መስለዋል፡፡	-10.9834
▁መስለዋል፡፡‹‹ምንድነው	-10.9834
▁መስላኛለኝ፡፡	-10.9834
▁መስሎና	-10.9834
▁መስሎኛል፤	-10.9834
▁መስሏል፤	-10.9834
▁መስሏቸዋል!	-10.9834
▁መስሏቸዋል፡፡	-10.9834
▁መስመሩ	-10.9834
▁መስመሮቹ	-10.9834
▁መስመሮችን	-10.9834
▁መስማማታቸውን	-10.9834
▁መስማቱን	-10.9834
▁መስማቴ	-10.9834
▁መስቀሉን	-10.9834
▁መስቀሌን	-10.9834
▁መስክ	-10.9834
▁መስኮቱ	-10.9834
▁መስኮቶቹ	-10.9834
▁መስኮቶችና	-10.9834
▁መስዋዕት	-10.9834
▁መስያለሁ፡፡	-10.9834
▁መስያት	-10.9834
▁መስያቸው	-10.9834
▁መስዬ	-10.9834
▁መስጠም	-10.9834
▁መስጠታቸው	-10.9834
▁መስጠትና	-10.9834
▁መስጠትን	-10.9834
▁መስፋት	-10.9834
▁መሸሸጊያዬ	-10.9834
▁መሸሸግ	-10.9834
▁መሸጋገሪያ	-10.9834
▁መሸፈን	-10.9834
▁መሸፈኛ	-10.9834
▁መሽቷል	-10.9834
▁መሽጋ	-10.9834
▁መቀለድና	-10.9834
▁መቀመጡ	-10.9834
▁መቀመጫ	-10.9834
▁መቀመጫቸው	-10.9834
▁መቀመጫችንም	-10.9834
▁መቀመጫዬ	-10.9834
▁መቀምር	-10.9834
▁መቀምር9	-10.9834
▁መቀስ	-10.9834
▁መቀስቀሱ	-10.9834
▁መቀበላችንን	-10.9834
▁መቀበያ	-10.9834
▁መቀበያና	-10.9834
▁መቀነስ	-10.9834
▁መቀዳጀት	-10.9834
▁መቀጣት	-10.9834
▁መቁረጥን	-10.9834
▁መቁረጥ፡፡	-10.9834
▁መቁረጥ፣	-10.9834
▁መቁጠሪያህን	-10.9834
▁መቁጠሪያና	-10.9834
▁መቁጠሪያዬን፣	-10.9834
▁መቃብሩ	-10.9834
▁መቃኘት	-10.9834
▁መቅረቡን	-10.9834
▁መቅረብ	-10.9834
▁መቅረታቸውን	-10.9834
▁መቅረጽ	-10.9834
▁መቅሰፍታዊ	-10.9834
▁መቅሰፍት	-10.9834
▁መቆለፋቸውንና	-10.9834
▁መቆሙ	-10.9834
▁መቆሙና	-10.9834
▁መቆርቆርን	-10.9834
▁መቆዘምን	-10.9834
▁መቆየቱ	-10.9834
▁መቆየቱን	-10.9834
▁መቆየታችን	-10.9834
▁መቆያ	-10.9834
▁መቆጠብ	-10.9834
▁መበቀል	-10.9834
▁መባለግ	-10.9834
▁መባል	-10.9834
▁መባነኑና	-10.9834
▁መብላቱን	-10.9834
▁መብረርን	-10.9834
▁መብራቱ	-10.9834
▁መብራቱም	-10.9834
▁መብራታቸው	-10.9834
▁መብራታቸውን	-10.9834
▁መብራቴን	-10.9834
▁መብራት	-10.9834
▁መብራቶች	-10.9834
▁መብራቶቿና	-10.9834
▁መብቱን	-10.9834
▁መብት፣	-10.9834
▁መተላለፊያ	-10.9834
▁መተላለፌን	-10.9834
▁መተባበሩ	-10.9834
▁መተባበራችሁን	-10.9834
▁መተኛቱን	-10.9834
▁መተኛታቸውንና	-10.9834
▁መተኛትን	-10.9834
▁መተወን	-10.9834
▁መተያየቱ	-10.9834
▁መተያየታችን	-10.9834
▁መተጋገዝ	-10.9834
▁መቱኝ፡፡	-10.9834
▁መታመኛዬ	-10.9834
▁መታሽ	-10.9834
▁መታቸው፡፡	-10.9834
▁መታወቂያውን	-10.9834
▁መታወቂያዎቻቸውን	-10.9834
▁መታወቂያዎቻችንን	-10.9834
▁መታወቂያዬን	-10.9834
▁መታው፣	-10.9834
▁መታየቷ	-10.9834
▁መታደኔ	-10.9834
▁መታጠቢያና	-10.9834
▁መታጠቢያዎች	-10.9834
▁መታጠብ	-10.9834
▁መታጠብም	-10.9834
▁መትረየስና	-10.9834
▁መትረየሶቻቸውን	-10.9834
▁መትረፌንም	-10.9834
▁መትተዋት	-10.9834
▁መትጋት	-10.9834
▁መቶዎች	-10.9834
▁መቸገር	-10.9834
▁መቻሉን	-10.9834
▁መቻላቸውንስ	-10.9834
▁መቻላችን	-10.9834
▁መቻሌን	-10.9834
▁መቻልሽን	-10.9834
▁መቼቶች	-10.9834
▁መቼቷን	-10.9834
▁መነመንን፤	-10.9834
▁መነሳቴ	-10.9834
▁መነሻቸውን	-10.9834
▁መነኩሲቶች	-10.9834
▁መነኩሲቶች፣	-10.9834
▁መነካካት	-10.9834
▁መነገር	-10.9834
▁መነጠቅ	-10.9834
▁መነጨቅሁት፡፡	-10.9834
▁መና	-10.9834
▁መናደዳቸው	-10.9834
▁መናደዳቸውን	-10.9834
▁መንስኤ	-10.9834
▁መንቀሳቀሳቸውን	-10.9834
▁መንበር	-10.9834
▁መንከባከብ	-10.9834
▁መንካት	-10.9834
▁መንደሩም	-10.9834
▁መንደራችንን	-10.9834
▁መንደርም	-10.9834
▁መንደርተኞቹም	-10.9834
▁መንደርተኞቻችን	-10.9834
▁መንደርተኞች	-10.9834
▁መንደርደሪያው	-10.9834
▁መንደሮቻቸው	-10.9834
▁መንደሮች	-10.9834
▁መንደሮች፣	-10.9834
▁መንገሩ	-10.9834
▁መንገርም	-10.9834
▁መንገርን	-10.9834
▁መንገዴን	-10.9834
▁መንገዶቹ	-10.9834
▁መንገዶቻችንን	-10.9834
▁መንገዶችና	-10.9834
▁መንገዶቿ	-10.9834
▁መንጋቱን	-10.9834
▁መንጋጭላው	-10.9834
▁መንግሥተ-ሰማያት	-10.9834
▁መንግሥቱ	-10.9834
▁መንግሥቱም	-10.9834
▁መንግሥቱን	-10.9834
▁መንግሥታችንን	-10.9834
▁መንግሥታዊውን	-10.9834
▁መንግሥትና	-10.9834
▁መንግሥትን	-10.9834
▁መንግሥትንም	-10.9834
▁መንፈሱ	-10.9834
▁መንፈሱን	-10.9834
▁መንፈሳችንስ	-10.9834
▁መንፈሳዊነት	-10.9834
▁መንፈስም	-10.9834
▁መንፈሶቻችንም	-10.9834
▁መኖሪያ	-10.9834
▁መኖሪያቸው	-10.9834
▁መኖራቸውን	-10.9834
▁መኖራቸውንም	-10.9834
▁መኖራችሁን	-10.9834
▁መኖራችንን	-10.9834
▁መኖሬን	-10.9834
▁መኗኗርን	-10.9834
▁መኝታሽ	-10.9834
▁መኧት	-10.9834
▁መከላከያ	-10.9834
▁መከላከያዬ	-10.9834
▁መከራከሪያዎች	-10.9834
▁መከተል	-10.9834
▁መከታተሌን	-10.9834
▁መከታተል	-10.9834
▁መከፋት	-10.9834
▁መክረሙን	-10.9834
▁መክዳት	-10.9834
▁መክፈሏን	-10.9834
▁መክፈት	-10.9834
▁መኰን	-10.9834
▁መኰንኑም	-10.9834
▁መኰንኖች	-10.9834
▁መኳተን	-10.9834
▁መወልወያ	-10.9834
▁መወሰኑ	-10.9834
▁መወሰናቸው	-10.9834
▁መወሰኔ	-10.9834
▁መዋል	-10.9834
▁መዋቅሩ	-10.9834
▁መዋደድም	-10.9834
▁መዋጋት	-10.9834
▁መውሰዱ	-10.9834
▁መውደቄን	-10.9834
▁መውደቅ	-10.9834
▁መውደቅንና	-10.9834
▁መዓት	-10.9834
▁መዘመርና	-10.9834
▁መዘርዝሩን	-10.9834
▁መዘርዝሬን	-10.9834
▁መዘገቡን	-10.9834
▁መዘጋቱን	-10.9834
▁መዘጋጀታችሁን	-10.9834
▁መዝለልን	-10.9834
▁መዝሙራቸውን	-10.9834
▁መዝሙሮቻቸውን	-10.9834
▁መዝገበ	-10.9834
▁መዝገበ-ቃላትና	-10.9834
▁መዝገበቃላቱንም	-10.9834
▁መዝጊያ	-10.9834
▁መዝጊያው	-10.9834
▁መዝግቤያለሁ፡፡	-10.9834
▁መዝፈን፣	-10.9834
▁መያዝ፣	-10.9834
▁መያያዝ	-10.9834
▁መደሰትና	-10.9834
▁መደብ	-10.9834
▁መደብኩት፡፡	-10.9834
▁መደንገጤን	-10.9834
▁መዳፌ	-10.9834
▁መዳፍ	-10.9834
▁መድሎም	-10.9834
▁መድሎውን	-10.9834
▁መድረሳቸውን	-10.9834
▁መድረክ	-10.9834
▁መድኃኒትም	-10.9834
▁መድከም	-10.9834
▁መድፍ	-10.9834
▁መጀመሩ	-10.9834
▁መጀመሪያም	-10.9834
▁መገለጫዎች	-10.9834
▁መገለጫዎችና	-10.9834
▁መገለጽ	-10.9834
▁መገመት	-10.9834
▁መገረሜን	-10.9834
▁መገናኘትና	-10.9834
▁መገናኛ-ብዙሃን	-10.9834
▁መገንባትን	-10.9834
▁መገኘቱ	-10.9834
▁መገደዴን	-10.9834
▁መገዳደልን	-10.9834
▁መገጣጠም	-10.9834
▁መገፋት	-10.9834
▁መጉረስ	-10.9834
▁መጉረፉን	-10.9834
▁መጉረፍ	-10.9834
▁መጉዳት	-10.9834
▁መጋረጃ	-10.9834
▁መጋራት	-10.9834
▁መጋበዝ	-10.9834
▁መጋባት	-10.9834
▁መጋዘኖችም	-10.9834
▁መጋደምንና	-10.9834
▁መጋጠሚያዎቻችን	-10.9834
▁መጋፈጡ	-10.9834
▁መግቢያ፡	-10.9834
▁መግባቢያ	-10.9834
▁መግባባቱ	-10.9834
▁መግባቱን	-10.9834
▁መግባታቸውን	-10.9834
▁መግባትን	-10.9834
▁መግዣ	-10.9834
▁መግደሉ	-10.9834
▁መግደሉን	-10.9834
▁መግደላቸውን	-10.9834
▁መግደላችሁን	-10.9834
▁መግደያችን	-10.9834
▁መግደያው	-10.9834
▁መግፋቱ	-10.9834
▁መጎብኘቱ	-10.9834
▁መጎብኘቴ	-10.9834
▁መጎብኘት	-10.9834
▁መጓጓዝ	-10.9834
▁መጠለያችን	-10.9834
▁መጠለያና	-10.9834
▁መጠለያዎች	-10.9834
▁መጠሪያ	-10.9834
▁መጠቀሙ	-10.9834
▁መጠበቁን	-10.9834
▁መጠበቅን	-10.9834
▁መጠበቋን	-10.9834
▁መጠባበቅ	-10.9834
▁መጠባበቅ፡፡	-10.9834
▁መጠነ	-10.9834
▁መጠነኛ	-10.9834
▁መጠው	-10.9834
▁መጠየቄን	-10.9834
▁መጠየቋን	-10.9834
▁መጠያየቅ፣	-10.9834
▁መጠይቅ	-10.9834
▁መጠጊያ	-10.9834
▁መጠጠችለት፡፡	-10.9834
▁መጠጥ!	-10.9834
▁መጠጫ	-10.9834
▁መጡልሽ፡፡	-10.9834
▁መጡብኝ፡፡	-10.9834
▁መጡ፣	-10.9834
▁መጡ፤	-10.9834
▁መጣ	-10.9834
▁መጣ?	-10.9834
▁መጣሁ፡፡	-10.9834
▁መጣህ	-10.9834
▁መጣልኝ፡-	-10.9834
▁መጣልኝ፡፡	-10.9834
▁መጣሽልኝ!	-10.9834
▁መጣችሁልኝ››	-10.9834
▁መጣችና	-10.9834
▁መጣን፡፡	-10.9834
▁መጣያቸው	-10.9834
▁መጣ፡-	-10.9834
▁መጣ፤	-10.9834
▁መጥረጊያውን	-10.9834
▁መጥቀስ	-10.9834
▁መጥተሸ	-10.9834
▁መጥተሽ	-10.9834
▁መጥተዋል!	-10.9834
▁መጥታ	-10.9834
▁መጥቷል፡፡	-10.9834
▁መጥፎ!	-10.9834
▁መጥፎም	-10.9834
▁መጥፎና	-10.9834
▁መጥፎው	-10.9834
▁መጥፎዎቹ	-10.9834
▁መጥፎዎች	-10.9834
▁መጨረሱ	-10.9834
▁መጨረስ	-10.9834
▁መጨረሻህ	-10.9834
▁መጨነቁን	-10.9834
▁መጨነቅ	-10.9834
▁መጨነቅህን	-10.9834
▁መጨናነቃችን	-10.9834
▁መጨናነቅ	-10.9834
▁መጪውን	-10.9834
▁መጫወት፣	-10.9834
▁መጭዎች	-10.9834
▁መጮሁ	-10.9834
▁መጯጯህና	-10.9834
▁መጸለያችንን	-10.9834
▁መጸለይሽን	-10.9834
▁መጸለይን	-10.9834
▁መጸዳዳት	-10.9834
▁መጸዳጃው	-10.9834
▁መጻህፍታችንንና	-10.9834
▁መጻሕፍቱን	-10.9834
▁መጻሕፍትና	-10.9834
▁መጻሕፍትን	-10.9834
▁መጻሕፍትንና	-10.9834
▁መጻፌ	-10.9834
▁መጽሐፌን	-10.9834
▁መጽሐፍ!	-10.9834
▁መጽሐፍ-ቅዱስ	-10.9834
▁መጽሐፍቴን	-10.9834
▁መጽሐፍት	-10.9834
▁መፈለጊያውን	-10.9834
▁መፈለጋቸውን	-10.9834
▁መፈላለግ	-10.9834
▁መፈላልግ	-10.9834
▁መፈተኑን	-10.9834
▁መፈተን	-10.9834
▁መፈንጫ	-10.9834
▁መፈጸሙ	-10.9834
▁መፈጸሙን	-10.9834
▁መፈጸም	-10.9834
▁መፋለማችን	-10.9834
▁መፋለም	-10.9834
▁መፋሰስ	-10.9834
▁መፍቀዱን	-10.9834
▁መፍቀድ	-10.9834
▁መፍነክነክ	-10.9834
▁መፍጠራቸው	-10.9834
▁መፍጠር	-10.9834
▁መፎካከር	-10.9834
▁ሙሉነት	-10.9834
▁ሙሉና	-10.9834
▁ሙሉው	-10.9834
▁ሙላኝ፡፡	-10.9834
▁ሙሪንዚና	-10.9834
▁ሙሪንዚ››	-10.9834
▁ሙሬንጄ	-10.9834
▁ሙሬንጄም	-10.9834
▁ሙቀትና	-10.9834
▁ሙታን	-10.9834
▁ሙከራ	-10.9834
▁ሙዙንጉ	-10.9834
▁ሙዝና	-10.9834
▁ሚስማር	-10.9834
▁ሚስቱ	-10.9834
▁ሚስቱና	-10.9834
▁ሚስት፣	-10.9834
▁ሚስቶች	-10.9834
▁ሚኒትስ	-10.9834
▁ሚና	-10.9834
▁ሚዜዎች	-10.9834
▁ሚጡ?››	-10.9834
▁ማለምና	-10.9834
▁ማለቁ	-10.9834
▁ማለቃቀስ	-10.9834
▁ማለቃቸው	-10.9834
▁ማለቅ	-10.9834
▁ማለባበሱን	-10.9834
▁ማለቱ	-10.9834
▁ማለቱንም	-10.9834
▁ማለትህ	-10.9834
▁ማለትሽ	-10.9834
▁ማለትና	-10.9834
▁ማለዳ፣	-10.9834
▁ማለፊያ	-10.9834
▁ማለፍ	-10.9834
▁ማሉልኝ!››	-10.9834
▁ማላባ፡፡	-10.9834
▁ማልበስ	-10.9834
▁ማልኩ፡፡	-10.9834
▁ማልዶ	-10.9834
▁ማመላለሻ	-10.9834
▁ማመልከቻ	-10.9834
▁ማመርቀዙ	-10.9834
▁ማመኔን	-10.9834
▁ማመንታት	-10.9834
▁ማምለጥ	-10.9834
▁ማምለጫ	-10.9834
▁ማረሚያ	-10.9834
▁ማረኝ...	-10.9834
▁ማረኝ››	-10.9834
▁ማረጃ	-10.9834
▁ማረጋጋት	-10.9834
▁ማረፊያ	-10.9834
▁ማረፍ	-10.9834
▁ማሪኝ...	-10.9834
▁ማሪዋናም	-10.9834
▁ማሪያኔን	-10.9834
▁ማሪያኔ፣	-10.9834
▁ማራቢያዎች፤	-10.9834
▁ማራቸው፡፡	-10.9834
▁ማራኪነትና	-10.9834
▁ማራኪና	-10.9834
▁ማራገፍን	-10.9834
▁ማሬ	-10.9834
▁ማርሽው!	-10.9834
▁ማርሽው?››	-10.9834
▁ማርቀቅ	-10.9834
▁ማርቴንሰን	-10.9834
▁ማርኩት	-10.9834
▁ማርያም!	-10.9834
▁ማርያም፣	-10.9834
▁ማሰማመር	-10.9834
▁ማሰሪያ	-10.9834
▁ማሰባቸው	-10.9834
▁ማሰባቸውን	-10.9834
▁ማሰቤን	-10.9834
▁ማሰናጃ	-10.9834
▁ማሳ	-10.9834
▁ማሳለፉን	-10.9834
▁ማሳለፍ	-10.9834
▁ማሳለፍሽን	-10.9834
▁ማሳለፍን	-10.9834
▁ማሳችሁ	-10.9834
▁ማሳችን	-10.9834
▁ማሳወቅ	-10.9834
▁ማሳየት	-10.9834
▁ማሳደድ፣	-10.9834
▁ማሳደጊያ	-10.9834
▁ማስመሰል	-10.9834
▁ማስረዳት	-10.9834
▁ማስረጃዬን	-10.9834
▁ማስቆም	-10.9834
▁ማስቆጠር	-10.9834
▁ማስተናገጃ	-10.9834
▁ማስተካከል	-10.9834
▁ማስታወሻዎቼ	-10.9834
▁ማስታወቁን	-10.9834
▁ማስታወቂያ	-10.9834
▁ማስታወቂያዎች	-10.9834
▁ማስቸገር	-10.9834
▁ማስወገጃ	-10.9834
▁ማስደሰታችሁ!	-10.9834
▁ማስደሰት	-10.9834
▁ማስገቢያ	-10.9834
▁ማስገባትንም	-10.9834
▁ማስጠለል	-10.9834
▁ማስጠንቀቂያ	-10.9834
▁ማስጠንቀቂያንም	-10.9834
▁ማስጠንቀቂያዎች	-10.9834
▁ማስፈራሪያና	-10.9834
▁ማስፈጸም	-10.9834
▁ማሸማቀቁን	-10.9834
▁ማሸማቀቅ	-10.9834
▁ማሻሻያ	-10.9834
▁ማሽተት	-10.9834
▁ማሽኖች	-10.9834
▁ማቀዱን	-10.9834
▁ማቅለሽለሹ	-10.9834
▁ማቅማማቴን	-10.9834
▁ማቆሚያ	-10.9834
▁ማቆም	-10.9834
▁ማቆያው	-10.9834
▁ማቋቋሙን	-10.9834
▁ማበላሸት	-10.9834
▁ማበጀት	-10.9834
▁ማባረሩ	-10.9834
▁ማተቡ	-10.9834
▁ማተቤ	-10.9834
▁ማተብ	-10.9834
▁ማታለል	-10.9834
▁ማታባን	-10.9834
▁ማኅበረ	-10.9834
▁ማኅበረሰብ	-10.9834
▁ማኅበራት	-10.9834
▁ማኅበራችንን	-10.9834
▁ማኅበራዊ	-10.9834
▁ማኅበራዊና	-10.9834
▁ማነው?	-10.9834
▁ማነው?››	-10.9834
▁ማናባቷ	-10.9834
▁ማናችሁም	-10.9834
▁ማንሞች	-10.9834
▁ማንሾካሾኩን	-10.9834
▁ማንቀላፋት	-10.9834
▁ማንቀሳቀስ	-10.9834
▁ማንበቢያ	-10.9834
▁ማንባት	-10.9834
▁ማንነቱ	-10.9834
▁ማንነቴና	-10.9834
▁ማንነትና	-10.9834
▁ማንነቷ	-10.9834
▁ማንን	-10.9834
▁ማንኛቸው	-10.9834
▁ማንኛዋም	-10.9834
▁ማንኳተት	-10.9834
▁ማእድ	-10.9834
▁ማከናወን	-10.9834
▁ማከናወኛ	-10.9834
▁ማክማሆን፣	-10.9834
▁ማወቃቸው	-10.9834
▁ማወቄ	-10.9834
▁ማወቋ	-10.9834
▁ማዊ፣	-10.9834
▁ማውራታቸው	-10.9834
▁ማውራቴን	-10.9834
▁ማውራትን	-10.9834
▁ማውደም	-10.9834
▁ማውጫ	-10.9834
▁ማዕረግ	-10.9834
▁ማዕዘናት	-10.9834
▁ማዘንን፣	-10.9834
▁ማየሉ	-10.9834
▁ማየታችን	-10.9834
▁ማየቴና	-10.9834
▁ማየቴንና	-10.9834
▁ማየትና	-10.9834
▁ማየትን	-10.9834
▁ማየትን፣	-10.9834
▁ማደያ	-10.9834
▁ማደጌን	-10.9834
▁ማዳመጣችንን	-10.9834
▁ማድመጥ	-10.9834
▁ማድረሳችንንና	-10.9834
▁ማድረስ	-10.9834
▁ማድረስ፣	-10.9834
▁ማድረጉ	-10.9834
▁ማድረጉን	-10.9834
▁ማድረጊያው	-10.9834
▁ማድረጋቸውን	-10.9834
▁ማድረጌ	-10.9834
▁ማድረጌ፤	-10.9834
▁ማድረግም	-10.9834
▁ማድረግን	-10.9834
▁ማገልገል	-10.9834
▁ማገናዘብ	-10.9834
▁ማገዝ፡፡	-10.9834
▁ማገገሜ	-10.9834
▁ማጉተምተም	-10.9834
▁ማግ	-10.9834
▁ማግለል	-10.9834
▁ማግስት	-10.9834
▁ማግኔት	-10.9834
▁ማግኘቱን	-10.9834
▁ማግኘታቸው	-10.9834
▁ማግኘታቸውን	-10.9834
▁ማግኘቴ	-10.9834
▁ማግኘቴና	-10.9834
▁ማግኛ	-10.9834
▁ማጓጓዣዎች	-10.9834
▁ማጠቡን	-10.9834
▁ማጥፋቱን	-10.9834
▁ማጫወቻ	-10.9834
▁ማጭበርበር	-10.9834
▁ማጽዳቱ	-10.9834
▁ማጽዳቱም	-10.9834
▁ማጽዳት	-10.9834
▁ማፍራቴ	-10.9834
▁ማፍሰስ	-10.9834
▁ማፍቀር	-10.9834
▁ማፍታቻ	-10.9834
▁ማፍታቻዎችን	-10.9834
▁ሜሁንና	-10.9834
▁ሜራን	-10.9834
▁ሜትሮች	-10.9834
▁ሜካኒካል	-10.9834
▁ሜዳና	-10.9834
▁ሜዳው፡፡	-10.9834
▁ሜዳዎች	-10.9834
▁ምህረቱም	-10.9834
▁ምህረታቸውን	-10.9834
▁ምህንድስና	-10.9834
▁ምህንድስናና	-10.9834
▁ምላሼን	-10.9834
▁ምልክት-አልባ	-10.9834
▁ምልክትም	-10.9834
▁ምልክቶችና	-10.9834
▁ምሎ	-10.9834
▁ምሥራቅ	-10.9834
▁ምረሽ	-10.9834
▁ምረቃ	-10.9834
▁ምራቴና	-10.9834
▁ምሬትና	-10.9834
▁ምርመራ	-10.9834
▁ምርኩዛቸውን	-10.9834
▁ምርጫዬ	-10.9834
▁ምስሎችን	-10.9834
▁ምስክሬ	-10.9834
▁ምስጉን፣	-10.9834
▁ምስጋናዬን	-10.9834
▁ምስጢረኛ	-10.9834
▁ምስጢረኞች	-10.9834
▁ምስጢር	-10.9834
▁ምስጢሯን	-10.9834
▁ምሽትን	-10.9834
▁ምሽቶቼን	-10.9834
▁ምሽጉን	-10.9834
▁ምሽጋቸው	-10.9834
▁ምሽጋችን	-10.9834
▁ምሽጎቻቸው	-10.9834
▁ምቡጋ፣	-10.9834
▁ምታት	-10.9834
▁ምታትም	-10.9834
▁ምትሃተ-መስኮትና7	-10.9834
▁ምትክ	-10.9834
▁ምቹ	-10.9834
▁ምች፡፡	-10.9834
▁ምኅረትህን	-10.9834
▁ምኅረትም	-10.9834
▁ምኅረትሽ	-10.9834
▁ምኅረትንና	-10.9834
▁ምኑን	-10.9834
▁ምናለ!››	-10.9834
▁ምናባዊ	-10.9834
▁ምናአልባት	-10.9834
▁ምንነቱን	-10.9834
▁ምንነታቸውን	-10.9834
▁ምንድነሽ?	-10.9834
▁ምንድነው?	-10.9834
▁ምንግዜም	-10.9834
▁ምንጣፍ	-10.9834
▁ምንጥር	-10.9834
▁ምንጮች	-10.9834
▁ምኖች	-10.9834
▁ምኞታቸውን	-10.9834
▁ምኞቴ	-10.9834
▁ምኞቷ	-10.9834
▁ምክርህን	-10.9834
▁ምክርዎና	-10.9834
▁ምክሮችሽና	-10.9834
▁ምክንያታዊ	-10.9834
▁ምክንያት-አልባ	-10.9834
▁ምክንያት-የለሽ	-10.9834
▁ምዕራባዊ	-10.9834
▁ምዕራባውያን	-10.9834
▁ምዕራብ	-10.9834
▁ምዬ	-10.9834
▁ምደባን	-10.9834
▁ምግቡ	-10.9834
▁ምግባረመልካም፣	-10.9834
▁ምግባችንን	-10.9834
▁ምግብስ	-10.9834
▁ምግቦችና	-10.9834
▁ምጣኔው	-10.9834
▁ምጣኔ››	-10.9834
▁ሞላሁና	-10.9834
▁ሞላባቸው፡፡	-10.9834
▁ሞላቸው፡፡	-10.9834
▁ሞልተዋቸዋል፤	-10.9834
▁ሞልቶታል፣	-10.9834
▁ሞልቶኝ	-10.9834
▁ሞልቻለሁ፣	-10.9834
▁ሞልቼ	-10.9834
▁ሞቃት	-10.9834
▁ሞተች፡፡	-10.9834
▁ሞተዋል!››	-10.9834
▁ሞቱ	-10.9834
▁ሞቱ፡፡	-10.9834
▁ሞትን	-10.9834
▁ሞትንም	-10.9834
▁ሞቷል፣	-10.9834
▁ሞኝነት	-10.9834
▁ሞኝና	-10.9834
▁ሞከረች፡፡	-10.9834
▁ሞከሩ፡፡	-10.9834
▁ሞከርን፡፡	-10.9834
▁ሞከርን፤	-10.9834
▁ሞከርኩ	-10.9834
▁ሞከርኩና	-10.9834
▁ሞከርኩ፡-	-10.9834
▁ሞክረሃል፣	-10.9834
▁ሞክሪ	-10.9834
▁ሞክራለች፡፡	-10.9834
▁ሞክሮ	-10.9834
▁ሞክሯል፡፡	-10.9834
▁ሞክሯል››	-10.9834
▁ሞክሼ	-10.9834
▁ሞገስም	-10.9834
▁ሟሸውና	-10.9834
▁ሟሿል!	-10.9834
▁ሟች	-10.9834
▁ሟቾች	-10.9834
▁ሠለጠኑ	-10.9834
▁ሠራተኛ	-10.9834
▁ሠራተኛቸው	-10.9834
▁ሠራተኛዎት	-10.9834
▁ሠራተኞቹ	-10.9834
▁ሠራተኞቻቸው	-10.9834
▁ሠራተኞቻቸውና	-10.9834
▁ሠራተኞቻችን	-10.9834
▁ሠራዊቱን	-10.9834
▁ሠራዊት	-10.9834
▁ሠርጉ	-10.9834
▁ሠብሉ	-10.9834
▁ሠጋሁ	-10.9834
▁ሠጋሁ፡፡	-10.9834
▁ሣ	-10.9834
▁ሣልኩት	-10.9834
▁ሣልኩ፡፡	-10.9834
▁ሣርና	-10.9834
▁ሣቅና	-10.9834
▁ሣቅ፡፡	-10.9834
▁ሣጥን፣	-10.9834
▁ሥልጣንንም	-10.9834
▁ሥም	-10.9834
▁ሥራሽን	-10.9834
▁ሥራቸው	-10.9834
▁ሥራቸውና	-10.9834
▁ሥራችሁን	-10.9834
▁ሥራን	-10.9834
▁ሥራአጥ	-10.9834
▁ሥራዋ	-10.9834
▁ሥራዎችን	-10.9834
▁ሥራዎቿ	-10.9834
▁ሥራዎቿን	-10.9834
▁ሥራዬ	-10.9834
▁ሥራ፡፡	-10.9834
▁ሥራ፣	-10.9834
▁ሥራ››	-10.9834
▁ሥርዓተ-ትምህርቱ	-10.9834
▁ሥቃያችን	-10.9834
▁ሥቃያችንን	-10.9834
▁ሥቃዬማ	-10.9834
▁ሥቃይን	-10.9834
▁ሥነሥርዓት	-10.9834
▁ሥንቅ	-10.9834
▁ሥውር	-10.9834
▁ሥጋ	-10.9834
▁ሥጋዬን	-10.9834
▁ሥፍራ	-10.9834
▁ሥፍራዎችን	-10.9834
▁ሦስተኛ	-10.9834
▁ሦስተኛዋና	-10.9834
▁ሦስቱ	-10.9834
▁ሦስትና	-10.9834
▁ረሃብ፣	-10.9834
▁ረሳሁ-	-10.9834
▁ረስተናቸዋል፤	-10.9834
▁ረስቶ	-10.9834
▁ረብ-አልባ	-10.9834
▁ረብሻንም	-10.9834
▁ረብሻዎች	-10.9834
▁ረዘም፣	-10.9834
▁ረዳት-አልባነትም	-10.9834
▁ረዳት-አልባውን	-10.9834
▁ረዳኝ፡፡	-10.9834
▁ረድቶኛል፣	-10.9834
▁ረድቶኝ	-10.9834
▁ረጅሙንና	-10.9834
▁ረጅሟ	-10.9834
▁ረገምኩት፤	-10.9834
▁ረገምኳቸው፡፡	-10.9834
▁ረገብ	-10.9834
▁ረገድ	-10.9834
▁ረገጥኩ፡፡	-10.9834
▁ረግረጉና	-10.9834
▁ረግጦ	-10.9834
▁ረጥበንና	-10.9834
▁ረፋድ	-10.9834
▁ረፍት-አልባ	-10.9834
▁ሩታካሚዜ	-10.9834
▁ሩት	-10.9834
▁ሩአግም	-10.9834
▁ሩአግን	-10.9834
▁ሩዋንዳን፣	-10.9834
▁ሩዋንዳዊትነቴ	-10.9834
▁ሩዋንዳውያንን	-10.9834
▁ሩዝና	-10.9834
▁ሩዝ፣	-10.9834
▁ሩጫ	-10.9834
▁ሩጫዬን	-10.9834
▁ሪሜምበሪንግ	-10.9834
▁ሪትም	-10.9834
▁ሪዝ	-10.9834
▁ራሞስ፣	-10.9834
▁ራሱም	-10.9834
▁ራሱንም	-10.9834
▁ራሳችሁ	-10.9834
▁ራሳችሁን	-10.9834
▁ራሳችን	-10.9834
▁ራሴው	-10.9834
▁ራስ-ወዳድነት	-10.9834
▁ራስዎን	-10.9834
▁ራሷ	-10.9834
▁ራቀና	-10.9834
▁ራቱን	-10.9834
▁ራታችንን	-10.9834
▁ራትሽን	-10.9834
▁ራእይዋን	-10.9834
▁ራዕዮቿ	-10.9834
▁ራይደር	-10.9834
▁ራይድ	-10.9834
▁ራይድ፣	-10.9834
▁ራዱ፤	-10.9834
▁ሬሳ	-10.9834
▁ሬድዮም	-10.9834
▁ሬድዮናችን	-10.9834
▁ርሃብን	-10.9834
▁ርህሩህ፣	-10.9834
▁ርህራሄም	-10.9834
▁ርቀን	-10.9834
▁ርቋል፡፡	-10.9834
▁ርብቃ	-10.9834
▁ርቦሻል፣	-10.9834
▁ርቦን፣	-10.9834
▁ርኩሰትም	-10.9834
▁ርኩሰትን	-10.9834
▁ርዊምፒሊ	-10.9834
▁ርዕሰ-መምህር	-10.9834
▁ርዕሰ-ብሔሩን	-10.9834
▁ርዕሰብሔሩ	-10.9834
▁ርዕሰብሔር	-10.9834
▁ርዕሰወደ	-10.9834
▁ርዕዮተ-ዓለማዊ	-10.9834
▁ርዝመት	-10.9834
▁ርዝራዦች	-10.9834
▁ርያን፡-	-10.9834
▁ርጭ	-10.9834
▁ሮሜዎ	-10.9834
▁ሮበርት	-10.9834
▁ሮዝ?››	-10.9834
▁ሮዝ፡፡	-10.9834
▁ሮዝ፤	-10.9834
▁ሮጀርስ፣	-10.9834
▁ሮጠችና	-10.9834
▁ሮጠች፡፡	-10.9834
▁ሮጠን	-10.9834
▁ሮጠው	-10.9834
▁ሮጠ፡፡	-10.9834
▁ሮጡ፡፡	-10.9834
▁ሮጡ፣	-10.9834
▁ሮጣ	-10.9834
▁ሮጥን፤	-10.9834
▁ሮጥኩ፡፡	-10.9834
▁ሮጦ	-10.9834
▁ሰለሆነም	-10.9834
▁ሰለባዎችን	-10.9834
▁ሰለቸኝ	-10.9834
▁ሰላማዊና	-10.9834
▁ሰላሜን	-10.9834
▁ሰላምም	-10.9834
▁ሰላምና	-10.9834
▁ሰላምንና	-10.9834
▁ሰላሳችንም	-10.9834
▁ሰላይነቱ	-10.9834
▁ሰላዮችም	-10.9834
▁ሰላዮችን	-10.9834
▁ሰሌዳ	-10.9834
▁ሰሌዳውን	-10.9834
▁ሰሌዳዎች	-10.9834
▁ሰሌዳዬ	-10.9834
▁ሰልተው	-10.9834
▁ሰልችቶኛል፡፡››	-10.9834
▁ሰልከክ፣	-10.9834
▁ሰልካካ	-10.9834
▁ሰማሁ	-10.9834
▁ሰማሁት፤	-10.9834
▁ሰማሁ፤	-10.9834
▁ሰማሁ››	-10.9834
▁ሰማን	-10.9834
▁ሰማን፣	-10.9834
▁ሰማን፤	-10.9834
▁ሰማኝ፡፡	-10.9834
▁ሰማይን	-10.9834
▁ሰም	-10.9834
▁ሰምተህ	-10.9834
▁ሰምተሻል?	-10.9834
▁ሰምተናል፡፡	-10.9834
▁ሰምተንሽ	-10.9834
▁ሰምተዋል፡፡	-10.9834
▁ሰምተው	-10.9834
▁ሰምተውኝ	-10.9834
▁ሰምቷል፡፡	-10.9834
▁ሰምቷት	-10.9834
▁ሰምቻለሁ	-10.9834
▁ሰምቻቸው	-10.9834
▁ሰሩት፡፡	-10.9834
▁ሰራዊትና	-10.9834
▁ሰርተን	-10.9834
▁ሰርታለች	-10.9834
▁ሰርቼ	-10.9834
▁ሰርዘውት	-10.9834
▁ሰቀቀኔንና	-10.9834
▁ሰቀቀን	-10.9834
▁ሰቆቃና	-10.9834
▁ሰቆቃዋን	-10.9834
▁ሰቆቃዎቼን	-10.9834
▁ሰቆቃዬን	-10.9834
▁ሰበሰብኩት፡፡	-10.9834
▁ሰበሰብኩና	-10.9834
▁ሰባሰብኩ	-10.9834
▁ሰባተኛው	-10.9834
▁ሰባቶቹ	-10.9834
▁ሰብሉን	-10.9834
▁ሰብላቸው	-10.9834
▁ሰብረን	-10.9834
▁ሰብስቦ	-10.9834
▁ሰነበትን፡፡	-10.9834
▁ሰነዘረ	-10.9834
▁ሰነዘርኩ	-10.9834
▁ሰነዘርኩ፡፡	-10.9834
▁ሰነዶቹን	-10.9834
▁ሰነዶችን	-10.9834
▁ሰኔ	-10.9834
▁ሰንበቶችን	-10.9834
▁ሰንብቷል፡፡	-10.9834
▁ሰንካዩን	-10.9834
▁ሰንዝሮ	-10.9834
▁ሰክረዋል፤	-10.9834
▁ሰዉ	-10.9834
▁ሰዉም	-10.9834
▁ሰዉን	-10.9834
▁ሰዋስው	-10.9834
▁ሰዋስውና	-10.9834
▁ሰው!	-10.9834
▁ሰውረን!››	-10.9834
▁ሰውረኝ፡፡	-10.9834
▁ሰውነቱን	-10.9834
▁ሰውነታቸው	-10.9834
▁ሰውነትሽ	-10.9834
▁ሰውነቷ	-10.9834
▁ሰውና	-10.9834
▁ሰውዬ፡፡	-10.9834
▁ሰው፣	-10.9834
▁ሰዎቻችን	-10.9834
▁ሰዎችሽን	-10.9834
▁ሰዎችና	-10.9834
▁ሰዎችንም	-10.9834
▁ሰዓቱን	-10.9834
▁ሰዓታቱ	-10.9834
▁ሰዓታት፣	-10.9834
▁ሰዓቴ	-10.9834
▁ሰዓትም	-10.9834
▁ሰይጣኑን	-10.9834
▁ሰይጣናዊ	-10.9834
▁ሰይጣኖች	-10.9834
▁ሰይጣኖችና	-10.9834
▁ሰደፍ	-10.9834
▁ሰድቦት	-10.9834
▁ሰገባዎቻቸው	-10.9834
▁ሰጋን፡፡	-10.9834
▁ሰጠሁ!	-10.9834
▁ሰጠሁት፡፡	-10.9834
▁ሰጠመ!	-10.9834
▁ሰጠን፡፡	-10.9834
▁ሰጠኛ!››	-10.9834
▁ሰጠው፡፡	-10.9834
▁ሰጡት፡፡	-10.9834
▁ሰጡን፡-	-10.9834
▁ሰጡን፡፡	-10.9834
▁ሰጡኝ፣	-10.9834
▁ሰጥተዋቸው	-10.9834
▁ሰጥተው	-10.9834
▁ሰጥተውት	-10.9834
▁ሰጥተውን	-10.9834
▁ሰጥተውኛል	-10.9834
▁ሰጥታኝ	-10.9834
▁ሰጥቶናል	-10.9834
▁ሰጥቶናል፡፡	-10.9834
▁ሰጥቶን	-10.9834
▁ሰጥቶኛል፤	-10.9834
▁ሰጥቶ፤	-10.9834
▁ሰፋ	-10.9834
▁ሰፋፊ፣	-10.9834
▁ሰፍ	-10.9834
▁ሰፍረዋል፡፡	-10.9834
▁ሰፍረው	-10.9834
▁ሰፍሯል!	-10.9834
▁ሱሪ	-10.9834
▁ሱሪዬን	-10.9834
▁ሱቆች	-10.9834
▁ሱፍ	-10.9834
▁ሲሄድብኝ	-10.9834
▁ሲሆንብኝ	-10.9834
▁ሲለማመጣችሁ	-10.9834
▁ሲለምኑ	-10.9834
▁ሲለቅበት	-10.9834
▁ሲለን	-10.9834
▁ሲለኝ	-10.9834
▁ሲለኝ፤	-10.9834
▁ሲለፋ	-10.9834
▁ሲሉም	-10.9834
▁ሲሉት	-10.9834
▁ሲሉትም	-10.9834
▁ሲላቸው	-10.9834
▁ሲላወስ	-10.9834
▁ሲል፣	-10.9834
▁ሲሏቸው	-10.9834
▁ሲመለሱ፣	-10.9834
▁ሲመለስም	-10.9834
▁ሲመላለስ	-10.9834
▁ሲመሩ	-10.9834
▁ሲመታ	-10.9834
▁ሲመክር	-10.9834
▁ሲመጡም	-10.9834
▁ሲመጡብን	-10.9834
▁ሲመጡ፣	-10.9834
▁ሲመጣብኝ	-10.9834
▁ሲሞክሩ	-10.9834
▁ሲረብሹና	-10.9834
▁ሲረጭ	-10.9834
▁ሲራኮቱ	-10.9834
▁ሲሮጡ	-10.9834
▁ሲሮጡና	-10.9834
▁ሲሮጥ	-10.9834
▁ሲሰሙ	-10.9834
▁ሲሰሙኝ	-10.9834
▁ሲሰማት	-10.9834
▁ሲሰሩ	-10.9834
▁ሲሰነዝርበት	-10.9834
▁ሲሰጡ	-10.9834
▁ሲሰጡን	-10.9834
▁ሲሰጣቸው	-10.9834
▁ሲሰጧት	-10.9834
▁ሲሲሌም	-10.9834
▁ሲስቁብንም	-10.9834
▁ሲስቁና	-10.9834
▁ሲስቅ፣	-10.9834
▁ሲሸለቀቅ	-10.9834
▁ሲሸሹ፣	-10.9834
▁ሲቀላለዱ	-10.9834
▁ሲቀላቸው፣	-10.9834
▁ሲቀል	-10.9834
▁ሲቀልድ	-10.9834
▁ሲቀመጡ	-10.9834
▁ሲቀረን	-10.9834
▁ሲቀረፉ	-10.9834
▁ሲቀበሉን	-10.9834
▁ሲቀበላቸው	-10.9834
▁ሲቀበል	-10.9834
▁ሲቀየር	-10.9834
▁ሲቀድ	-10.9834
▁ሲቀጥል፡-	-10.9834
▁ሲቀጥል፣	-10.9834
▁ሲቃ	-10.9834
▁ሲቃጠል	-10.9834
▁ሲቆሙ	-10.9834
▁ሲቆረጡና	-10.9834
▁ሲቆራረጡ	-10.9834
▁ሲቆራርጡት	-10.9834
▁ሲበላ!	-10.9834
▁ሲበላና	-10.9834
▁ሲበር	-10.9834
▁ሲበቃቸው	-10.9834
▁ሲባሉ	-10.9834
▁ሲብሰለሰልና	-10.9834
▁ሲተሙ	-10.9834
▁ሲተነፍሱ	-10.9834
▁ሲተኛ	-10.9834
▁ሲተዋወቁ	-10.9834
▁ሲታረዱ	-10.9834
▁ሲታዘቡ	-10.9834
▁ሲታየን	-10.9834
▁ሲነሳ	-10.9834
▁ሲነቀንቅላቸው	-10.9834
▁ሲነካው፣	-10.9834
▁ሲነጋጋና	-10.9834
▁ሲነግረን	-10.9834
▁ሲነግረኝ	-10.9834
▁ሲነግሩን	-10.9834
▁ሲነጥለኝና	-10.9834
▁ሲነጻጸር	-10.9834
▁ሲነፋ	-10.9834
▁ሲናጥ	-10.9834
▁ሲንሠራፋ	-10.9834
▁ሲንሾካሾኩብኝ	-10.9834
▁ሲንቀጠቀጡ	-10.9834
▁ሲንቦገቦግበት፣	-10.9834
▁ሲንዲከት	-10.9834
▁ሲንጠላጠልና	-10.9834
▁ሲንፈላሰሱ	-10.9834
▁ሲኖረን	-10.9834
▁ሲኖሩ	-10.9834
▁ሲኖሩሽ፣	-10.9834
▁ሲከሰት	-10.9834
▁ሲከዱንስ	-10.9834
▁ሲከፈት	-10.9834
▁ሲከፋኝ	-10.9834
▁ሲወለድ	-10.9834
▁ሲወረውሩኝ	-10.9834
▁ሲወረውሯቸው	-10.9834
▁ሲወርዱና	-10.9834
▁ሲወድም	-10.9834
▁ሲወጡና	-10.9834
▁ሲወጡ፡፡	-10.9834
▁ሲወጣ	-10.9834
▁ሲዋትቱ፡፡	-10.9834
▁ሲዖልነት	-10.9834
▁ሲዘምሩ	-10.9834
▁ሲዘዋወሩ	-10.9834
▁ሲዘገጃጁ	-10.9834
▁ሲዘጋ	-10.9834
▁ሲዘፍኑ	-10.9834
▁ሲዘፍኑና	-10.9834
▁ሲዘፍን	-10.9834
▁ሲዝናና	-10.9834
▁ሲያለቅስበት	-10.9834
▁ሲያልቅባቸው	-10.9834
▁ሲያልፉ	-10.9834
▁ሲያልፉም	-10.9834
▁ሲያመላክቱት	-10.9834
▁ሲያመጡ	-10.9834
▁ሲያመጡልን	-10.9834
▁ሲያመጣልኝም	-10.9834
▁ሲያመጧቸው	-10.9834
▁ሲያማርሩበት፤	-10.9834
▁ሲያምን	-10.9834
▁ሲያሠራጩት	-10.9834
▁ሲያሠቃዩን	-10.9834
▁ሲያረካቸው	-10.9834
▁ሲያስሱ	-10.9834
▁ሲያስቀምጡላትና	-10.9834
▁ሲያስቀምጣቸው	-10.9834
▁ሲያስተውል	-10.9834
▁ሲያስታውሰኝ	-10.9834
▁ሲያስታውቅ	-10.9834
▁ሲያስታውቅም	-10.9834
▁ሲያስቸግረኝ	-10.9834
▁ሲያስነብበኝ	-10.9834
▁ሲያስደስት!	-10.9834
▁ሲያስገቡ	-10.9834
▁ሲያስፈልገኝም	-10.9834
▁ሲያስፈራራኝ	-10.9834
▁ሲያስፈራኝ	-10.9834
▁ሲያቅተውና	-10.9834
▁ሲያበረታታ	-10.9834
▁ሲያበሻቅጠኝ	-10.9834
▁ሲያብራራ	-10.9834
▁ሲያነበው	-10.9834
▁ሲያነብ	-10.9834
▁ሲያናግሩትና	-10.9834
▁ሲያንኳኩ፣	-10.9834
▁ሲያንኳኳ	-10.9834
▁ሲያንዣበቡብን	-10.9834
▁ሲያንዣብብ	-10.9834
▁ሲያንጸባርቅ	-10.9834
▁ሲያንፏቅቁት	-10.9834
▁ሲያካሂድ	-10.9834
▁ሲያወሩላት	-10.9834
▁ሲያወራና	-10.9834
▁ሲያወርድ	-10.9834
▁ሲያወጣና	-10.9834
▁ሲያውቁ	-10.9834
▁ሲያውካኩ	-10.9834
▁ሲያዘግሙ	-10.9834
▁ሲያደራ	-10.9834
▁ሲያደርገን	-10.9834
▁ሲያደርገኝም	-10.9834
▁ሲያደርገው	-10.9834
▁ሲያደርጋቸው	-10.9834
▁ሲያዳምጥ	-10.9834
▁ሲያድሉ	-10.9834
▁ሲያድነኝ	-10.9834
▁ሲያገኘው	-10.9834
▁ሲያገኙኝ	-10.9834
▁ሲያገግምልኝ	-10.9834
▁ሲያጥፍ	-10.9834
▁ሲያጨበጭቡና	-10.9834
▁ሲያጽናናኝ	-10.9834
▁ሲያፈዙኝ	-10.9834
▁ሲደምቅ፣	-10.9834
▁ሲደረጉ	-10.9834
▁ሲደርስበት	-10.9834
▁ሲደርሷቸው	-10.9834
▁ሲደሰት፣	-10.9834
▁ሲደቃኝ	-10.9834
▁ሲደቃው	-10.9834
▁ሲደፍሯት	-10.9834
▁ሲዲ	-10.9834
▁ሲዳላ	-10.9834
▁ሲጀምሩ	-10.9834
▁ሲገለጥልኝ	-10.9834
▁ሲገልጽ	-10.9834
▁ሲገሰግስ	-10.9834
▁ሲገባን	-10.9834
▁ሲገደል	-10.9834
▁ሲገድሉም	-10.9834
▁ሲገድል	-10.9834
▁ሲገፈተረው	-10.9834
▁ሲጋቡ	-10.9834
▁ሲጋይ	-10.9834
▁ሲጋጩ	-10.9834
▁ሲጋጭ	-10.9834
▁ሲጋፈጡ	-10.9834
▁ሲጎትተኝ	-10.9834
▁ሲጎትቱት	-10.9834
▁ሲጠሩት	-10.9834
▁ሲጠራጠር	-10.9834
▁ሲጠራጠርበት	-10.9834
▁ሲጠብቅና	-10.9834
▁ሲጠይቀንም	-10.9834
▁ሲጠይቀው	-10.9834
▁ሲጠይቁን	-10.9834
▁ሲጠይቁኝ	-10.9834
▁ሲጠይቅ	-10.9834
▁ሲጠጉ	-10.9834
▁ሲጣሉ	-10.9834
▁ሲጣራ	-10.9834
▁ሲጥለቀለቅ	-10.9834
▁ሲጥል፣	-10.9834
▁ሲጨልምብኝ	-10.9834
▁ሲጨማመር	-10.9834
▁ሲጨምሯቸው	-10.9834
▁ሲጨርስ	-10.9834
▁ሲጨነቅ	-10.9834
▁ሲጫወትና	-10.9834
▁ሲጮሁ	-10.9834
▁ሲፈልገኝ	-10.9834
▁ሲፈልጉ	-10.9834
▁ሲፈልጉሽ፡፡	-10.9834
▁ሲፈራ	-10.9834
▁ሲፈርሱ	-10.9834
▁ሲፈተሽ	-10.9834
▁ሲፈቱና	-10.9834
▁ሲፈነዱ	-10.9834
▁ሲፈጅ	-10.9834
▁ሲፋፋሙ	-10.9834
▁ሳህኑ	-10.9834
▁ሳህኗን	-10.9834
▁ሳለች፡፡	-10.9834
▁ሳሉ	-10.9834
▁ሳሊናስ፣	-10.9834
▁ሳላስበው	-10.9834
▁ሳላስብ	-10.9834
▁ሳላስፈራ	-10.9834
▁ሳላወራ	-10.9834
▁ሳላውቀው	-10.9834
▁ሳላይ	-10.9834
▁ሳላደርግ፡፡	-10.9834
▁ሳላገኝ	-10.9834
▁ሳልሆን	-10.9834
▁ሳልል	-10.9834
▁ሳልቀሰቅሳት	-10.9834
▁ሳልቆርጥ	-10.9834
▁ሳልተኛ	-10.9834
▁ሳልጠብቅ	-10.9834
▁ሳልጠነቀቅ፣	-10.9834
▁ሳልጨርሰው	-10.9834
▁ሳልጨርስ	-10.9834
▁ሳልጸልይና	-10.9834
▁ሳልፈውና	-10.9834
▁ሳሎን	-10.9834
▁ሳመችኝ፡፡	-10.9834
▁ሳሙናዎችና	-10.9834
▁ሳሚልኝ፤	-10.9834
▁ሳሚም	-10.9834
▁ሳሚና	-10.9834
▁ሳሚን	-10.9834
▁ሳሚኝ	-10.9834
▁ሳማትር	-10.9834
▁ሳም	-10.9834
▁ሳምራዊ	-10.9834
▁ሳምንታዊ	-10.9834
▁ሳምንት፣	-10.9834
▁ሳምኩት፡፡	-10.9834
▁ሳምኳቸው፡፡	-10.9834
▁ሳሟት፤	-10.9834
▁ሳሩ	-10.9834
▁ሳራንና	-10.9834
▁ሳራ፡፡	-10.9834
▁ሳሳያትማ	-10.9834
▁ሳስስ	-10.9834
▁ሳስተካክል	-10.9834
▁ሳስታውስ	-10.9834
▁ሳስገባው	-10.9834
▁ሳስገነዝብዎት	-10.9834
▁ሳሻሽል	-10.9834
▁ሳቀባቸው፡፡	-10.9834
▁ሳቀች!	-10.9834
▁ሳቀፍሽ	-10.9834
▁ሳቀ፡፡	-10.9834
▁ሳቁ	-10.9834
▁ሳቂታ	-10.9834
▁ሳቃቸውን	-10.9834
▁ሳቄን	-10.9834
▁ሳቋም	-10.9834
▁ሳበ፤	-10.9834
▁ሳቡኝ፡፡	-10.9834
▁ሳቡ፡፡	-10.9834
▁ሳብናቸው፡፡	-10.9834
▁ሳብንና	-10.9834
▁ሳታሰማ	-10.9834
▁ሳታስበው	-10.9834
▁ሳታውቂ	-10.9834
▁ሳትሆኚ	-10.9834
▁ሳትል	-10.9834
▁ሳትኩ፡፡	-10.9834
▁ሳትደብቂ	-10.9834
▁ሳትጀምር	-10.9834
▁ሳትጠግቢያቸው	-10.9834
▁ሳትጨርስ	-10.9834
▁ሳነበንብ	-10.9834
▁ሳነበው	-10.9834
▁ሳነብ	-10.9834
▁ሳናስገባ	-10.9834
▁ሳናባክን	-10.9834
▁ሳናገኝ	-10.9834
▁ሳናገግም	-10.9834
▁ሳንሄድም	-10.9834
▁ሳንል	-10.9834
▁ሳንባባል	-10.9834
▁ሳንባዎቼም	-10.9834
▁ሳንባዎቼን	-10.9834
▁ሳንነሳ	-10.9834
▁ሳንነጋገር	-10.9834
▁ሳንዳ	-10.9834
▁ሳንዳን	-10.9834
▁ሳንዳ፣	-10.9834
▁ሳንጠቀምበት	-10.9834
▁ሳንጠግባቸው	-10.9834
▁ሳወርድባቸው	-10.9834
▁ሳውዳ	-10.9834
▁ሳዘራ	-10.9834
▁ሳየውም	-10.9834
▁ሳያምር	-10.9834
▁ሳያሰሙ	-10.9834
▁ሳያስፈልጋቸው	-10.9834
▁ሳያሸማቅቀው	-10.9834
▁ሳያት	-10.9834
▁ሳያቸው	-10.9834
▁ሳያቸው፡፡	-10.9834
▁ሳያውቁ	-10.9834
▁ሳያየኝ	-10.9834
▁ሳያዩሽ	-10.9834
▁ሳያይ	-10.9834
▁ሳያደርጉ	-10.9834
▁ሳይሆን፣	-10.9834
▁ሳይመስለው	-10.9834
▁ሳይመስላቸው	-10.9834
▁ሳይመንም	-10.9834
▁ሳይሞቱ	-10.9834
▁ሳይሞት	-10.9834
▁ሳይረዳን	-10.9834
▁ሳይረግጥ	-10.9834
▁ሳይሸማቀቁ	-10.9834
▁ሳይሻለን	-10.9834
▁ሳይሻል	-10.9834
▁ሳይሻልህ	-10.9834
▁ሳይቀሩ	-10.9834
▁ሳይቀር፡፡	-10.9834
▁ሳይቆይ	-10.9834
▁ሳይበላ	-10.9834
▁ሳይባል	-10.9834
▁ሳይተፍሱ	-10.9834
▁ሳይችሉ	-10.9834
▁ሳይነሳ	-10.9834
▁ሳይነካው	-10.9834
▁ሳይና	-10.9834
▁ሳይናገር	-10.9834
▁ሳይኖሩ	-10.9834
▁ሳይኖራቸው	-10.9834
▁ሳይኖር፣	-10.9834
▁ሳይዘገይባችሁ	-10.9834
▁ሳይዝ	-10.9834
▁ሳይደፍሩሽ	-10.9834
▁ሳይገድበው	-10.9834
▁ሳይጠፋ	-10.9834
▁ሳይጥሉ	-10.9834
▁ሳይጨርስ	-10.9834
▁ሳይፈቀድልኝ	-10.9834
▁ሳይ፡፡	-10.9834
▁ሳይ፣	-10.9834
▁ሳደርስና	-10.9834
▁ሳደርጋት	-10.9834
▁ሳዳምጠው	-10.9834
▁ሳዳምጥ	-10.9834
▁ሳገኛት	-10.9834
▁ሳጣጥም	-10.9834
▁ሳጥኑን	-10.9834
▁ሳጨነቁር	-10.9834
▁ሳፈጥበት	-10.9834
▁ሳፍርና	-10.9834
▁ሴትነት	-10.9834
▁ሴትና	-10.9834
▁ሴቶቹም	-10.9834
▁ሴቶቹና	-10.9834
▁ሴቶቻችንን	-10.9834
▁ሴቷ	-10.9834
▁ሴኔጋላዊ	-10.9834
▁ሴንቲግሬድ	-10.9834
▁ስህተቶችም	-10.9834
▁ስለሁላቸውም	-10.9834
▁ስለሄድን	-10.9834
▁ስለሆነለት	-10.9834
▁ስለሆነልኝ	-10.9834
▁ስለሆነች	-10.9834
▁ስለሆነኝ	-10.9834
▁ስለሆነው	-10.9834
▁ስለሆኑም	-10.9834
▁ስለሆኑበት	-10.9834
▁ስለሆኑና	-10.9834
▁ስለሆናችሁኝ	-10.9834
▁ስለለመድነው	-10.9834
▁ስለለበስኩ	-10.9834
▁ስለላካቸው	-10.9834
▁ስለሌለ	-10.9834
▁ስለሌለች	-10.9834
▁ስለሌሉ	-10.9834
▁ስለመሆቸውም	-10.9834
▁ስለመሆናቸው	-10.9834
▁ስለመሆናችን	-10.9834
▁ስለመለሰልኝ	-10.9834
▁ስለመረመረ	-10.9834
▁ስለመሩኝ፣	-10.9834
▁ስለመራኸኝ	-10.9834
▁ስለመሳሰሉት	-10.9834
▁ስለመቅጨት	-10.9834
▁ስለመንደሬና	-10.9834
▁ስለመዳናችሁ፡፡	-10.9834
▁ስለመዳናችን	-10.9834
▁ስለመጡ	-10.9834
▁ስለመጣም	-10.9834
▁ስለመጣሽልኝ	-10.9834
▁ስለመፍራቱ	-10.9834
▁ስለሚሄዱብሽ	-10.9834
▁ስለሚሆኑ	-10.9834
▁ስለሚመስለኝ	-10.9834
▁ስለሚመች	-10.9834
▁ስለሚሠራ	-10.9834
▁ስለሚርቅ	-10.9834
▁ስለሚሰማቸው	-10.9834
▁ስለሚሸፍንላቸው	-10.9834
▁ስለሚባል	-10.9834
▁ስለሚተላለፉት	-10.9834
▁ስለሚችሉና	-10.9834
▁ስለሚኖሩት	-10.9834
▁ስለሚኖር	-10.9834
▁ስለሚወደኝ	-10.9834
▁ስለሚያምኑ	-10.9834
▁ስለሚያስፈልጉኝ	-10.9834
▁ስለሚያቀብሉንና	-10.9834
▁ስለሚያበቃ	-10.9834
▁ስለሚያብጡ	-10.9834
▁ስለሚያዩ	-10.9834
▁ስለሚያይል	-10.9834
▁ስለሚገኝ	-10.9834
▁ስለሚጠላ	-10.9834
▁ስለሚጠነቀቅለትና	-10.9834
▁ስለሚጠይቅ	-10.9834
▁ስለማላውቅ፡፡	-10.9834
▁ስለማስብ	-10.9834
▁ስለማናቸውም	-10.9834
▁ስለማንችል	-10.9834
▁ስለማንነታችንና	-10.9834
▁ስለማኖረው	-10.9834
▁ስለማውቀው	-10.9834
▁ስለማውቅና	-10.9834
▁ስለማይመስለኝ	-10.9834
▁ስለማይመስል	-10.9834
▁ስለማይመጣ	-10.9834
▁ስለማይኖሩ	-10.9834
▁ስለማይፈቀድልን	-10.9834
▁ስለማደንቃት	-10.9834
▁ስለምሆን	-10.9834
▁ስለምታርምልኝ	-10.9834
▁ስለምታነብልኝና	-10.9834
▁ስለምታውቅ	-10.9834
▁ስለምታገኝ	-10.9834
▁ስለምትሰጥ	-10.9834
▁ስለምትጋብዘው	-10.9834
▁ስለምናውቅ	-10.9834
▁ስለምናገር	-10.9834
▁ስለምንቆይ	-10.9834
▁ስለምንችል	-10.9834
▁ስለምንኖር	-10.9834
▁ስለምንኖርበት	-10.9834
▁ስለምንዋደድ	-10.9834
▁ስለምንጋራ	-10.9834
▁ስለምንጠባበቅ	-10.9834
▁ስለምወዳት	-10.9834
▁ስለምወዳትና	-10.9834
▁ስለምጎዳ	-10.9834
▁ስለምጸልይ	-10.9834
▁ስለምፈልገው	-10.9834
▁ስለሞላ	-10.9834
▁ስለሞላው	-10.9834
▁ስለሞቱ	-10.9834
▁ስለሠራ	-10.9834
▁ስለሠራሁ	-10.9834
▁ስለረካ	-10.9834
▁ስለረዳኸኝ፤	-10.9834
▁ስለራሳችን	-10.9834
▁ስለሰማሁት	-10.9834
▁ስለሰማቸው	-10.9834
▁ስለሰማኋቸው	-10.9834
▁ስለሰማው	-10.9834
▁ስለሰጠኝና	-10.9834
▁ስለሷ	-10.9834
▁ስለቀረ	-10.9834
▁ስለቀረላት	-10.9834
▁ስለቃኙ	-10.9834
▁ስለቆሙ	-10.9834
▁ስለበላው	-10.9834
▁ስለበዛ	-10.9834
▁ስለበገንኩ	-10.9834
▁ስለቤተሰባችን	-10.9834
▁ስለቤተሰቦቻቸው	-10.9834
▁ስለቤተሰቧ	-10.9834
▁ስለብቸኛው	-10.9834
▁ስለተለያቸው	-10.9834
▁ስለተለያየንበት	-10.9834
▁ስለተልፈሰፈሱ	-10.9834
▁ስለተማመኑብኝና	-10.9834
▁ስለተማመንኩና	-10.9834
▁ስለተማርኩ	-10.9834
▁ስለተሠራልንና	-10.9834
▁ስለተረዳ	-10.9834
▁ስለተረዳኸኝ	-10.9834
▁ስለተረጎመልን	-10.9834
▁ስለተረፉ	-10.9834
▁ስለተሰማው	-10.9834
▁ስለተሰኘሁ	-10.9834
▁ስለተሸማቀቅሁም	-10.9834
▁ስለተሸበሩ	-10.9834
▁ስለተቀረው	-10.9834
▁ስለተበሳጨሁ	-10.9834
▁ስለተተዉ	-10.9834
▁ስለተነሣሳችሁ	-10.9834
▁ስለተከመሩ	-10.9834
▁ስለተከራከራቸው	-10.9834
▁ስለተከሰቱት	-10.9834
▁ስለተከበብን	-10.9834
▁ስለተከፈቱ	-10.9834
▁ስለተወለዱ	-10.9834
▁ስለተወረወሩ	-10.9834
▁ስለተውናቸው	-10.9834
▁ስለተደረጉ	-10.9834
▁ስለተደናገጡ	-10.9834
▁ስለተደናገጥኩ	-10.9834
▁ስለተግባባን	-10.9834
▁ስለተጠለልንበት	-10.9834
▁ስለተጨነቅሁ	-10.9834
▁ስለታያችሁ	-10.9834
▁ስለነቀነቀልኝ	-10.9834
▁ስለነበረች	-10.9834
▁ስለነበረችበት	-10.9834
▁ስለነበረን	-10.9834
▁ስለነበሩት	-10.9834
▁ስለነበሩና	-10.9834
▁ስለነበራት	-10.9834
▁ስለነበራቸው	-10.9834
▁ስለነበርና	-10.9834
▁ስለነበርን	-10.9834
▁ስለነበር፡፡	-10.9834
▁ስለነበሯቸው	-10.9834
▁ስለነካኝ	-10.9834
▁ስለነዚህ	-10.9834
▁ስለነገርከኝ	-10.9834
▁ስለነገርኳችሁ	-10.9834
▁ስለነገሰ	-10.9834
▁ስለነፍሶቻችን	-10.9834
▁ስለናንተ	-10.9834
▁ስለናፈቀኝ	-10.9834
▁ስለኖሩ	-10.9834
▁ስለአመጣጣችን	-10.9834
▁ስለአማጽያን	-10.9834
▁ስለእናንተ	-10.9834
▁ስለእውነት	-10.9834
▁ስለከረረች	-10.9834
▁ስለከበደኝም	-10.9834
▁ስለከፈትክልኝና	-10.9834
▁ስለወንድሞቻችንና	-10.9834
▁ስለወደቁ	-10.9834
▁ስለወደዱኝ	-10.9834
▁ስለወጣሁ	-10.9834
▁ስለወጣች	-10.9834
▁ስለወጣን	-10.9834
▁ስለዋለች	-10.9834
▁ስለያዘንና	-10.9834
▁ስለደህንነታቸው	-10.9834
▁ስለደማሁ	-10.9834
▁ስለደረሰውና	-10.9834
▁ስለደረስኩም	-10.9834
▁ስለደበቀልኝ	-10.9834
▁ስለገባ	-10.9834
▁ስለገባው	-10.9834
▁ስለገዳዮቹ	-10.9834
▁ስለገጠማት	-10.9834
▁ስለገፋፋቸው	-10.9834
▁ስለጠየቀኝ	-10.9834
▁ስለጠፉ	-10.9834
▁ስለጣርክና	-10.9834
▁ስለጤናዬ	-10.9834
▁ስለጥቃቱና	-10.9834
▁ስለጥፋቱ	-10.9834
▁ስለጸለይኩ	-10.9834
▁ስለፈለገ	-10.9834
▁ስለፈለግሁ	-10.9834
▁ስለፈራሁና	-10.9834
▁ስላለህልኝ	-10.9834
▁ስላለቀስኩ	-10.9834
▁ስላለባቸው፤	-10.9834
▁ስላለብኝ	-10.9834
▁ስላለን	-10.9834
▁ስላለፍኩበት	-10.9834
▁ስላሉ	-10.9834
▁ስላሉልን	-10.9834
▁ስላላመነው	-10.9834
▁ስላላሰብኩ	-10.9834
▁ስላላቸው	-10.9834
▁ስላላችሁ	-10.9834
▁ስላላወቅሁ	-10.9834
▁ስላላገኙ	-10.9834
▁ስላልሆንኩ	-10.9834
▁ስላልተኛን	-10.9834
▁ስላልተጠናቀቀ	-10.9834
▁ስላልነበራት	-10.9834
▁ስላልገባኝ	-10.9834
▁ስላልፈለገ	-10.9834
▁ስላመነ	-10.9834
▁ስላመጡን	-10.9834
▁ስላመጣልኝ	-10.9834
▁ስላመጣዎት	-10.9834
▁ስላሠለጠነች	-10.9834
▁ስላረዱ	-10.9834
▁ስላሰበ	-10.9834
▁ስላሰቡ	-10.9834
▁ስላሳለፈ	-10.9834
▁ስላሳለፈው	-10.9834
▁ስላስተዋወቅሽኝ	-10.9834
▁ስላስቻልከኝ	-10.9834
▁ስላስገባን	-10.9834
▁ስላስገባኝ	-10.9834
▁ስላስጠነቀቅሽን	-10.9834
▁ስላስፈለጋት	-10.9834
▁ስላቀደ	-10.9834
▁ስላቀፍኩትም	-10.9834
▁ስላቆመው	-10.9834
▁ስላቆየው	-10.9834
▁ስላቋረጠኝ	-10.9834
▁ስላበረታታኸኝ፣	-10.9834
▁ስላበዛሽው	-10.9834
▁ስላተረፈልን	-10.9834
▁ስላት	-10.9834
▁ስላት፣	-10.9834
▁ስላንቺ	-10.9834
▁ስላወቁ	-10.9834
▁ስላወቅሁ	-10.9834
▁ስላወቅሁና	-10.9834
▁ስላወጡ	-10.9834
▁ስላዋዋሉ	-10.9834
▁ስላየ	-10.9834
▁ስላየሁት	-10.9834
▁ስላዩ	-10.9834
▁ስላዩት	-10.9834
▁ስላዩኝ	-10.9834
▁ስላዩዋቸው	-10.9834
▁ስላያቸው	-10.9834
▁ስላደረገኝ	-10.9834
▁ስላደረገው፣	-10.9834
▁ስላደረጉልኝና	-10.9834
▁ስላደረጉት	-10.9834
▁ስላደረግሁ	-10.9834
▁ስላደረጓቸው	-10.9834
▁ስላደጉ	-10.9834
▁ስላገናኘን	-10.9834
▁ስላገኘሁሽ	-10.9834
▁ስላገኘሁት	-10.9834
▁ስላገኘቻቸው	-10.9834
▁ስላገዘኝ	-10.9834
▁ስላጣና	-10.9834
▁ስልም	-10.9834
▁ስልኩን	-10.9834
▁ስልኬ	-10.9834
▁ስመ-ጥሩ	-10.9834
▁ስመለከት	-10.9834
▁ስመረቅ	-10.9834
▁ስመኝ	-10.9834
▁ስመዘግባት	-10.9834
▁ስሙር	-10.9834
▁ስሚንቶና	-10.9834
▁ስሚዝና	-10.9834
▁ስሚዝን፣	-10.9834
▁ስማ	-10.9834
▁ስማር፣	-10.9834
▁ስማቸው	-10.9834
▁ስማቸውን	-10.9834
▁ስማችሁን	-10.9834
▁ስማችንን	-10.9834
▁ስማጸን	-10.9834
▁ስሜታዊ	-10.9834
▁ስሜቴም	-10.9834
▁ስሜት-አልባ	-10.9834
▁ስሜቶቻችንን	-10.9834
▁ስም-ጥሪው	-10.9834
▁ስምምነቶች	-10.9834
▁ስምሽን	-10.9834
▁ስምንተኛ	-10.9834
▁ስምንቱ	-10.9834
▁ስምንታችን	-10.9834
▁ስም››	-10.9834
▁ስሞላና	-10.9834
▁ስሞቻቸው	-10.9834
▁ስሞቻችን	-10.9834
▁ስሞችና	-10.9834
▁ስሞክራቸው	-10.9834
▁ስሬ	-10.9834
▁ስርጭቱም	-10.9834
▁ስርጭት	-10.9834
▁ስሮቼ	-10.9834
▁ስሮጥበት	-10.9834
▁ስሰማ፣	-10.9834
▁ስስ	-10.9834
▁ስሸሸግ	-10.9834
▁ስሸኘው	-10.9834
▁ስቀላቀላቸው	-10.9834
▁ስቀመጥ	-10.9834
▁ስቀበል	-10.9834
▁ስቆርጥ	-10.9834
▁ስበረታና	-10.9834
▁ስበት	-10.9834
▁ስቤ	-10.9834
▁ስብስቡ	-10.9834
▁ስብስባቸውን	-10.9834
▁ስብና	-10.9834
▁ስብጥር	-10.9834
▁ስቦ	-10.9834
▁ስተዋወቅና	-10.9834
▁ስተው	-10.9834
▁ስታ	-10.9834
▁ስታቀልጠው	-10.9834
▁ስታታልለኝ	-10.9834
▁ስታና	-10.9834
▁ስታወግዘኝ	-10.9834
▁ስታዋያት	-10.9834
▁ስታዝናናቸው	-10.9834
▁ስታየን	-10.9834
▁ስታየው	-10.9834
▁ስታይ	-10.9834
▁ስታይኖፍ	-10.9834
▁ስታድኛቸው፡፡	-10.9834
▁ስታድጉ	-10.9834
▁ስታድጊ	-10.9834
▁ስታጠባ	-10.9834
▁ስቴላ	-10.9834
▁ስቴሲ	-10.9834
▁ስትሄድ	-10.9834
▁ስትሄጂ	-10.9834
▁ስትለቀኝ	-10.9834
▁ስትለኝ	-10.9834
▁ስትለፋ፣	-10.9834
▁ስትመለስ	-10.9834
▁ስትመስለኝ	-10.9834
▁ስትማር	-10.9834
▁ስትምሪ	-10.9834
▁ስትራውብ፣	-10.9834
▁ስትሮጥ	-10.9834
▁ስትሰማ	-10.9834
▁ስትሰሩ	-10.9834
▁ስትሰነዘርበት	-10.9834
▁ስትሰፋ	-10.9834
▁ስትቀልዱብኝ	-10.9834
▁ስትቀልጥ	-10.9834
▁ስትቆዩ	-10.9834
▁ስትቆይ	-10.9834
▁ስትቆጥር	-10.9834
▁ስትባሉ	-10.9834
▁ስትባትል	-10.9834
▁ስትነሳ	-10.9834
▁ስትነቃ	-10.9834
▁ስትነግረን	-10.9834
▁ስትነግሪን	-10.9834
▁ስትኖር	-10.9834
▁ስትከት	-10.9834
▁ስትከፍልና	-10.9834
▁ስትክድ	-10.9834
▁ስትወጪ	-10.9834
▁ስትውተረተር	-10.9834
▁ስትዘልቅ	-10.9834
▁ስትደርስ	-10.9834
▁ስትገልጣቸው	-10.9834
▁ስትገድሉ	-10.9834
▁ስትጠናቀቅ	-10.9834
▁ስትጠይቀኝ	-10.9834
▁ስትጠይቅ	-10.9834
▁ስትጨርሱና	-10.9834
▁ስትጨነቅ	-10.9834
▁ስትጮህ	-10.9834
▁ስትጸልዪ	-10.9834
▁ስትፈልገኝ	-10.9834
▁ስቶ	-10.9834
▁ስቶይኖፍ	-10.9834
▁ስቼ	-10.9834
▁ስነግራት	-10.9834
▁ስኒ	-10.9834
▁ስናልፍ	-10.9834
▁ስናመራ	-10.9834
▁ስናስተውል	-10.9834
▁ስናበቃ	-10.9834
▁ስናወጋ	-10.9834
▁ስናውለበልብና	-10.9834
▁ስናዘራ	-10.9834
▁ስናዞር	-10.9834
▁ስናደማምቅላቸው	-10.9834
▁ስናደምጥ	-10.9834
▁ስናደርግባቸው	-10.9834
▁ስናዳምጥ	-10.9834
▁ስናዳምጥበት	-10.9834
▁ስናድግ	-10.9834
▁ስናገኛቸው	-10.9834
▁ስናገኝ	-10.9834
▁ስናጸዳ	-10.9834
▁ስንሆን	-10.9834
▁ስንመጣ	-10.9834
▁ስንረዳ	-10.9834
▁ስንረጋጋ	-10.9834
▁ስንርቅ	-10.9834
▁ስንርበደበድ	-10.9834
▁ስንሮጥ	-10.9834
▁ስንስቅ፣	-10.9834
▁ስንቀር	-10.9834
▁ስንቀሳቀስ	-10.9834
▁ስንበላና	-10.9834
▁ስንብት	-10.9834
▁ስንተያይ	-10.9834
▁ስንነሳ	-10.9834
▁ስንነዳ	-10.9834
▁ስንነጋገር	-10.9834
▁ስንከራከር	-10.9834
▁ስንከትፍህ	-10.9834
▁ስንዋጋ	-10.9834
▁ስንጠባበቅ	-10.9834
▁ስንጠብቅ	-10.9834
▁ስንጠያየቅና	-10.9834
▁ስንጠይቅ	-10.9834
▁ስንጠግንና	-10.9834
▁ስንጣጣር	-10.9834
▁ስንጥቅ	-10.9834
▁ስንጫወትና	-10.9834
▁ስንጸዳዳ	-10.9834
▁ስንፈልጋት	-10.9834
▁ስንፈልግም	-10.9834
▁ስኖር	-10.9834
▁ስከታተል	-10.9834
▁ስከፍት	-10.9834
▁ስካይ	-10.9834
▁ስካፑላር	-10.9834
▁ስኳር፣	-10.9834
▁ስወዳት	-10.9834
▁ስዋጋ	-10.9834
▁ስዘረጋላት	-10.9834
▁ስዘገጃጅ	-10.9834
▁ስዬው፣	-10.9834
▁ስድሳ	-10.9834
▁ስድስቱ	-10.9834
▁ስድስታችን	-10.9834
▁ስድስታችንም	-10.9834
▁ስድቦችና	-10.9834
▁ስድን	-10.9834
▁ስገላበጥ	-10.9834
▁ስገናኝ	-10.9834
▁ስጋቱ	-10.9834
▁ስጋታቸውን	-10.9834
▁ስጋታችን	-10.9834
▁ስጋቴም	-10.9834
▁ስጋት	-10.9834
▁ስጋዬን	-10.9834
▁ስጓዝም	-10.9834
▁ስጠራሽ	-10.9834
▁ስጠኝና	-10.9834
▁ስጠይቅ፣	-10.9834
▁ስጣጣር	-10.9834
▁ስጥር	-10.9834
▁ስጦታነት	-10.9834
▁ስጦታዎቹ	-10.9834
▁ስጦታዎቻችንን	-10.9834
▁ስጨብጠው	-10.9834
▁ስጨነቅ	-10.9834
▁ስጨፍንም	-10.9834
▁ስጸና	-10.9834
▁ስጽፍና	-10.9834
▁ስፋቷ	-10.9834
▁ስፍራና	-10.9834
▁ስፍራዋን	-10.9834
▁ስፍራውን	-10.9834
▁ስፍራዎች፣	-10.9834
▁ስፍራዬን	-10.9834
▁ስፍራ፡፡	-10.9834
▁ስፍራ፣	-10.9834
▁ሶ	-10.9834
▁ሶላንዥም	-10.9834
▁ሶስተኛ	-10.9834
▁ሶስቱ	-10.9834
▁ሸለብ	-10.9834
▁ሸሚዙን	-10.9834
▁ሸራ	-10.9834
▁ሸራው	-10.9834
▁ሸራውን	-10.9834
▁ሸሸሁ፡፡	-10.9834
▁ሸሸት	-10.9834
▁ሸሸን፡፡	-10.9834
▁ሸሸገን፡፡	-10.9834
▁ሸሹ፡፡	-10.9834
▁ሸሻጊው	-10.9834
▁ሸሽተዋል፡፡	-10.9834
▁ሸተተኝ፡፡	-10.9834
▁ሸነታተሩት፤	-10.9834
▁ሸነታተሩኝ፡፡	-10.9834
▁ሸክሙን	-10.9834
▁ሸክም	-10.9834
▁ሸፈነለት፡፡	-10.9834
▁ሸፈነችልኝ	-10.9834
▁ሸፈነና	-10.9834
▁ሸፈንኩ፤	-10.9834
▁ሸፋፈነው	-10.9834
▁ሸፍኖ	-10.9834
▁ሸፍኖታል፡፡	-10.9834
▁ሸፍኖታል፤	-10.9834
▁ሸፍኜና	-10.9834
▁ሹራቤንና	-10.9834
▁ሹካ	-10.9834
▁ሹካውን	-10.9834
▁ሹክ	-10.9834
▁ሹክሹክታውም	-10.9834
▁ሺ	-10.9834
▁ሺሚርዋ››	-10.9834
▁ሺዎች...	-10.9834
▁ሺዎች፣	-10.9834
▁ሻለቃውም	-10.9834
▁ሻለቃውን	-10.9834
▁ሻለቃው፡፡	-10.9834
▁ሻለቃ፣	-10.9834
▁ሻለቃ፤	-10.9834
▁ሻሽ	-10.9834
▁ሻነን	-10.9834
▁ሻንጣ	-10.9834
▁ሻንጣዎቼን	-10.9834
▁ሻኖን	-10.9834
▁ሻይ	-10.9834
▁ሽልማት	-10.9834
▁ሽሎቻቸው	-10.9834
▁ሽማግሌና	-10.9834
▁ሽማግሌዎቹን	-10.9834
▁ሽምዌ	-10.9834
▁ሽምጥ	-10.9834
▁ሽርሽሮች	-10.9834
▁ሽቁጥቁጥ	-10.9834
▁ሽብርንና	-10.9834
▁ሽታው	-10.9834
▁ሽታውማ	-10.9834
▁ሽቶ	-10.9834
▁ሽው	-10.9834
▁ሽፍቶች	-10.9834
▁ሾልከው	-10.9834
▁ሾልኮ	-10.9834
▁ሾንታል	-10.9834
▁ቀለለን፡፡	-10.9834
▁ቀለሉኝ፡፡	-10.9834
▁ቀለሙ	-10.9834
▁ቀለማት	-10.9834
▁ቀለስ	-10.9834
▁ቀለበት	-10.9834
▁ቀልቡ	-10.9834
▁ቀልተዋል...	-10.9834
▁ቀልተዋል፤	-10.9834
▁ቀልቶ፣	-10.9834
▁ቀልደኛ፣	-10.9834
▁ቀልዱን	-10.9834
▁ቀሚሴ	-10.9834
▁ቀሚሶቹን	-10.9834
▁ቀሚሷ	-10.9834
▁ቀሚሷንም	-10.9834
▁ቀምተውና	-10.9834
▁ቀረ...ብ	-10.9834
▁ቀረሁ፤	-10.9834
▁ቀረልኝ፤	-10.9834
▁ቀረኝ	-10.9834
▁ቀረጣጥፈው	-10.9834
▁ቀረ፡፡	-10.9834
▁ቀሪው	-10.9834
▁ቀሪውንም	-10.9834
▁ቀርበው	-10.9834
▁ቀርቤ	-10.9834
▁ቀርተዋል	-10.9834
▁ቀርቶልናል፤	-10.9834
▁ቀርቶልኝ	-10.9834
▁ቀርቼ	-10.9834
▁ቀርጬው	-10.9834
▁ቀርፋፋ	-10.9834
▁ቀሰስተኛ	-10.9834
▁ቀሰቀሰኝ፡፡	-10.9834
▁ቀሰቀሰው፡፡	-10.9834
▁ቀሰቀሰ፡፡	-10.9834
▁ቀሰቀስኩት፡፡	-10.9834
▁ቀሰቀስኳት፡፡	-10.9834
▁ቀስቀስ	-10.9834
▁ቀስቅሰው	-10.9834
▁ቀስቅሶ	-10.9834
▁ቀስት	-10.9834
▁ቀስቶች	-10.9834
▁ቀሽም	-10.9834
▁ቀበሯት፡፡	-10.9834
▁ቀበቶ	-10.9834
▁ቀትር	-10.9834
▁ቀነሱ፡፡	-10.9834
▁ቀናቱ	-10.9834
▁ቀናው	-10.9834
▁ቀኔ፤	-10.9834
▁ቀን!	-10.9834
▁ቀንማ	-10.9834
▁ቀንሰሽ	-10.9834
▁ቀንሷል፡፡	-10.9834
▁ቀንደኛ	-10.9834
▁ቀንድም	-10.9834
▁ቀንዶቹ!››	-10.9834
▁ቀን፣	-10.9834
▁ቀዝቃዛው	-10.9834
▁ቀየርኩት	-10.9834
▁ቀያየርኩት፡፡	-10.9834
▁ቀያይሮታል	-10.9834
▁ቀያይሮታል፡፡	-10.9834
▁ቀይረን	-10.9834
▁ቀይረውት	-10.9834
▁ቀይ፣	-10.9834
▁ቀዳማዊት	-10.9834
▁ቀዳሜ	-10.9834
▁ቀዳዳዋ	-10.9834
▁ቀድመናቸው	-10.9834
▁ቀድሞውንም	-10.9834
▁ቀጠለ	-10.9834
▁ቀጠለች፤	-10.9834
▁ቀጠለ፣	-10.9834
▁ቀጠሉ፡፡	-10.9834
▁ቀጠሉ፣	-10.9834
▁ቀጠሉ፤	-10.9834
▁ቀጠልን፡፡	-10.9834
▁ቀጠልኩ፣	-10.9834
▁ቀጠልኩ፤	-10.9834
▁ቀጠና	-10.9834
▁ቀጣዮቹ	-10.9834
▁ቀጥለዋል፡፡	-10.9834
▁ቀጥሉ፤	-10.9834
▁ቀጥል››	-10.9834
▁ቀጥሎም	-10.9834
▁ቀጥሎስ	-10.9834
▁ቀጥታ	-10.9834
▁ቀጥዪበት፡፡››	-10.9834
▁ቀጫችንና	-10.9834
▁ቀጭን	-10.9834
▁ቀፈፈኝ፤	-10.9834
▁ቀፎ	-10.9834
▁ቁልል	-10.9834
▁ቁልቁለቷን	-10.9834
▁ቁልፍ	-10.9834
▁ቁልፍም	-10.9834
▁ቁመቱንና	-10.9834
▁ቁመናው	-10.9834
▁ቁመናዬንም	-10.9834
▁ቁማር	-10.9834
▁ቁምነገር	-10.9834
▁ቁራጭ	-10.9834
▁ቁርኝቴን	-10.9834
▁ቁርጠኝነቴን	-10.9834
▁ቁርጥ	-10.9834
▁ቁስሉም	-10.9834
▁ቁስላቸውን	-10.9834
▁ቁስሎቻቸው	-10.9834
▁ቁስሎቼ	-10.9834
▁ቁስሏን	-10.9834
▁ቁንጮ	-10.9834
▁ቁዘማ	-10.9834
▁ቁጠሪኝ፡፡››	-10.9834
▁ቁጡ	-10.9834
▁ቁጡዎቹ	-10.9834
▁ቁጥሩም	-10.9834
▁ቁጥራችን	-10.9834
▁ቁጥር፡፡	-10.9834
▁ቁጥሮች	-10.9834
▁ቁጥቋጦው	-10.9834
▁ቁጥብና	-10.9834
▁ቁጭት	-10.9834
▁ቂም	-10.9834
▁ቃለ-መጠይቁ	-10.9834
▁ቃለ-መጠይቅ	-10.9834
▁ቃለምልልስ	-10.9834
▁ቃሉ	-10.9834
▁ቃላቴንና	-10.9834
▁ቃላት!››	-10.9834
▁ቃላትና	-10.9834
▁ቃላቸውን	-10.9834
▁ቃላቸውንም	-10.9834
▁ቃሌ	-10.9834
▁ቃሌን	-10.9834
▁ቃልህን	-10.9834
▁ቃል፣	-10.9834
▁ቃንቄ	-10.9834
▁ቃኝታ	-10.9834
▁ቃጠሎው	-10.9834
▁ቃጣኝ፡፡	-10.9834
▁ቃጣው፡፡	-10.9834
▁ቃጥቷቸዋል፡፡	-10.9834
▁ቄሱ!	-10.9834
▁ቄሱ››	-10.9834
▁ቄስ፣	-10.9834
▁ቄሶች	-10.9834
▁ቄሶችና	-10.9834
▁ቄሶች፣	-10.9834
▁ቅሉን	-10.9834
▁ቅላጼ	-10.9834
▁ቅልል	-10.9834
▁ቅሪቶች፡፡	-10.9834
▁ቅር	-10.9834
▁ቅርርባችን	-10.9834
▁ቅርርብ	-10.9834
▁ቅርስና	-10.9834
▁ቅርቡ	-10.9834
▁ቅርጫት	-10.9834
▁ቅስሙ	-10.9834
▁ቅቅል	-10.9834
▁ቅንፎችን	-10.9834
▁ቅዠታችሁ	-10.9834
▁ቅዠቴን	-10.9834
▁ቅዠቶች	-10.9834
▁ቅደም	-10.9834
▁ቅዱሴንና	-10.9834
▁ቅዱስ!	-10.9834
▁ቅዱሶቻቸውን	-10.9834
▁ቅዱሷን	-10.9834
▁ቅዳሴ	-10.9834
▁ቅዳሴም	-10.9834
▁ቅድመ-ሁኔታ	-10.9834
▁ቅድመሁኔታ	-10.9834
▁ቅድስቲቱን	-10.9834
▁ቅድስና	-10.9834
▁ቅጠላ	-10.9834
▁ቅጠላቅጠል	-10.9834
▁ቅጠሎች	-10.9834
▁ቅጡ	-10.9834
▁ቅጣት	-10.9834
▁ቅጥልጥል	-10.9834
▁ቅጥር	-10.9834
▁ቅጻቅጾችን	-10.9834
▁ቅጽሎች፤	-10.9834
▁ቅጾች	-10.9834
▁ቅጾችን	-10.9834
▁ቅፍፍ	-10.9834
▁ቆመልኝ	-10.9834
▁ቆመች፡፡	-10.9834
▁ቆመናል፡፡	-10.9834
▁ቆመውና	-10.9834
▁ቆማም	-10.9834
▁ቆማችሁ	-10.9834
▁ቆሜያለሁ፡፡	-10.9834
▁ቆም	-10.9834
▁ቆሟል፡፡	-10.9834
▁ቆረጠና	-10.9834
▁ቆረጠ፡፡	-10.9834
▁ቆረጣውን	-10.9834
▁ቆራርጠው	-10.9834
▁ቆራርጬ	-10.9834
▁ቆራጥ	-10.9834
▁ቆርቆሮ	-10.9834
▁ቆርጠዋል፡፡	-10.9834
▁ቆርጧል፡፡	-10.9834
▁ቆርጬ	-10.9834
▁ቆሮ.	-10.9834
▁ቆሳስለዋል	-10.9834
▁ቆሳስለዋል፡፡	-10.9834
▁ቆሳስለው	-10.9834
▁ቆስለዋል፡፡	-10.9834
▁ቆሽሸን	-10.9834
▁ቆንጅዬ	-10.9834
▁ቆንጆነት	-10.9834
▁ቆንጆዋን	-10.9834
▁ቆንጆዎቹ	-10.9834
▁ቆንጆዎችና	-10.9834
▁ቆንጆ፡፡	-10.9834
▁ቆየሁ	-10.9834
▁ቆየች፡፡	-10.9834
▁ቆየና	-10.9834
▁ቆየን፤	-10.9834
▁ቆያችሁ?	-10.9834
▁ቆያ፤	-10.9834
▁ቆይ	-10.9834
▁ቆይ!	-10.9834
▁ቆይተናል!	-10.9834
▁ቆይተናል››	-10.9834
▁ቆይተን	-10.9834
▁ቆይታችኋል	-10.9834
▁ቆይታዎቼ	-10.9834
▁ቆይታዬን	-10.9834
▁ቆይቶ	-10.9834
▁ቆይቻለሁ	-10.9834
▁ቆይቻለሁ...	-10.9834
▁ቆይቼ	-10.9834
▁ቆዳ	-10.9834
▁ቆዳችን	-10.9834
▁ቆዳችንም	-10.9834
▁ቆዳዬንም	-10.9834
▁ቆጠረ	-10.9834
▁ቆጠርኩ፡፡	-10.9834
▁ቆጥሬ	-10.9834
▁ቆፈሩት፡፡	-10.9834
▁ቆፈርን፡፡	-10.9834
▁ቆፍሮ	-10.9834
▁ቋንቋን	-10.9834
▁ቋንቋዋ	-10.9834
▁ቋጥኝ	-10.9834
▁ቋጩት፡፡	-10.9834
▁በ0913658839	-10.9834
▁በ0970381070	-10.9834
▁በ19	-10.9834
▁በ1959ና	-10.9834
▁በ1959ኙና	-10.9834
▁በ1962	-10.9834
▁በ1963	-10.9834
▁በ1965	-10.9834
▁በ1991	-10.9834
▁በ1993	-10.9834
▁በ1994ቱ	-10.9834
▁በ1995	-10.9834
▁በ1998፣	-10.9834
▁በ2012	-10.9834
▁በ2013	-10.9834
▁በ40.5	-10.9834
▁በሀሳባቸው	-10.9834
▁በሀገሯ	-10.9834
▁በሁለቱ	-10.9834
▁በሁሉ	-10.9834
▁በሁቱና	-10.9834
▁በሁቱዎች	-10.9834
▁በሁቱዎችና	-10.9834
▁በሁካታው	-10.9834
▁በሃሳቡ	-10.9834
▁በሃሳባቸው	-10.9834
▁በሃቅ	-10.9834
▁በሃብታም	-10.9834
▁በሃይማኖት	-10.9834
▁በሄድንበት	-10.9834
▁በሄድኩም	-10.9834
▁በህልሞቼ	-10.9834
▁በህመም፣	-10.9834
▁በሆነልን	-10.9834
▁በሆነበት	-10.9834
▁በሆነው	-10.9834
▁በሆኑ	-10.9834
▁በሆኑበት	-10.9834
▁በሆኑበትና	-10.9834
▁በሆኑት	-10.9834
▁በሆዴ	-10.9834
▁በሆድ	-10.9834
▁በለሰለሰ	-10.9834
▁በለስላሳ	-10.9834
▁በለበስኩት	-10.9834
▁በለኝ	-10.9834
▁በለጥ	-10.9834
▁በሉኝ፡፡››	-10.9834
▁በሉኝ››	-10.9834
▁በሊሴም	-10.9834
▁በላባዎቹ	-10.9834
▁በላን፡፡	-10.9834
▁በላዩ	-10.9834
▁በላይ፡፡	-10.9834
▁በሌለ	-10.9834
▁በሌለበት	-10.9834
▁በሌለባቸው	-10.9834
▁በሌሉበት	-10.9834
▁በሌሊት	-10.9834
▁በሌላቸው	-10.9834
▁በሌላችን	-10.9834
▁በል!	-10.9834
▁በልበሙሉነት	-10.9834
▁በልባችሁም	-10.9834
▁በልባችን	-10.9834
▁በልቤና	-10.9834
▁በልብሱ	-10.9834
▁በልብሶቼ	-10.9834
▁በልተዋል፡፡	-10.9834
▁በልቶ	-10.9834
▁በልካችን	-10.9834
▁በልዑል	-10.9834
▁በልደት	-10.9834
▁በልጅ	-10.9834
▁በልጆቻቸው	-10.9834
▁በልጬ	-10.9834
▁በል፡፡	-10.9834
▁በል››	-10.9834
▁በሎንግ	-10.9834
▁በሏ	-10.9834
▁በሐዘን	-10.9834
▁በሐዘንና	-10.9834
▁በሐዘን፣	-10.9834
▁በሒሳብና	-10.9834
▁በሕትመትና	-10.9834
▁በሕይወትስ	-10.9834
▁በሕይወት፣	-10.9834
▁በሕይወቷ	-10.9834
▁በሕጻንነቷ	-10.9834
▁በመሆናችን	-10.9834
▁በመለማመን	-10.9834
▁በመለበሳቸው	-10.9834
▁በመለኮታዊ	-10.9834
▁በመልስ	-10.9834
▁በመልካምነት	-10.9834
▁በመመስረት	-10.9834
▁በመመኘት	-10.9834
▁በመመገቢያ	-10.9834
▁በመመገቢያው	-10.9834
▁በመምረጥ፣	-10.9834
▁በመምጣቴ	-10.9834
▁በመምጣት	-10.9834
▁በመሠረዝ	-10.9834
▁በመሥጋት	-10.9834
▁በመረዳታችሁና	-10.9834
▁በመሪነት	-10.9834
▁በመራጨት	-10.9834
▁በመሬት	-10.9834
▁በመርፌ	-10.9834
▁በመሰለ	-10.9834
▁በመሰለኝ	-10.9834
▁በመሰብሰብ	-10.9834
▁በመሳም	-10.9834
▁በመስማማትና	-10.9834
▁በመስማቴ	-10.9834
▁በመስታወቱ	-10.9834
▁በመስኩ	-10.9834
▁በመስጋት	-10.9834
▁በመስጠት፣	-10.9834
▁በመቀላቀሌ	-10.9834
▁በመቀመጥ	-10.9834
▁በመቀበልህም	-10.9834
▁በመቀያየር	-10.9834
▁በመቀጣጠል	-10.9834
▁በመቁጠሪያው	-10.9834
▁በመቁጠሪያዬ	-10.9834
▁በመቃብሮቻቸው	-10.9834
▁በመቃጠል	-10.9834
▁በመቆም	-10.9834
▁በመቆየታቸውና	-10.9834
▁በመተማመን	-10.9834
▁በመተኛቴ	-10.9834
▁በመተካት	-10.9834
▁በመተው	-10.9834
▁በመታሠራቸውና	-10.9834
▁በመታጠቢያ-ቤቱ	-10.9834
▁በመትረየስ	-10.9834
▁በመትረፍሽ	-10.9834
▁በመትረፏ	-10.9834
▁በመቶዎች፣	-10.9834
▁በመቸር፣	-10.9834
▁በመቻሌ	-10.9834
▁በመነመነው	-10.9834
▁በመነሳቱ	-10.9834
▁በመነፈግ	-10.9834
▁በመናገሩ	-10.9834
▁በመናገር፡፡	-10.9834
▁በመንዘፍዘፍና	-10.9834
▁በመንገዳቸው	-10.9834
▁በመንገድም	-10.9834
▁በመንገዶቹ	-10.9834
▁በመንገዶች	-10.9834
▁በመንጋት	-10.9834
▁በመንግሥትና	-10.9834
▁በመኖሩ	-10.9834
▁በመኖር	-10.9834
▁በመካሄድ	-10.9834
▁በመካከላቸው	-10.9834
▁በመካከላችን	-10.9834
▁በመክተቷ	-10.9834
▁በመክፈል	-10.9834
▁በመክፈት	-10.9834
▁በመኰንኑ	-10.9834
▁በመወርወር	-10.9834
▁በመወሰድ	-10.9834
▁በመውጋትና	-10.9834
▁በመዘየድ	-10.9834
▁በመዝረፍ	-10.9834
▁በመደበቅ	-10.9834
▁በመደበቅሽ	-10.9834
▁በመደዳ	-10.9834
▁በመደጋገም	-10.9834
▁በመገረም	-10.9834
▁በመገፋትና	-10.9834
▁በመጉላቱ	-10.9834
▁በመጋረጃዋ	-10.9834
▁በመጋበዝና	-10.9834
▁በመግል	-10.9834
▁በመግባባት	-10.9834
▁በመግባቴ	-10.9834
▁በመግዛት	-10.9834
▁በመግደሉ	-10.9834
▁በመጎናጎን	-10.9834
▁በመጠለያውም	-10.9834
▁በመጠቅጠቅ	-10.9834
▁በመጠበቅ	-10.9834
▁በመጠጋት	-10.9834
▁በመጡበት	-10.9834
▁በመጣሁበት	-10.9834
▁በመጣል፣	-10.9834
▁በመጣጣምና	-10.9834
▁በመጥላቴ	-10.9834
▁በመጥረቢያ	-10.9834
▁በመጥራት	-10.9834
▁በመጥፋቱ	-10.9834
▁በመጥፋቴ	-10.9834
▁በመጨረሻም፣	-10.9834
▁በመጨረሻዋም	-10.9834
▁በመጨረሻው	-10.9834
▁በመጨቃጨቃችን	-10.9834
▁በመጨቃጨቅ	-10.9834
▁በመጨነቅ	-10.9834
▁በመጪው	-10.9834
▁በመጭዎቹ	-10.9834
▁በመጭዎቹም	-10.9834
▁በመጮህ	-10.9834
▁በመጯጯኽ	-10.9834
▁በመጸለይ	-10.9834
▁በመጸለይ፡፡	-10.9834
▁በመጸልይ	-10.9834
▁በመጻፍ	-10.9834
▁በመጻፍና	-10.9834
▁በመጽሐፌ	-10.9834
▁በመፈለጌ	-10.9834
▁በመፈጠራችሁና	-10.9834
▁በመፈጠራችን	-10.9834
▁በመፈጸማቸው	-10.9834
▁በመፍጀቱ	-10.9834
▁በመፍጀት	-10.9834
▁በመፍጠር	-10.9834
▁በሚሆን	-10.9834
▁በሚሉት	-10.9834
▁በሚመለሱ	-10.9834
▁በሚመጡ	-10.9834
▁በሚሠቀጥጥ	-10.9834
▁በሚሰማን	-10.9834
▁በሚሰጥበት	-10.9834
▁በሚስቁበትና	-10.9834
▁በሚሸጥባቸው	-10.9834
▁በሚቆጠሩ	-10.9834
▁በሚቆጠር	-10.9834
▁በሚባለው	-10.9834
▁በሚባል	-10.9834
▁በሚታይባቸው	-10.9834
▁በሚቻለኝ	-10.9834
▁በሚቻል	-10.9834
▁በሚቻልበት	-10.9834
▁በሚችል	-10.9834
▁በሚነሳሱት	-10.9834
▁በሚነገርባት	-10.9834
▁በሚናገርበት	-10.9834
▁በሚካሄዱት	-10.9834
▁በሚወርድበት	-10.9834
▁በሚወደደው	-10.9834
▁በሚወዳት	-10.9834
▁በሚያረካኝ	-10.9834
▁በሚያራምዱትና	-10.9834
▁በሚያሳምም	-10.9834
▁በሚያሳይ	-10.9834
▁በሚያስቸግረው	-10.9834
▁በሚያስነዳው	-10.9834
▁በሚያስወጡት	-10.9834
▁በሚያስደነግጥ	-10.9834
▁በሚያስደፍር	-10.9834
▁በሚያስጠላ	-10.9834
▁በሚያስፈራ	-10.9834
▁በሚያስፈትነው	-10.9834
▁በሚያንጸባርቀው	-10.9834
▁በሚያወሱ	-10.9834
▁በሚያዩበት	-10.9834
▁በሚያደርሱበት	-10.9834
▁በሚያጋጥመኝ	-10.9834
▁በሚደረግ	-10.9834
▁በሚገልጹ	-10.9834
▁በሚገቡ	-10.9834
▁በሚገባን	-10.9834
▁በሚገኙባቸው	-10.9834
▁በሚገደሉ	-10.9834
▁በሚገጥመን	-10.9834
▁በሚፈሩበት	-10.9834
▁በማለምና	-10.9834
▁በማለቱና	-10.9834
▁በማለቴም	-10.9834
▁በማለትህ	-10.9834
▁በማለት፣	-10.9834
▁በማላውቅበት	-10.9834
▁በማልቀሴ	-10.9834
▁በማልችልበት	-10.9834
▁በማመልከው	-10.9834
▁በማመንሽ	-10.9834
▁በማመዛዘን	-10.9834
▁በማምሸት	-10.9834
▁በማምጣቱ	-10.9834
▁በማምጣት	-10.9834
▁በማምጣትና	-10.9834
▁በማሠራጨት	-10.9834
▁በማረስ	-10.9834
▁በማረጋገጥ፣	-10.9834
▁በማረጋጋቱ	-10.9834
▁በማረጋጋት	-10.9834
▁በማርዳቴ	-10.9834
▁በማሰልጠን	-10.9834
▁በማሰስ	-10.9834
▁በማሰባሰብ	-10.9834
▁በማሰብ፡፡	-10.9834
▁በማሳለፍ	-10.9834
▁በማሳሰብ	-10.9834
▁በማሳወቅ	-10.9834
▁በማሳየት	-10.9834
▁በማስተማር	-10.9834
▁በማስተዋሉ	-10.9834
▁በማስተዋል	-10.9834
▁በማስታወስ	-10.9834
▁በማስከተልም	-10.9834
▁በማስደገፊያዬም	-10.9834
▁በማስገደድ	-10.9834
▁በማስፈራራት፣	-10.9834
▁በማስፈሬም	-10.9834
▁በማስፈጸም	-10.9834
▁በማቀድ	-10.9834
▁በማቀፍና	-10.9834
▁በማቆምና	-10.9834
▁በማቋቋሙ	-10.9834
▁በማበረታቻ	-10.9834
▁በማበረታቻና	-10.9834
▁በማባባስ	-10.9834
▁በማታ	-10.9834
▁በማኅበረሰቡ	-10.9834
▁በማኅበረሰቤ	-10.9834
▁በማኅበራዊ	-10.9834
▁በማን	-10.9834
▁በማንሃታን	-10.9834
▁በማንሃታን፣	-10.9834
▁በማንበቤ	-10.9834
▁በማንኳኳትና	-10.9834
▁በማከም	-10.9834
▁በማከታተል	-10.9834
▁በማወቁ	-10.9834
▁በማወናጨፍ	-10.9834
▁በማውራት	-10.9834
▁በማውቀው	-10.9834
▁በማውጋት	-10.9834
▁በማዕከልነት	-10.9834
▁በማዘን	-10.9834
▁በማዘንና	-10.9834
▁በማየታችን	-10.9834
▁በማየት	-10.9834
▁በማያስፈልግ	-10.9834
▁በማይሰጣቸው	-10.9834
▁በማይስማማ	-10.9834
▁በማይስማማኝ	-10.9834
▁በማይተመን	-10.9834
▁በማይታመን	-10.9834
▁በማይታሰቡ	-10.9834
▁በማይታወቅ	-10.9834
▁በማይችሉ	-10.9834
▁በማይችሉበት	-10.9834
▁በማይናወጠው	-10.9834
▁በማይኖሩበት	-10.9834
▁በማይኖርበት	-10.9834
▁በማይገደድበት	-10.9834
▁በማይጎዱባት	-10.9834
▁በማዳን	-10.9834
▁በማድረግ፡-	-10.9834
▁በማድረጓ	-10.9834
▁በማጅራቴ	-10.9834
▁በማገልገል	-10.9834
▁በማገናዘብ፡፡	-10.9834
▁በማገዜ	-10.9834
▁በማገዝ	-10.9834
▁በማጋበስና	-10.9834
▁በማግስቱም	-10.9834
▁በማግኘታችን	-10.9834
▁በማጓራት	-10.9834
▁በማጠናበት	-10.9834
▁በማጣቴ	-10.9834
▁በማጣት፣	-10.9834
▁በማጤን	-10.9834
▁በማጽደቅና	-10.9834
▁በማጽዳታችሁ	-10.9834
▁በማፈራረስ	-10.9834
▁በሜዳ	-10.9834
▁በምሄድበት	-10.9834
▁በምላሱ	-10.9834
▁በምማርበት	-10.9834
▁በምሥራቅና	-10.9834
▁በምርቃቴ፡፡	-10.9834
▁በምሰጣቸው	-10.9834
▁በምተኛባቸው	-10.9834
▁በምታስተምርበት	-10.9834
▁በምታደርግበት	-10.9834
▁በምታጧጡፍበት	-10.9834
▁በምታፍን	-10.9834
▁በምትንከባከበው	-10.9834
▁በምትዘጋጅበት	-10.9834
▁በምችላቸው	-10.9834
▁በምኅረትህ	-10.9834
▁በምነቃባቸውም	-10.9834
▁በምናልፍበት	-10.9834
▁በምናቤ	-10.9834
▁በምናደርጋቸው	-10.9834
▁በምናገርባቸው	-10.9834
▁በምንሰማው	-10.9834
▁በምንሰጣቸው	-10.9834
▁በምንኖርበት	-10.9834
▁በምክሩ	-10.9834
▁በምዕራቡ	-10.9834
▁በምድጆች	-10.9834
▁በምገኝባቸው	-10.9834
▁በምግብ	-10.9834
▁በምጸልይበት	-10.9834
▁በምፈልግበት	-10.9834
▁በሞከሩ	-10.9834
▁በሟች	-10.9834
▁በሥቃይ	-10.9834
▁በሥቃይና	-10.9834
▁በሦስተኛ	-10.9834
▁በሦስተኛውና	-10.9834
▁በሦስትና	-10.9834
▁በረሃብ	-10.9834
▁በረሩ፤	-10.9834
▁በረርኩባት፤	-10.9834
▁በረሮዎቹ››	-10.9834
▁በረሮዎችም	-10.9834
▁በረቂቋ	-10.9834
▁በረብሻ	-10.9834
▁በረብሻው	-10.9834
▁በረት	-10.9834
▁በረንዳው	-10.9834
▁በረድ	-10.9834
▁በረዶ	-10.9834
▁በረጃጅም	-10.9834
▁በሩቅ	-10.9834
▁በሩአግ	-10.9834
▁በሩዋንዳዊቷ	-10.9834
▁በሩጫ	-10.9834
▁በራሱም	-10.9834
▁በራሳችሁም	-10.9834
▁በራሶቻቸው	-10.9834
▁በራት	-10.9834
▁በራቸውን	-10.9834
▁በራዲዮ	-10.9834
▁በራዲዮና	-10.9834
▁በራድክ	-10.9834
▁በሬ	-10.9834
▁በሬሳ	-10.9834
▁በሬድዮናችን	-10.9834
▁በርረን	-10.9834
▁በርሳችሁ	-10.9834
▁በርሳችንም	-10.9834
▁በርተን፣	-10.9834
▁በርታ	-10.9834
▁በርታ፡፡	-10.9834
▁በርትታ	-10.9834
▁በርከክ	-10.9834
▁በርክሌይና	-10.9834
▁በርዕሰ-ብሔራችን	-10.9834
▁በርጩማ	-10.9834
▁በሮቹ	-10.9834
▁በሯን	-10.9834
▁በሰልፍ	-10.9834
▁በሰማሁ	-10.9834
▁በሰማሁትም	-10.9834
▁በሰማሁና	-10.9834
▁በሰማኝ፣	-10.9834
▁በሰርጓ	-10.9834
▁በሰባት	-10.9834
▁በሰብዓዊነትና	-10.9834
▁በሰከረ	-10.9834
▁በሰከነ	-10.9834
▁በሰዉ	-10.9834
▁በሰውነታችን	-10.9834
▁በሰጠሁና	-10.9834
▁በሰጡኝ	-10.9834
▁በሰፈነባትና	-10.9834
▁በሰፈነባቸው	-10.9834
▁በሲቃ	-10.9834
▁በሳል፣	-10.9834
▁በሳሙና	-10.9834
▁በሳምታት	-10.9834
▁በሳምንቱ	-10.9834
▁በሳሩ	-10.9834
▁በሳይንስ	-10.9834
▁በሴቶቹ	-10.9834
▁በሴኔጋል	-10.9834
▁በስህተት	-10.9834
▁በስለቱ	-10.9834
▁በስለት	-10.9834
▁በስልክም	-10.9834
▁በስም	-10.9834
▁በስሱ	-10.9834
▁በስስት	-10.9834
▁በስብስቡ	-10.9834
▁በስተመጨረሻ	-10.9834
▁በስተመጨረሻም	-10.9834
▁በስተቀኜ	-10.9834
▁በስተደቡብ	-10.9834
▁በስንት	-10.9834
▁በስደተኛ	-10.9834
▁በስደተኞቹና	-10.9834
▁በስደት	-10.9834
▁በስፍራው	-10.9834
▁በሶፍት	-10.9834
▁በሸፈነው	-10.9834
▁በሸፈኑ	-10.9834
▁በሹክሹክታ	-10.9834
▁በሹክሹክታና	-10.9834
▁በሻንጣዎች	-10.9834
▁በሽብሩ	-10.9834
▁በሽብርና	-10.9834
▁በሽተኛ	-10.9834
▁በሽፍቶች	-10.9834
▁በቀሉ	-10.9834
▁በቀር፡፡	-10.9834
▁በቀስቱ	-10.9834
▁በቀስታ፡፡	-10.9834
▁በቀበቶ	-10.9834
▁በቀኑ	-10.9834
▁በቀናት	-10.9834
▁በቀንም	-10.9834
▁በቀኝህም	-10.9834
▁በቀዝቃዛው	-10.9834
▁በቀየረኝ	-10.9834
▁በቀዩ	-10.9834
▁በቀይ	-10.9834
▁በቀይ፣	-10.9834
▁በቀዮቹና	-10.9834
▁በቀዳዳው	-10.9834
▁በቀጣዩም፡፡	-10.9834
▁በቀጣዩም፤	-10.9834
▁በቀጣይ	-10.9834
▁በቀጣዮቹም	-10.9834
▁በቁመታችን	-10.9834
▁በቁም	-10.9834
▁በቁምሳጥኑ	-10.9834
▁በቁምነገር	-10.9834
▁በቁራጭ	-10.9834
▁በቁርስ	-10.9834
▁በቁጡ	-10.9834
▁በቁጥቋጦው	-10.9834
▁በቁጥጥር	-10.9834
▁በቁጭት	-10.9834
▁በቁ፡፡	-10.9834
▁በቂያቸው	-10.9834
▁በቃሁ፡፡	-10.9834
▁በቃላቱ	-10.9834
▁በቃሌ	-10.9834
▁በቃልና	-10.9834
▁በቃሽ	-10.9834
▁በቃን፤	-10.9834
▁በቃ፤	-10.9834
▁በቄስ	-10.9834
▁በቅን	-10.9834
▁በቅዱስ	-10.9834
▁በቅጽበት	-10.9834
▁በቆርቆሮው	-10.9834
▁በቆሻሻ	-10.9834
▁በቆሻሻና	-10.9834
▁በቆሻሻው	-10.9834
▁በቆየሁበት	-10.9834
▁በቆዳ	-10.9834
▁በቋሚነት	-10.9834
▁በበለጠ	-10.9834
▁በበረሮዎች	-10.9834
▁በበረከተበት	-10.9834
▁በበሩም	-10.9834
▁በበርካታ	-10.9834
▁በበሯ	-10.9834
▁በበሽታና	-10.9834
▁በበሽታው	-10.9834
▁በበቀል	-10.9834
▁በበኩላችን	-10.9834
▁በበዓላት	-10.9834
▁በቡታሬ	-10.9834
▁በቡድኑ	-10.9834
▁በቡድናችን	-10.9834
▁በባለፈው	-10.9834
▁በባሕላዊ	-10.9834
▁በባዚል	-10.9834
▁በባዶ	-10.9834
▁በቤልጅዬም	-10.9834
▁በቤተሰባችንና	-10.9834
▁በቤተሰብ	-10.9834
▁በቤተሰብህ	-10.9834
▁በቤተክርስቲያኑ	-10.9834
▁በቤተክርስቲያኑም	-10.9834
▁በቤተክርስትያኒቱ	-10.9834
▁በቤቴም	-10.9834
▁በብልሃት	-10.9834
▁በብሔራዊ	-10.9834
▁በብሔራዊው	-10.9834
▁በብሪታንያ	-10.9834
▁በብርሃኑና	-10.9834
▁በብርሃን	-10.9834
▁በብሮድካስት	-10.9834
▁በብስጭት፡፡	-10.9834
▁በቦርሳዎቼም	-10.9834
▁በቪያኒና	-10.9834
▁በተለጠፈው	-10.9834
▁በተመሰቃቀለብኝ	-10.9834
▁በተመስጦ	-10.9834
▁በተምታታበትና	-10.9834
▁በተሞላው	-10.9834
▁በተሠራው	-10.9834
▁በተረጨው	-10.9834
▁በተረፈኝ	-10.9834
▁በተራ	-10.9834
▁በተራራ	-10.9834
▁በተራራው	-10.9834
▁በተርጓሚው	-10.9834
▁በተሰማኝ	-10.9834
▁በተሰራው	-10.9834
▁በተሰበረ	-10.9834
▁በተሰበሰበበት	-10.9834
▁በተሰበሰበባቸው	-10.9834
▁በተሰባበረው	-10.9834
▁በተሳለው	-10.9834
▁በተሳደዱበት፣	-10.9834
▁በተሸሸኩበት	-10.9834
▁በተሻለ፡፡	-10.9834
▁በተሽከርካሪያችን	-10.9834
▁በተቀላቀለበት	-10.9834
▁በተቀመጥኩበት	-10.9834
▁በተቀመጥኩባት	-10.9834
▁በተቀረቀረ	-10.9834
▁በተቀረው	-10.9834
▁በተቀረጸው	-10.9834
▁በተቀበረችበት	-10.9834
▁በተቀባ	-10.9834
▁በተቀየረች	-10.9834
▁በተቃጠለው	-10.9834
▁በተቋቋመው	-10.9834
▁በተቻለ	-10.9834
▁በተቻለው	-10.9834
▁በተቻላቸውም	-10.9834
▁በተነሣባት	-10.9834
▁በተነዱበትና	-10.9834
▁በተነገሩ	-10.9834
▁በተናገረው	-10.9834
▁በተንጣለለው	-10.9834
▁በተኙበት	-10.9834
▁በተኛበትና	-10.9834
▁በተከለለ	-10.9834
▁በተከሰተብኝ	-10.9834
▁በተከፋ	-10.9834
▁በተክለ-ሰውነቷ	-10.9834
▁በተወለድኩ	-10.9834
▁በተወሰነው	-10.9834
▁በተዘጉ	-10.9834
▁በተዘጋ	-10.9834
▁በተዘጋጀ	-10.9834
▁በተዘጋጁበት	-10.9834
▁በተደረደሩት	-10.9834
▁በተደረደሩና	-10.9834
▁በተደበቅሁበት	-10.9834
▁በተደበቅሁባቸው	-10.9834
▁በተደበቅኩባቸው	-10.9834
▁በተደበኩባት	-10.9834
▁በተደጋጋሚም	-10.9834
▁በተገዛችው	-10.9834
▁በተጋደመ	-10.9834
▁በተግባራዊ	-10.9834
▁በተግባር	-10.9834
▁በተጠንቀቅ	-10.9834
▁በተጠጉ	-10.9834
▁በተጣደፈ	-10.9834
▁በተጨነቅሁ	-10.9834
▁በተጨናነቀ	-10.9834
▁በተጨናነቀችና	-10.9834
▁በተጨናነቀው	-10.9834
▁በተጨናነቀውና	-10.9834
▁በተጨናነቁ	-10.9834
▁በተጻራሪ	-10.9834
▁በተፈረመባት	-10.9834
▁በተፈጸመው	-10.9834
▁በቱትሲነቴ	-10.9834
▁በቱትሲነቴ፣	-10.9834
▁በቱትሲነቷ	-10.9834
▁በቱትሲና	-10.9834
▁በታላቅ	-10.9834
▁በታሰበኝ	-10.9834
▁በታንዛኒያ	-10.9834
▁በታዘዙበት	-10.9834
▁በታጠቁ	-10.9834
▁በቴሌቪዥን	-10.9834
▁በትላልቅ	-10.9834
▁በትልቁ	-10.9834
▁በትልቅ	-10.9834
▁በትምህርታዊ	-10.9834
▁በትምህርቴ	-10.9834
▁በትምህርቷ	-10.9834
▁በትራሴ	-10.9834
▁በትርፍ	-10.9834
▁በትንሳኤ	-10.9834
▁በትንፋግ	-10.9834
▁በትከሻው	-10.9834
▁በትካዜ	-10.9834
▁በትዕግሥት	-10.9834
▁በትዳሬ	-10.9834
▁በትጋት	-10.9834
▁በትጥቅ	-10.9834
▁በቻለውም	-10.9834
▁በቻሉት	-10.9834
▁በቻልሽው	-10.9834
▁በችጋር	-10.9834
▁በችግር	-10.9834
▁በኋላ፡፡	-10.9834
▁በኋላ፣	-10.9834
▁በነሃሴ	-10.9834
▁በነበልባል	-10.9834
▁በነበረችው	-10.9834
▁በነበረኝ	-10.9834
▁በነበረ፡፡	-10.9834
▁በነበሩበት	-10.9834
▁በነበሩባቸው	-10.9834
▁በነበሩኝ	-10.9834
▁በነበርኩበት	-10.9834
▁በነበርኩባቸው	-10.9834
▁በነባር	-10.9834
▁በነገሩን	-10.9834
▁በነገር	-10.9834
▁በነገርኳቸው፡፡	-10.9834
▁በነገድ፣	-10.9834
▁በነጩ	-10.9834
▁በነጭ	-10.9834
▁በነፍሳት	-10.9834
▁በኔና	-10.9834
▁በኔው	-10.9834
▁በንብረትነት	-10.9834
▁በንዴትና	-10.9834
▁በንግድ	-10.9834
▁በንግግራችን	-10.9834
▁በአህጉሩ	-10.9834
▁በአለትና	-10.9834
▁በአሉባልታ	-10.9834
▁በአሉታ	-10.9834
▁በአሉታዊው	-10.9834
▁በአልጋው	-10.9834
▁በአመላቸው	-10.9834
▁በአመፅ	-10.9834
▁በአማጽያንና	-10.9834
▁በአምላኬ	-10.9834
▁በአምስት	-10.9834
▁በአሠቃዮቻችን	-10.9834
▁በአሥራ	-10.9834
▁በአሥራአምስት	-10.9834
▁በአራተኛው	-10.9834
▁በአርዓያነት	-10.9834
▁በአሮጌ	-10.9834
▁በአሮጌው	-10.9834
▁በአሰቃቂና	-10.9834
▁በአሳሳቢ	-10.9834
▁በአሳዳጊነት	-10.9834
▁በአስቂኝ	-10.9834
▁በአስተዳዳሪው	-10.9834
▁በአስቸኳይ	-10.9834
▁በአስቸጋሪው	-10.9834
▁በአስደሳች	-10.9834
▁በአሸናፊነት	-10.9834
▁በአቀባበሉ	-10.9834
▁በአብረቅራቂ	-10.9834
▁በአብሮነቱ	-10.9834
▁በአቧራማው	-10.9834
▁በአቧራና	-10.9834
▁በአቧራው	-10.9834
▁በአታን	-10.9834
▁በአትላንታ	-10.9834
▁በአንካሳ	-10.9834
▁በአንደኛ	-10.9834
▁በአንደኛዋ	-10.9834
▁በአንዳንድ	-10.9834
▁በአንድም	-10.9834
▁በአንድነት፡፡	-10.9834
▁በአንዷ	-10.9834
▁በአንገቱ	-10.9834
▁በአንጻሩ	-10.9834
▁በአንጻራዊ	-10.9834
▁በአንጻራዊነት	-10.9834
▁በአእምሮ	-10.9834
▁በአእምሮና	-10.9834
▁በአእምሮዬና	-10.9834
▁በአካል፣	-10.9834
▁በአካባቢያቸው	-10.9834
▁በአካባቢዬ	-10.9834
▁በአውራጃችን	-10.9834
▁በአዕምሯቸው	-10.9834
▁በአየሩ	-10.9834
▁በአያሌው	-10.9834
▁በአያትሽ	-10.9834
▁በአደጋ	-10.9834
▁በአዲስ	-10.9834
▁በአዳሪ	-10.9834
▁በአዳራሹ	-10.9834
▁በአዳፋና	-10.9834
▁በአዳፍኔ	-10.9834
▁በአድራሻ	-10.9834
▁በአድናቆት፡፡	-10.9834
▁በአገሬው	-10.9834
▁በአጋጣሚ	-10.9834
▁በአግላይ	-10.9834
▁በአጠቃላይ	-10.9834
▁በአጠገብህ	-10.9834
▁በአጥሩ	-10.9834
▁በአጥር	-10.9834
▁በአጥጋቢ	-10.9834
▁በአጽናፍ	-10.9834
▁በኢንተርሃምዌዎቹ	-10.9834
▁በኤይማብል	-10.9834
▁በእምነቴ	-10.9834
▁በእርሱም	-10.9834
▁በእርዱ	-10.9834
▁በእርጋታ	-10.9834
▁በእርግጠኛነት	-10.9834
▁በእርግጠኝት	-10.9834
▁በእርግጠኝነትም	-10.9834
▁በእርግጥ!	-10.9834
▁በእሳት	-10.9834
▁በእስር	-10.9834
▁በእቅዴ	-10.9834
▁በእነዚህ	-10.9834
▁በእናቱ	-10.9834
▁በእናታቸው	-10.9834
▁በእናታችን	-10.9834
▁በእናቴ	-10.9834
▁በእናቴና	-10.9834
▁በእናትሽ	-10.9834
▁በእኔና	-10.9834
▁በእንስሳት	-10.9834
▁በእንባዋ	-10.9834
▁በእንደዚያ	-10.9834
▁በእንግሊዝኛው	-10.9834
▁በእንግሊዝኛ፡፡	-10.9834
▁በእንግዳው	-10.9834
▁በእከክና	-10.9834
▁በእውኑ	-10.9834
▁በእያንዳንዳችን	-10.9834
▁በእጃችን	-10.9834
▁በእጅዎ	-10.9834
▁በእጅግ	-10.9834
▁በእጆቹ	-10.9834
▁በእጆቹና	-10.9834
▁በእጆቻቸው	-10.9834
▁በእጆቻችን	-10.9834
▁በእጆችህ	-10.9834
▁በእገዛችሁ	-10.9834
▁በእግራችንማ	-10.9834
▁በእግዚአብሔርና	-10.9834
▁በእጓለማውታ	-10.9834
▁በእፎይታ	-10.9834
▁በኦገስቲን	-10.9834
▁በከለላቸው	-10.9834
▁በከረረ	-10.9834
▁በከረጢት	-10.9834
▁በከባድ	-10.9834
▁በከተማዬ	-10.9834
▁በከንፈር	-10.9834
▁በከንፈሮቿ	-10.9834
▁በከፉበትና	-10.9834
▁በከፋ	-10.9834
▁በኩርፊያ	-10.9834
▁በኩሽና	-10.9834
▁በኪሎሜትሮች	-10.9834
▁በኪሴ	-10.9834
▁በኪቦሆ	-10.9834
▁በካራቴ	-10.9834
▁በካባዪ	-10.9834
▁በኬላ	-10.9834
▁በክልሉ	-10.9834
▁በክምሩ	-10.9834
▁በክረምት	-10.9834
▁በክብ	-10.9834
▁በክንፎቹም	-10.9834
▁በክፉ	-10.9834
▁በክፍለ	-10.9834
▁በክፍሏ	-10.9834
▁በኮሌጅ	-10.9834
▁በወለሉም	-10.9834
▁በወላጆቿ	-10.9834
▁በወራት	-10.9834
▁በወሬያቸው	-10.9834
▁በወር?››	-10.9834
▁በወርቃማ	-10.9834
▁በወርቃማው	-10.9834
▁በወሮበሎችና	-10.9834
▁በወታደሮቹ	-10.9834
▁በወንዙ	-10.9834
▁በወንድ	-10.9834
▁በወንድሜም	-10.9834
▁በወንድሞቼም	-10.9834
▁በወንዶቹ	-10.9834
▁በወዳጅነት	-10.9834
▁በወገቡ	-10.9834
▁በወገን	-10.9834
▁በወጉ	-10.9834
▁በወጣበት	-10.9834
▁በወጣቱ	-10.9834
▁በዉሻ	-10.9834
▁በዋነኛነት	-10.9834
▁በዋና	-10.9834
▁በውስጣቸው	-10.9834
▁በውስጣችን	-10.9834
▁በውስጥ	-10.9834
▁በውስጧ	-10.9834
▁በውድ	-10.9834
▁በውድቀትም	-10.9834
▁በውጪ	-10.9834
▁በዓሉ	-10.9834
▁በዓላችንን	-10.9834
▁በዓሌ	-10.9834
▁በዓይናቸው	-10.9834
▁በዓይኖቹ	-10.9834
▁በዓይኖቻቸው	-10.9834
▁በዓይኗ	-10.9834
▁በዕቅዱ	-10.9834
▁በዕንጨትና	-10.9834
▁በዘላለማዊ	-10.9834
▁በዘረጋችሁ	-10.9834
▁በዘር፣	-10.9834
▁በዘገባው	-10.9834
▁በዘጠኝ	-10.9834
▁በዙሪያቸው	-10.9834
▁በዚሁ	-10.9834
▁በዚሁም	-10.9834
▁በዛየር	-10.9834
▁በዛፍ	-10.9834
▁በዛ፡፡	-10.9834
▁በዜግነት	-10.9834
▁በዝርዝሩ	-10.9834
▁በዝርዝሩም	-10.9834
▁በዝርያ፣	-10.9834
▁በዝተው	-10.9834
▁በዝታችሁብኛል፡፡››	-10.9834
▁በየ12	-10.9834
▁በየሄደችበት	-10.9834
▁በየልባችን	-10.9834
▁በየሐይቁ፣	-10.9834
▁በየማለዳው	-10.9834
▁በየምሽቱ	-10.9834
▁በየሣርና	-10.9834
▁በየሳምንቱ	-10.9834
▁በየተራ	-10.9834
▁በየተቀመጡባቸው	-10.9834
▁በየአሥራአምስት	-10.9834
▁በየክፍሎቹም	-10.9834
▁በየጉድጓዱ	-10.9834
▁በየጊዜው	-10.9834
▁በየጎዳናው	-10.9834
▁በየጠዋቱ	-10.9834
▁በየጥላው	-10.9834
▁በየጥሻው	-10.9834
▁በየጥቂት	-10.9834
▁በዩኒቨርሲቲዬ	-10.9834
▁በዪኝ	-10.9834
▁በያዛቸው	-10.9834
▁በያገባኛል	-10.9834
▁በይ!››	-10.9834
▁በይ?	-10.9834
▁በይቅር	-10.9834
▁በይደር	-10.9834
▁በይ፡፡››	-10.9834
▁በይ፤	-10.9834
▁በደ-መነፍስ	-10.9834
▁በደህና	-10.9834
▁በደህንነት	-10.9834
▁በደለኝነት	-10.9834
▁በደልን	-10.9834
▁በደመ-ነፍስ	-10.9834
▁በደመ-ነፍስም	-10.9834
▁በደመና	-10.9834
▁በደምሳሳው	-10.9834
▁በደረሰብን	-10.9834
▁በደረሰችበት	-10.9834
▁በደረሳቸው	-10.9834
▁በደረጃው	-10.9834
▁በደርዘን	-10.9834
▁በደርዘኖች፣	-10.9834
▁በደስታዬ	-10.9834
▁በደቂቃዎች	-10.9834
▁በደቡብ	-10.9834
▁በደብዛዛው	-10.9834
▁በደብዳቤና	-10.9834
▁በደነገጥክና	-10.9834
▁በደኑ	-10.9834
▁በደግነት፣	-10.9834
▁በደጎቹም	-10.9834
▁በዲያብሎስ	-10.9834
▁በዳማሲንና	-10.9834
▁በድህነት	-10.9834
▁በድል	-10.9834
▁በድምጾቻቸው	-10.9834
▁በድርጊቴ	-10.9834
▁በድሮው	-10.9834
▁በድብደባ	-10.9834
▁በድን	-10.9834
▁በድንገተኛው	-10.9834
▁በድንጋይ	-10.9834
▁በድንጋይና	-10.9834
▁በድንግል	-10.9834
▁በድግስ	-10.9834
▁በድግሶች	-10.9834
▁በዶቅዶቄው	-10.9834
▁በጀማው	-10.9834
▁በጀስዊቶች	-10.9834
▁በጀግና	-10.9834
▁በጅሙ	-10.9834
▁በጅቷቸው	-10.9834
▁በጆሮቼ	-10.9834
▁በጆሮዎቼ	-10.9834
▁በገመተው	-10.9834
▁በገበታሽ	-10.9834
▁በገቡላት	-10.9834
▁በገንኩ፡፡	-10.9834
▁በገዛ	-10.9834
▁በገደሉ	-10.9834
▁በገጀሮቻቸው	-10.9834
▁በገጠመኝ	-10.9834
▁በገጠርም	-10.9834
▁በጉልበቱ	-10.9834
▁በጉልበቶቼ	-10.9834
▁በጉሮሮዬ	-10.9834
▁በጉቦ	-10.9834
▁በጉንጮቿ	-10.9834
▁በጉድጓዱ	-10.9834
▁በጉድጓድ	-10.9834
▁በጊሰኚ	-10.9834
▁በጊዜ	-10.9834
▁በጊዜው	-10.9834
▁በጊዜያዊ	-10.9834
▁በጊዜያዊነት	-10.9834
▁በጋለው	-10.9834
▁በጋራ	-10.9834
▁በጋብቻ	-10.9834
▁በጌታዬ	-10.9834
▁በግላችን	-10.9834
▁በግል	-10.9834
▁በግም	-10.9834
▁በግምት	-10.9834
▁በግምገማ	-10.9834
▁በግራ-ግባት	-10.9834
▁በግራ-ግባትም	-10.9834
▁በግራጫው	-10.9834
▁በግንቦት	-10.9834
▁በግኜም	-10.9834
▁በግድያ	-10.9834
▁በጎልዳፋ	-10.9834
▁በጎረቤቶቻቸው፣	-10.9834
▁በጎውን	-10.9834
▁በጓሮ	-10.9834
▁በጓደኞቼም	-10.9834
▁በጠላት	-10.9834
▁በጠረጴዛው	-10.9834
▁በጠቆማቸው	-10.9834
▁በጠየቁ	-10.9834
▁በጠየቅኋቸው	-10.9834
▁በጠጣሩ	-10.9834
▁በጡጫ	-10.9834
▁በጣ...ም	-10.9834
▁በጣም...	-10.9834
▁በጣቶቼ	-10.9834
▁በጣፋጭና	-10.9834
▁በጤናና	-10.9834
▁በጥላቻና	-10.9834
▁በጥረት፣	-10.9834
▁በጥሬ	-10.9834
▁በጥርሱ	-10.9834
▁በጥርሶቼ	-10.9834
▁በጥሻ	-10.9834
▁በጥሻው	-10.9834
▁በጥቅምት	-10.9834
▁በጥንካሬዋ	-10.9834
▁በጥንካሬው	-10.9834
▁በጥያቄ	-10.9834
▁በጥያቄያቸው	-10.9834
▁በጥያቄያችን	-10.9834
▁በጥያቄዬ	-10.9834
▁በጥይትና	-10.9834
▁በጥጋቷ	-10.9834
▁በጦርነት	-10.9834
▁በጨለማውም	-10.9834
▁በጨረሱ	-10.9834
▁በጨረቃው	-10.9834
▁በጨርሻለሁ	-10.9834
▁በጨዋታ	-10.9834
▁በጨፈንኩ	-10.9834
▁በጩኸት	-10.9834
▁በጭለማው	-10.9834
▁በጭራሽ››	-10.9834
▁በጭስ	-10.9834
▁በጭኔ	-10.9834
▁በጭንቀት	-10.9834
▁በጭፍጨፋው	-10.9834
▁በጮኸ	-10.9834
▁በጸለይኩ	-10.9834
▁በጸሎታችሁ	-10.9834
▁በጸሎቴ	-10.9834
▁በጸሎቴና	-10.9834
▁በጸጸት	-10.9834
▁በጻፍኩት	-10.9834
▁በጽሕፈት	-10.9834
▁በጽሞና	-10.9834
▁በጽናት	-10.9834
▁በጽንፈኛ	-10.9834
▁በጽድ	-10.9834
▁በፈለጉ	-10.9834
▁በፈለግሁበት	-10.9834
▁በፈረንሳውያን	-10.9834
▁በፈረንሳዩ	-10.9834
▁በፈረንሳዮቹ	-10.9834
▁በፈረንሳዮች	-10.9834
▁በፈተናው	-10.9834
▁በፈታኝ	-10.9834
▁በፈካ	-10.9834
▁በፈገግታና	-10.9834
▁በፈገግታ፡፡	-10.9834
▁በፈጠረህ	-10.9834
▁በፈጠረሽ	-10.9834
▁በፈጠረኝ	-10.9834
▁በፈጠራችሁ	-10.9834
▁በፊት፡፡	-10.9834
▁በፌሊሲን	-10.9834
▁በፍሥሐ	-10.9834
▁በፍራቻ	-10.9834
▁በፍራቻና	-10.9834
▁በፍርድ	-10.9834
▁በፍቅሩና	-10.9834
▁በፍቅሬ	-10.9834
▁በፍቅርህ	-10.9834
▁በፍቅርህና	-10.9834
▁በፍቅር፡፡	-10.9834
▁ቡሆሮ፣	-10.9834
▁ቡችላ	-10.9834
▁ቡና፤	-10.9834
▁ቡን	-10.9834
▁ቡድኑን	-10.9834
▁ቡድናችን	-10.9834
▁ቡድንንም	-10.9834
▁ቡድን፡-	-10.9834
▁ቡድኗን	-10.9834
▁ቡጊንጎ፡፡	-10.9834
▁ቢ	-10.9834
▁ቢሄዱ	-10.9834
▁ቢሆን!	-10.9834
▁ቢሆንልን	-10.9834
▁ቢሆንልኝ!	-10.9834
▁ቢሆንም፡፡	-10.9834
▁ቢሆንስ	-10.9834
▁ቢሆንብኝም	-10.9834
▁ቢለብሱም	-10.9834
▁ቢለውም	-10.9834
▁ቢሊየን	-10.9834
▁ቢላዋው	-10.9834
▁ቢላዎቻቸውን	-10.9834
▁ቢላዎችና	-10.9834
▁ቢልም	-10.9834
▁ቢልክልኝ	-10.9834
▁ቢመስልም	-10.9834
▁ቢሞክሩም	-10.9834
▁ቢሟጠጥ፤	-10.9834
▁ቢሰማም	-10.9834
▁ቢሳነኝም	-10.9834
▁ቢሳናትም	-10.9834
▁ቢስቅም	-10.9834
▁ቢሽክሊሊቱን	-10.9834
▁ቢቀልዱበትም	-10.9834
▁ቢቀራትም	-10.9834
▁ቢበልጠኝም	-10.9834
▁ቢበሳጭም	-10.9834
▁ቢቢሲ	-10.9834
▁ቢባልም	-10.9834
▁ቢተኩም	-10.9834
▁ቢታይበትም	-10.9834
▁ቢችሉም	-10.9834
▁ቢነግሩንም	-10.9834
▁ቢኖረን	-10.9834
▁ቢኖረንም	-10.9834
▁ቢኖረኝ››	-10.9834
▁ቢኖሩም	-10.9834
▁ቢኖርብህ	-10.9834
▁ቢከተልም	-10.9834
▁ቢወረውሩ	-10.9834
▁ቢወስደን	-10.9834
▁ቢወድቅ	-10.9834
▁ቢያስመስለውም	-10.9834
▁ቢያስቀምጠኝ	-10.9834
▁ቢያስቡ	-10.9834
▁ቢያስታውቅም	-10.9834
▁ቢያስፈራም	-10.9834
▁ቢያሸማቅቀኝም	-10.9834
▁ቢያበሳጨኝም	-10.9834
▁ቢያበቃም	-10.9834
▁ቢያናግረውም	-10.9834
▁ቢያንኳኳብኝ	-10.9834
▁ቢያካሂድ	-10.9834
▁ቢያወርዱንም	-10.9834
▁ቢያዘጋጁ	-10.9834
▁ቢያየኝ	-10.9834
▁ቢያዩም	-10.9834
▁ቢያዩትም	-10.9834
▁ቢያደርጉ	-10.9834
▁ቢያድነንም	-10.9834
▁ቢያድኑኝም	-10.9834
▁ቢያገኟችሁ	-10.9834
▁ቢያፈጥም	-10.9834
▁ቢደራጁ	-10.9834
▁ቢደርሱ	-10.9834
▁ቢደርስባትም	-10.9834
▁ቢደብቀንም	-10.9834
▁ቢገልጹልኝም	-10.9834
▁ቢገባልኝም	-10.9834
▁ቢገድሏት	-10.9834
▁ቢገጥመኝ	-10.9834
▁ቢጋረጡብኝም	-10.9834
▁ቢጋብዘኝም	-10.9834
▁ቢጣሩም	-10.9834
▁ቢጣበብም	-10.9834
▁ቢጤ	-10.9834
▁ቢጨመሩብንም	-10.9834
▁ቢጫና	-10.9834
▁ቢፈልጉም	-10.9834
▁ቢፈልግም	-10.9834
▁ባለህ	-10.9834
▁ባለመስማማት	-10.9834
▁ባለመቻሉ	-10.9834
▁ባለመኖሩና	-10.9834
▁ባለመፈጸማችን	-10.9834
▁ባለመፍቀዴና	-10.9834
▁ባለሥልጣን	-10.9834
▁ባለራዕዩ፣	-10.9834
▁ባለስልጣናቱ	-10.9834
▁ባለሽ	-10.9834
▁ባለበትና	-10.9834
▁ባለቤታቸው	-10.9834
▁ባለቤታቸውና	-10.9834
▁ባለቤታቸውን	-10.9834
▁ባለቤቴ፣	-10.9834
▁ባለቤት፣	-10.9834
▁ባለችበት	-10.9834
▁ባለና	-10.9834
▁ባለንበት	-10.9834
▁ባለንብረት	-10.9834
▁ባለኝ፡፡	-10.9834
▁ባለድልና	-10.9834
▁ባለጌ	-10.9834
▁ባለፈው	-10.9834
▁ባለፉ	-10.9834
▁ባላየኋቸው	-10.9834
▁ባላያቸውም	-10.9834
▁ባላይ	-10.9834
▁ባላገኝም	-10.9834
▁ባላጨናንቀውም	-10.9834
▁ባሌ፣	-10.9834
▁ባል	-10.9834
▁ባልሆነው	-10.9834
▁ባልሆንኩበት	-10.9834
▁ባልተለመደ	-10.9834
▁ባልተጠበቀ	-10.9834
▁ባልቻልኩት	-10.9834
▁ባልንጀራዬ	-10.9834
▁ባልንጀራዬ፣	-10.9834
▁ባልንጀሮቿ	-10.9834
▁ባልንጀሮቿን	-10.9834
▁ባልከፋ፡፡	-10.9834
▁ባልኩት	-10.9834
▁ባልያዘኝ	-10.9834
▁ባልደረባና	-10.9834
▁ባልደረባው	-10.9834
▁ባልደረቦቼ	-10.9834
▁ባልደረቦቿና	-10.9834
▁ባልዲ	-10.9834
▁ባልጠበቅሁት	-10.9834
▁ባልጠበቅም	-10.9834
▁ባልፈራ	-10.9834
▁ባል፣	-10.9834
▁ባሎቻቸው	-10.9834
▁ባሏንና	-10.9834
▁ባሏን፣	-10.9834
▁ባመኗቸው	-10.9834
▁ባመጣም	-10.9834
▁ባመጣኝ	-10.9834
▁ባምንም	-10.9834
▁ባረን	-10.9834
▁ባረጠባቸው	-10.9834
▁ባርካቸው፤	-10.9834
▁ባርኬያለሁ፡፡	-10.9834
▁ባርኬያችኋለሁ››	-10.9834
▁ባርኮ	-10.9834
▁ባሰ	-10.9834
▁ባሰቃየኝ	-10.9834
▁ባሰብኩት	-10.9834
▁ባሳለፈቻቸው	-10.9834
▁ባሳቀን	-10.9834
▁ባሳየሁት	-10.9834
▁ባሳየው	-10.9834
▁ባስመዘግብም	-10.9834
▁ባስታውሰው፤	-10.9834
▁ባስታውሳት	-10.9834
▁ባስፈለጋቸው	-10.9834
▁ባሸር	-10.9834
▁ባቃተኝ	-10.9834
▁ባቄላ	-10.9834
▁ባቄላ፣	-10.9834
▁ባቅራቢያችን	-10.9834
▁ባቅድም	-10.9834
▁ባቆመበት	-10.9834
▁ባታስገባን	-10.9834
▁ባታዪአቸው	-10.9834
▁ባትሆን	-10.9834
▁ባትመለስልኝ	-10.9834
▁ባትሪ	-10.9834
▁ባትሰሟቸው	-10.9834
▁ባትነካኩ	-10.9834
▁ባትጠራጠሩ፣	-10.9834
▁ባነሰ	-10.9834
▁ባነበበ	-10.9834
▁ባነበበብኩለት	-10.9834
▁ባናውቅም	-10.9834
▁ባንሆንም	-10.9834
▁ባንሰማ	-10.9834
▁ባንቺ	-10.9834
▁ባንደኛው	-10.9834
▁ባንዲራ	-10.9834
▁ባንዳቸው	-10.9834
▁ባንድነት	-10.9834
▁ባንጀራዬ	-10.9834
▁ባንገታቸው	-10.9834
▁ባካሄዱባቸው	-10.9834
▁ባወቀ	-10.9834
▁ባውቀው	-10.9834
▁ባውቀውም	-10.9834
▁ባውዛዎች	-10.9834
▁ባዚል...	-10.9834
▁ባዚል፣	-10.9834
▁ባየንበት	-10.9834
▁ባዩት	-10.9834
▁ባያስተምሩንም	-10.9834
▁ባያቸው	-10.9834
▁ባያውቁም	-10.9834
▁ባያገግሙም	-10.9834
▁ባይቀንሰው	-10.9834
▁ባይተዋር	-10.9834
▁ባይታወቀንም	-10.9834
▁ባይነገረኝም	-10.9834
▁ባይነግሩኝም	-10.9834
▁ባይኖር	-10.9834
▁ባይደርሰኝ	-10.9834
▁ባይገልጽም	-10.9834
▁ባደረቦቹ	-10.9834
▁ባደረግሁባቸው	-10.9834
▁ባገኘኋት	-10.9834
▁ባገኘው	-10.9834
▁ባገኙበት	-10.9834
▁ባገኙባት	-10.9834
▁ባጋጠሙኝ	-10.9834
▁ባጠነክረውም	-10.9834
▁ባጣም	-10.9834
▁ባፕቲስትና	-10.9834
▁ባፕቲስት፤	-10.9834
▁ቤልጅየማውያን	-10.9834
▁ቤልጅዬማውያኑና	-10.9834
▁ቤልጅዬማውያን	-10.9834
▁ቤልጅዬም	-10.9834
▁ቤልጅዬም፣	-10.9834
▁ቤተ-መንግሥት	-10.9834
▁ቤተ-ክርስቲያኑ	-10.9834
▁ቤተ-ክርስቲያን	-10.9834
▁ቤተ-ክርስቲያንን	-10.9834
▁ቤተሰቡ፣	-10.9834
▁ቤተሰባችንን	-10.9834
▁ቤተሰቤም	-10.9834
▁ቤተሰቦቻቸውንና	-10.9834
▁ቤተሰቦቻችን	-10.9834
▁ቤተሰቦቻችንን	-10.9834
▁ቤተሰቦቻችንን፣	-10.9834
▁ቤተሰቦቼ	-10.9834
▁ቤተሰቦቼን	-10.9834
▁ቤተሰቦች?	-10.9834
▁ቤተሰቧና	-10.9834
▁ቤተሰቧን	-10.9834
▁ቤተክርስቲያንን	-10.9834
▁ቤተክርስቲያን፣	-10.9834
▁ቤቱና	-10.9834
▁ቤቱንም	-10.9834
▁ቤቱን፣	-10.9834
▁ቤትሽ	-10.9834
▁ቤትን	-10.9834
▁ቤቶቻቸውን	-10.9834
▁ቤቶቻችሁን	-10.9834
▁ቤቶቻችን	-10.9834
▁ቤቶችና	-10.9834
▁ብሂል	-10.9834
▁ብሆን?	-10.9834
▁ብሆንና	-10.9834
▁ብለቃቅምም	-10.9834
▁ብላለች!	-10.9834
▁ብላት	-10.9834
▁ብላክ	-10.9834
▁ብላክና	-10.9834
▁ብላ፡፡	-10.9834
▁ብልሃት	-10.9834
▁ብልም	-10.9834
▁ብልጠት	-10.9834
▁ብልጭ	-10.9834
▁ብልጭታና	-10.9834
▁ብሎብኛል፡፡	-10.9834
▁ብሎት	-10.9834
▁ብሎኛል...	-10.9834
▁ብሎኝና	-10.9834
▁ብሏቸዋል	-10.9834
▁ብሔራዊው	-10.9834
▁ብመኝም	-10.9834
▁ብሟሟትም	-10.9834
▁ብረሳውም	-10.9834
▁ብረሸን	-10.9834
▁ብረት	-10.9834
▁ብረትለበስ	-10.9834
▁ብረትን	-10.9834
▁ብርሃኑ	-10.9834
▁ብርሃናማ	-10.9834
▁ብርሃንም	-10.9834
▁ብርሃንን	-10.9834
▁ብርሃን፣	-10.9834
▁ብርበራ	-10.9834
▁ብርቱካናማ	-10.9834
▁ብርታቴ	-10.9834
▁ብርታት	-10.9834
▁ብርታትሽ፣	-10.9834
▁ብርታትና	-10.9834
▁ብርታትን፣	-10.9834
▁ብርታቷ	-10.9834
▁ብርያን፣	-10.9834
▁ብርድልብስ	-10.9834
▁ብሮድካስቲግ	-10.9834
▁ብስጭቴ	-10.9834
▁ብስጭቴን	-10.9834
▁ብስጭትና	-10.9834
▁ብስጭት፣	-10.9834
▁ብሶት	-10.9834
▁ብቁ	-10.9834
▁ብቆይ	-10.9834
▁ብበር››	-10.9834
▁ብታልፍም	-10.9834
▁ብታምኑም	-10.9834
▁ብታሰሙ	-10.9834
▁ብታወጣ	-10.9834
▁ብታዩ	-10.9834
▁ብታዩልን፡፡	-10.9834
▁ብታገኘው	-10.9834
▁ብትሄዱ	-10.9834
▁ብትሉት፣	-10.9834
▁ብትመለሱም	-10.9834
▁ብትመስልም	-10.9834
▁ብትሞክርም	-10.9834
▁ብትሰጭኝ	-10.9834
▁ብትቀርቡ	-10.9834
▁ብትተኚልኝ፡፡››	-10.9834
▁ብትን	-10.9834
▁ብትንትናቸው	-10.9834
▁ብትኖር	-10.9834
▁ብትኖርልኝ	-10.9834
▁ብትወስደን	-10.9834
▁ብትወስጂው	-10.9834
▁ብትወደውም	-10.9834
▁ብትዪ	-10.9834
▁ብትጠይቀውም	-10.9834
▁ብትጠይቃቸውም	-10.9834
▁ብትፀልዩ	-10.9834
▁ብቸኝነትን	-10.9834
▁ብቻህን	-10.9834
▁ብቻም	-10.9834
▁ብቻችሁን	-10.9834
▁ብቻዬንም	-10.9834
▁ብቻ፡፡	-10.9834
▁ብነሳም	-10.9834
▁ብነካካቸው	-10.9834
▁ብነግራቸው	-10.9834
▁ብናሳይም	-10.9834
▁ብናዘግም	-10.9834
▁ብናይም	-10.9834
▁ብናደርግ	-10.9834
▁ብናፍቅም	-10.9834
▁ብንሆን	-10.9834
▁ብንለምነውም	-10.9834
▁ብንሞክር	-10.9834
▁ብንሰማው	-10.9834
▁ብንቀጥልም	-10.9834
▁ብንቆይ	-10.9834
▁ብንቆይም	-10.9834
▁ብንኖርና	-10.9834
▁ብንጀምርም	-10.9834
▁ብንገናኝም	-10.9834
▁ብንጠቃ	-10.9834
▁ብንጠይቃቸውም	-10.9834
▁ብከተለውም	-10.9834
▁ብወድም	-10.9834
▁ብውልም	-10.9834
▁ብዕሩን	-10.9834
▁ብዕሬን	-10.9834
▁ብዕርና	-10.9834
▁ብዙዎቹም	-10.9834
▁ብዙዎቻችን	-10.9834
▁ብዙዎች	-10.9834
▁ብዙዎችም	-10.9834
▁ብዥ	-10.9834
▁ብዥታ	-10.9834
▁ብዪ፡፡››	-10.9834
▁ብያለሁ!	-10.9834
▁ብዬና	-10.9834
▁ብዬዋለሁ	-10.9834
▁ብዬው	-10.9834
▁ብደካክምም	-10.9834
▁ብድሩን	-10.9834
▁ብድራቸውን	-10.9834
▁ብድሯ	-10.9834
▁ብጠብቀውም	-10.9834
▁ብጠፋም	-10.9834
▁ብጣሻም	-10.9834
▁ብጸናበት	-10.9834
▁ብፈልጋቸውም	-10.9834
▁ቦሆሮ	-10.9834
▁ቦምቦች	-10.9834
▁ቦምቦችንም	-10.9834
▁ቦርሳዎቼን፣	-10.9834
▁ቦታም	-10.9834
▁ቦታዎችና	-10.9834
▁ቦንብ	-10.9834
▁ቦንቦችን፣	-10.9834
▁ቦንን	-10.9834
▁ቦዘዋል፡፡	-10.9834
▁ቦዘዋል፣	-10.9834
▁ቦዝኖ	-10.9834
▁ቦዲስ	-10.9834
▁ቧንቧ	-10.9834
▁ቪ.	-10.9834
▁ቪማላ	-10.9834
▁ቪንሴንት	-10.9834
▁ቪያኒስ?	-10.9834
▁ቮልት	-10.9834
▁ተለመነኝ	-10.9834
▁ተለማመንኩ፡፡	-10.9834
▁ተለማመጥኩት፡፡	-10.9834
▁ተለሳለሰች፡፡	-10.9834
▁ተለቀቀ፡፡	-10.9834
▁ተለቆ	-10.9834
▁ተለውጧል	-10.9834
▁ተለውጧል፡፡	-10.9834
▁ተለያዩ	-10.9834
▁ተለያይተሽ	-10.9834
▁ተለያይተናል፤	-10.9834
▁ተላምጄው	-10.9834
▁ተላቀስን	-10.9834
▁ተላቅሰን	-10.9834
▁ተላጠ፡፡	-10.9834
▁ተልዕኮዋን	-10.9834
▁ተልዕኳቸውን	-10.9834
▁ተልፈሰፈሱብኝ፡፡	-10.9834
▁ተመለሰለት	-10.9834
▁ተመለሰና	-10.9834
▁ተመለሱልኝ፡፡	-10.9834
▁ተመለሱ፣	-10.9834
▁ተመለስ!	-10.9834
▁ተመለስኩ፣	-10.9834
▁ተመለሽ	-10.9834
▁ተመለከቱን፣	-10.9834
▁ተመለከትኩ፡፡	-10.9834
▁ተመለከትኳቸው፤	-10.9834
▁ተመላልሷል፤	-10.9834
▁ተመላልሻለሁ፡፡	-10.9834
▁ተመላሽ	-10.9834
▁ተመልሰዋል!	-10.9834
▁ተመልሰዋል፡፡	-10.9834
▁ተመልሳ	-10.9834
▁ተመልሳችሁ	-10.9834
▁ተመልሶለት	-10.9834
▁ተመልሷል	-10.9834
▁ተመልሷል፡፡	-10.9834
▁ተመርኩዞ፣	-10.9834
▁ተመርጬ	-10.9834
▁ተመሰጥኩ፡፡	-10.9834
▁ተመስገን፡፡	-10.9834
▁ተመስጎ	-10.9834
▁ተመትቶ	-10.9834
▁ተመትቼ	-10.9834
▁ተመቶ	-10.9834
▁ተመቻችተን	-10.9834
▁ተመንደግ	-10.9834
▁ተመኘልን፡፡	-10.9834
▁ተመኙላቸው፡፡	-10.9834
▁ተመኚ››	-10.9834
▁ተመኝቻለሁ፤	-10.9834
▁ተመኝቼ	-10.9834
▁ተመድቧል፡፡	-10.9834
▁ተመጦ	-10.9834
▁ተማመኑ፣	-10.9834
▁ተማማልን፡፡	-10.9834
▁ተማምለዋል፡፡	-10.9834
▁ተማምኛለሁ፡፡	-10.9834
▁ተማምኜ፡፡	-10.9834
▁ተማረርኩ፡፡	-10.9834
▁ተማሪዋ	-10.9834
▁ተማሪዎችና	-10.9834
▁ተማሪዎቿ	-10.9834
▁ተማርኩ	-10.9834
▁ተማርኩ፤	-10.9834
▁ተማጸነችው፡፡	-10.9834
▁ተማጸንኩት	-10.9834
▁ተማጸንኳቸው፡፡	-10.9834
▁ተማጽኖ	-10.9834
▁ተማጽኖው	-10.9834
▁ተምረናል፡፡	-10.9834
▁ተምታታባቸው፡፡	-10.9834
▁ተሞሉ፡፡	-10.9834
▁ተሞላሁ፡፡	-10.9834
▁ተሞልቷል	-10.9834
▁ተሞልቷል፡፡	-10.9834
▁ተሞልቷል፤	-10.9834
▁ተሞልቼ፡፡	-10.9834
▁ተሞኘህ?	-10.9834
▁ተሟልቷል፡፡	-10.9834
▁ተሟጠጠ፡፡	-10.9834
▁ተሟጦ	-10.9834
▁ተሟጧል	-10.9834
▁ተሠራሁ፡፡	-10.9834
▁ተሠራጨ፡፡	-10.9834
▁ተሠራጭተዋል፡፡	-10.9834
▁ተሠወረች	-10.9834
▁ተሣሣቅንና	-10.9834
▁ተሣሣቅን፡፡	-10.9834
▁ተረበሽኩ፡፡	-10.9834
▁ተረባረቡበት፤	-10.9834
▁ተረባርበን	-10.9834
▁ተረተር	-10.9834
▁ተረከዞቿን	-10.9834
▁ተረኩላት	-10.9834
▁ተረዳሁት፡፡	-10.9834
▁ተረጋገጠላት	-10.9834
▁ተረጋገጠልን	-10.9834
▁ተረጋጉ፡፡	-10.9834
▁ተረጋጉ››	-10.9834
▁ተረጋጊ፤	-10.9834
▁ተረጋግተን	-10.9834
▁ተረጎምኩላቸው፤	-10.9834
▁ተረፍክ?››	-10.9834
▁ተራመድን፡፡	-10.9834
▁ተራመድኩ፡፡	-10.9834
▁ተራራው	-10.9834
▁ተራሮችን	-10.9834
▁ተራቸውን	-10.9834
▁ተራዬ	-10.9834
▁ተራፊዎችና	-10.9834
▁ተርባ	-10.9834
▁ተርብ	-10.9834
▁ተርቦ	-10.9834
▁ተርጓሚውን	-10.9834
▁ተርፌ	-10.9834
▁ተሰላችቶ	-10.9834
▁ተሰማኝ	-10.9834
▁ተሰማኝና	-10.9834
▁ተሰማው፡፡	-10.9834
▁ተሰምቶ	-10.9834
▁ተሰምቶታል፡፡	-10.9834
▁ተሰምቶናል፡፡	-10.9834
▁ተሰምቶኝና	-10.9834
▁ተሰምቷት	-10.9834
▁ተሰምቷቸዋል፡፡	-10.9834
▁ተሰምቷቸው	-10.9834
▁ተሰራጨ፡፡	-10.9834
▁ተሰቃየ፡፡	-10.9834
▁ተሰቅለዋል፡፡	-10.9834
▁ተሰበሰብን፡፡	-10.9834
[...]
